{
  "version": "1.0",
  "truncation": null,
  "padding": null,
  "added_tokens": [
    {
      "id": 0,
      "content": "[PAD]",
      "single_word": false,
      "lstrip": false,
      "rstrip": false,
      "normalized": false,
      "special": true
    },
    {
      "id": 1,
      "content": "[UNK]",
      "single_word": false,
      "lstrip": false,
      "rstrip": false,
      "normalized": false,
      "special": true
    },
    {
      "id": 2,
      "content": "[CLS]",
      "single_word": false,
      "lstrip": false,
      "rstrip": false,
      "normalized": false,
      "special": true
    },
    {
      "id": 3,
      "content": "[SEP]",
      "single_word": false,
      "lstrip": false,
      "rstrip": false,
      "normalized": false,
      "special": true
    },
    {
      "id": 4,
      "content": "[MASK]",
      "single_word": false,
      "lstrip": false,
      "rstrip": false,
      "normalized": false,
      "special": true
    }
  ],
  "normalizer": null,
  "pre_tokenizer": {
    "type": "Whitespace"
  },
  "post_processor": null,
  "decoder": null,
  "model": {
    "type": "BPE",
    "dropout": null,
    "unk_token": "[UNK]",
    "continuing_subword_prefix": null,
    "end_of_word_suffix": null,
    "fuse_unk": false,
    "byte_fallback": false,
    "ignore_merges": false,
    "vocab": {
      "[PAD]": 0,
      "[UNK]": 1,
      "[CLS]": 2,
      "[SEP]": 3,
      "[MASK]": 4,
      "!": 5,
      "\"": 6,
      "#": 7,
      "$": 8,
      "%": 9,
      "&": 10,
      "'": 11,
      "(": 12,
      ")": 13,
      "*": 14,
      "+": 15,
      ",": 16,
      "-": 17,
      ".": 18,
      "/": 19,
      "0": 20,
      "1": 21,
      "2": 22,
      "3": 23,
      "4": 24,
      "5": 25,
      "6": 26,
      "7": 27,
      "8": 28,
      "9": 29,
      ":": 30,
      ";": 31,
      "=": 32,
      ">": 33,
      "?": 34,
      "@": 35,
      "[": 36,
      "\\": 37,
      "]": 38,
      "_": 39,
      "a": 40,
      "b": 41,
      "c": 42,
      "d": 43,
      "e": 44,
      "f": 45,
      "g": 46,
      "h": 47,
      "i": 48,
      "j": 49,
      "k": 50,
      "l": 51,
      "m": 52,
      "n": 53,
      "o": 54,
      "p": 55,
      "q": 56,
      "r": 57,
      "s": 58,
      "t": 59,
      "u": 60,
      "v": 61,
      "w": 62,
      "x": 63,
      "y": 64,
      "z": 65,
      "{": 66,
      "|": 67,
      "}": 68,
      "": 69,
      "": 70,
      "¡": 71,
      "©": 72,
      "¯": 73,
      "°": 74,
      "¿": 75,
      "×": 76,
      "à": 77,
      "á": 78,
      "ã": 79,
      "ä": 80,
      "ç": 81,
      "è": 82,
      "é": 83,
      "ë": 84,
      "í": 85,
      "ï": 86,
      "ñ": 87,
      "ó": 88,
      "ö": 89,
      "ø": 90,
      "û": 91,
      "ü": 92,
      "ō": 93,
      "ſ": 94,
      "̈": 95,
      "λ": 96,
      "​": 97,
      "–": 98,
      "—": 99,
      "―": 100,
      "“": 101,
      "”": 102,
      "…": 103,
      "™": 104,
      "ツ": 105,
      "in": 106,
      "er": 107,
      "re": 108,
      "an": 109,
      "on": 110,
      "th": 111,
      "st": 112,
      "or": 113,
      "ing": 114,
      "at": 115,
      "en": 116,
      "al": 117,
      "to": 118,
      "ar": 119,
      "es": 120,
      "ou": 121,
      "ed": 122,
      "is": 123,
      "it": 124,
      "le": 125,
      "ic": 126,
      "of": 127,
      "om": 128,
      "the": 129,
      "il": 130,
      "as": 131,
      "ch": 132,
      "ion": 133,
      "am": 134,
      "de": 135,
      "ac": 136,
      "se": 137,
      "ow": 138,
      "ol": 139,
      "for": 140,
      "tr": 141,
      "ay": 142,
      "el": 143,
      "ent": 144,
      "and": 145,
      "ad": 146,
      "ne": 147,
      "ly": 148,
      "ig": 149,
      "sh": 150,
      "ot": 151,
      "be": 152,
      "un": 153,
      "ve": 154,
      "wh": 155,
      "ge": 156,
      "im": 157,
      "um": 158,
      "ers": 159,
      "id": 160,
      "ur": 161,
      "ir": 162,
      "ab": 163,
      "ter": 164,
      "op": 165,
      "ill": 166,
      "ver": 167,
      "pr": 168,
      "ts": 169,
      "lo": 170,
      "are": 171,
      "ak": 172,
      "out": 173,
      "fr": 174,
      "wi": 175,
      "li": 176,
      "ce": 177,
      "mo": 178,
      "con": 179,
      "res": 180,
      "us": 181,
      "ap": 182,
      "man": 183,
      "ation": 184,
      "all": 185,
      "with": 186,
      "up": 187,
      "he": 188,
      "ate": 189,
      "you": 190,
      "new": 191,
      "ump": 192,
      "ist": 193,
      "ul": 194,
      "pe": 195,
      "igh": 196,
      "fe": 197,
      "trump": 198,
      "com": 199,
      "ut": 200,
      "we": 201,
      "od": 202,
      "ct": 203,
      "ag": 204,
      "pl": 205,
      "end": 206,
      "ex": 207,
      "ie": 208,
      "ack": 209,
      "ro": 210,
      "em": 211,
      "af": 212,
      "one": 213,
      "ke": 214,
      "cr": 215,
      "por": 216,
      "ld": 217,
      "wor": 218,
      "iv": 219,
      "ust": 220,
      "art": 221,
      "ain": 222,
      "ess": 223,
      "do": 224,
      "ans": 225,
      "oun": 226,
      "ob": 227,
      "ther": 228,
      "gr": 229,
      "te": 230,
      "ast": 231,
      "cl": 232,
      "from": 233,
      "bl": 234,
      "over": 235,
      "ck": 236,
      "ant": 237,
      "ind": 238,
      "by": 239,
      "bo": 240,
      "ight": 241,
      "if": 242,
      "ye": 243,
      "ass": 244,
      "ud": 245,
      "br": 246,
      "ity": 247,
      "about": 248,
      "ha": 249,
      "po": 250,
      "port": 251,
      "ally": 252,
      "go": 253,
      "qu": 254,
      "ard": 255,
      "ice": 256,
      "ies": 257,
      "ok": 258,
      "off": 259,
      "ment": 260,
      "ia": 261,
      "after": 262,
      "me": 263,
      "ide": 264,
      "aw": 265,
      "can": 266,
      "her": 267,
      "sp": 268,
      "ip": 269,
      "su": 270,
      "our": 271,
      "ive": 272,
      "gh": 273,
      "ays": 274,
      "wom": 275,
      "this": 276,
      "dr": 277,
      "own": 278,
      "ould": 279,
      "not": 280,
      "that": 281,
      "ine": 282,
      "fo": 283,
      "av": 284,
      "how": 285,
      "ake": 286,
      "iz": 287,
      "sc": 288,
      "tim": 289,
      "ial": 290,
      "ous": 291,
      "act": 292,
      "old": 293,
      "no": 294,
      "ell": 295,
      "ire": 296,
      "day": 297,
      "don": 298,
      "eric": 299,
      "per": 300,
      "year": 301,
      "co": 302,
      "ome": 303,
      "ber": 304,
      "mar": 305,
      "ress": 306,
      "now": 307,
      "just": 308,
      "americ": 309,
      "ting": 310,
      "ks": 311,
      "der": 312,
      "dis": 313,
      "ep": 314,
      "get": 315,
      "who": 316,
      "cre": 317,
      "ace": 318,
      "thing": 319,
      "ary": 320,
      "pol": 321,
      "what": 322,
      "ite": 323,
      "age": 324,
      "str": 325,
      "ian": 326,
      "pre": 327,
      "will": 328,
      "has": 329,
      "ton": 330,
      "ach": 331,
      "your": 332,
      "his": 333,
      "00": 334,
      "au": 335,
      "report": 336,
      "att": 337,
      "ever": 338,
      "ail": 339,
      "gu": 340,
      "ick": 341,
      "so": 342,
      "pro": 343,
      "est": 344,
      "ence": 345,
      "ound": 346,
      "pu": 347,
      "ph": 348,
      "more": 349,
      "nation": 350,
      "my": 351,
      "ure": 352,
      "king": 353,
      "ama": 354,
      "ann": 355,
      "ign": 356,
      "ong": 357,
      "ident": 358,
      "into": 359,
      "ild": 360,
      "fir": 361,
      "ame": 362,
      "bu": 363,
      "jo": 364,
      "fl": 365,
      "sup": 366,
      "pa": 367,
      "ough": 368,
      "time": 369,
      "pres": 370,
      "ash": 371,
      "col": 372,
      "ates": 373,
      "sel": 374,
      "woman": 375,
      "ty": 376,
      "stud": 377,
      "its": 378,
      "have": 379,
      "ald": 380,
      "ple": 381,
      "ens": 382,
      "war": 383,
      "able": 384,
      "back": 385,
      "20": 386,
      "part": 387,
      "ions": 388,
      "ins": 389,
      "ry": 390,
      "ish": 391,
      "car": 392,
      "ib": 393,
      "ma": 394,
      "why": 395,
      "ang": 396,
      "ful": 397,
      "wat": 398,
      "donald": 399,
      "ning": 400,
      "than": 401,
      "area": 402,
      "every": 403,
      "ating": 404,
      "ev": 405,
      "ren": 406,
      "et": 407,
      "ces": 408,
      "min": 409,
      "bre": 410,
      "life": 411,
      "says": 412,
      "ouse": 413,
      "any": 414,
      "app": 415,
      "mon": 416,
      "way": 417,
      "ath": 418,
      "first": 419,
      "uck": 420,
      "ors": 421,
      "cho": 422,
      "spe": 423,
      "call": 424,
      "some": 425,
      "fri": 426,
      "aren": 427,
      "med": 428,
      "like": 429,
      "show": 430,
      "friend": 431,
      "house": 432,
      "ile": 433,
      "thr": 434,
      "tur": 435,
      "down": 436,
      "ious": 437,
      "iss": 438,
      "inter": 439,
      "world": 440,
      "cor": 441,
      "ser": 442,
      "sex": 443,
      "akes": 444,
      "ated": 445,
      "ance": 446,
      "ory": 447,
      "ople": 448,
      "people": 449,
      "obama": 450,
      "work": 451,
      "fore": 452,
      "ists": 453,
      "ner": 454,
      "find": 455,
      "ction": 456,
      "women": 457,
      "mer": 458,
      "ase": 459,
      "fin": 460,
      "son": 461,
      "als": 462,
      "cam": 463,
      "gre": 464,
      "ere": 465,
      "air": 466,
      "fam": 467,
      "child": 468,
      "make": 469,
      "tal": 470,
      "they": 471,
      "look": 472,
      "ore": 473,
      "read": 474,
      "ical": 475,
      "ily": 476,
      "sy": 477,
      "vie": 478,
      "aking": 479,
      "bill": 480,
      "mom": 481,
      "white": 482,
      "ted": 483,
      "real": 484,
      "leg": 485,
      "hel": 486,
      "og": 487,
      "ss": 488,
      "publ": 489,
      "ves": 490,
      "self": 491,
      "sen": 492,
      "sur": 493,
      "clin": 494,
      "president": 495,
      "was": 496,
      "emp": 497,
      "ving": 498,
      "wee": 499,
      "again": 500,
      "still": 501,
      "par": 502,
      "ying": 503,
      "star": 504,
      "she": 505,
      "ug": 506,
      "cle": 507,
      "watch": 508,
      "kill": 509,
      "ra": 510,
      "him": 511,
      "ely": 512,
      "cal": 513,
      "sho": 514,
      "cer": 515,
      "other": 516,
      "vot": 517,
      "ds": 518,
      "des": 519,
      "know": 520,
      "rem": 521,
      "public": 522,
      "chr": 523,
      "ho": 524,
      "ree": 525,
      "chool": 526,
      "ese": 527,
      "ied": 528,
      "clinton": 529,
      "law": 530,
      "could": 531,
      "school": 532,
      "fer": 533,
      "ns": 534,
      "paren": 535,
      "sl": 536,
      "gl": 537,
      "acc": 538,
      "most": 539,
      "book": 540,
      "alth": 541,
      "ants": 542,
      "vis": 543,
      "but": 544,
      "je": 545,
      "wo": 546,
      "oll": 547,
      "let": 548,
      "ual": 549,
      "ele": 550,
      "io": 551,
      "when": 552,
      "201": 553,
      "may": 554,
      "ue": 555,
      "comm": 556,
      "ents": 557,
      "fun": 558,
      "black": 559,
      "bar": 560,
      "itt": 561,
      "need": 562,
      "family": 563,
      "cour": 564,
      "ason": 565,
      "gress": 566,
      "wr": 567,
      "ave": 568,
      "gir": 569,
      "kid": 570,
      "would": 571,
      "health": 572,
      "sing": 573,
      "thin": 574,
      "big": 575,
      "ger": 576,
      "che": 577,
      "mill": 578,
      "girl": 579,
      "their": 580,
      "before": 581,
      "does": 582,
      "cover": 583,
      "ope": 584,
      "cur": 585,
      "ise": 586,
      "red": 587,
      "lead": 588,
      "char": 589,
      "face": 590,
      "mu": 591,
      "anc": 592,
      "plan": 593,
      "americans": 594,
      "sm": 595,
      "ff": 596,
      "high": 597,
      "tell": 598,
      "state": 599,
      "should": 600,
      "care": 601,
      "less": 602,
      "ower": 603,
      "nor": 604,
      "erson": 605,
      "under": 606,
      "az": 607,
      "ict": 608,
      "head": 609,
      "ives": 610,
      "gop": 611,
      "ange": 612,
      "bet": 613,
      "har": 614,
      "miss": 615,
      "see": 616,
      "good": 617,
      "play": 618,
      "study": 619,
      "only": 620,
      "ms": 621,
      "ale": 622,
      "vers": 623,
      "too": 624,
      "being": 625,
      "come": 626,
      "odu": 627,
      "rel": 628,
      "ult": 629,
      "american": 630,
      "home": 631,
      "say": 632,
      "rest": 633,
      ",'": 634,
      "bus": 635,
      "cut": 636,
      "gen": 637,
      "uring": 638,
      "last": 639,
      "ands": 640,
      "ations": 641,
      "here": 642,
      "coun": 643,
      "years": 644,
      "10": 645,
      "ding": 646,
      "dead": 647,
      "hol": 648,
      "ys": 649,
      "best": 650,
      "ban": 651,
      "mic": 652,
      "run": 653,
      "ars": 654,
      "prot": 655,
      "room": 656,
      "ats": 657,
      "vide": 658,
      "augh": 659,
      "bur": 660,
      "cent": 661,
      "line": 662,
      "ste": 663,
      "week": 664,
      "hum": 665,
      "death": 666,
      "congress": 667,
      "cial": 668,
      "mor": 669,
      "press": 670,
      "ible": 671,
      "help": 672,
      "won": 673,
      "ics": 674,
      "post": 675,
      "really": 676,
      "trans": 677,
      "mus": 678,
      "going": 679,
      "finds": 680,
      "os": 681,
      "christ": 682,
      "police": 683,
      "clo": 684,
      "fire": 685,
      "hn": 686,
      "where": 687,
      "ends": 688,
      "america": 689,
      "hill": 690,
      "pho": 691,
      "pon": 692,
      "ody": 693,
      "happ": 694,
      "ship": 695,
      "cont": 696,
      "john": 697,
      "view": 698,
      "ork": 699,
      "ism": 700,
      "ced": 701,
      "ade": 702,
      "ames": 703,
      "long": 704,
      "stop": 705,
      "photo": 706,
      "bel": 707,
      "during": 708,
      "gun": 709,
      "ling": 710,
      "secre": 711,
      "bro": 712,
      "ru": 713,
      "ney": 714,
      "ways": 715,
      "paign": 716,
      "campaign": 717,
      "night": 718,
      "ows": 719,
      "cap": 720,
      "ear": 721,
      "win": 722,
      "contr": 723,
      "parents": 724,
      "ah": 725,
      "announ": 726,
      "video": 727,
      "ather": 728,
      "offic": 729,
      "through": 730,
      "den": 731,
      "fil": 732,
      "int": 733,
      "demo": 734,
      "pt": 735,
      "deb": 736,
      "things": 737,
      "bor": 738,
      "gets": 739,
      "list": 740,
      "ric": 741,
      "arch": 742,
      "used": 743,
      "lin": 744,
      "put": 745,
      "right": 746,
      "vel": 747,
      "ream": 748,
      "love": 749,
      "dog": 750,
      "calls": 751,
      "pass": 752,
      "uss": 753,
      "shoot": 754,
      "cou": 755,
      "land": 756,
      "them": 757,
      "olog": 758,
      "vi": 759,
      "ition": 760,
      "form": 761,
      "cy": 762,
      "got": 763,
      "000": 764,
      "party": 765,
      "break": 766,
      "cit": 767,
      "dad": 768,
      "ient": 769,
      "person": 770,
      "reve": 771,
      "colle": 772,
      "ax": 773,
      "ings": 774,
      "attack": 775,
      "hist": 776,
      "getting": 777,
      "ster": 778,
      "ort": 779,
      "bab": 780,
      "les": 781,
      "take": 782,
      "use": 783,
      "wal": 784,
      "republic": 785,
      "ator": 786,
      "change": 787,
      "want": 788,
      "ina": 789,
      "tow": 790,
      "hillary": 791,
      "bir": 792,
      "pect": 793,
      "top": 794,
      "iving": 795,
      "there": 796,
      "ually": 797,
      "cond": 798,
      "against": 799,
      "net": 800,
      "fect": 801,
      "even": 802,
      "kids": 803,
      "men": 804,
      "while": 805,
      "ref": 806,
      "cele": 807,
      "news": 808,
      "mi": 809,
      "comp": 810,
      "secret": 811,
      "rele": 812,
      "democr": 813,
      "cc": 814,
      "power": 815,
      "terr": 816,
      "prob": 817,
      "ball": 818,
      "hu": 819,
      "job": 820,
      "dec": 821,
      "cru": 822,
      "ittle": 823,
      "ases": 824,
      "little": 825,
      "mid": 826,
      "ned": 827,
      "never": 828,
      "feel": 829,
      "aim": 830,
      "nex": 831,
      "set": 832,
      "fuck": 833,
      "ait": 834,
      "gover": 835,
      "la": 836,
      "iness": 837,
      "ready": 838,
      "sand": 839,
      "unch": 840,
      "imm": 841,
      "court": 842,
      "did": 843,
      "pat": 844,
      "def": 845,
      "polit": 846,
      "sa": 847,
      "try": 848,
      "doesn": 849,
      "keep": 850,
      "celebr": 851,
      "cu": 852,
      "gy": 853,
      "tre": 854,
      "pris": 855,
      "coming": 856,
      "blo": 857,
      "cand": 858,
      "fight": 859,
      "que": 860,
      "hor": 861,
      "makes": 862,
      "these": 863,
      "cons": 864,
      "grand": 865,
      "teach": 866,
      "ize": 867,
      "sk": 868,
      "owing": 869,
      "add": 870,
      "gay": 871,
      "ny": 872,
      "open": 873,
      "ivers": 874,
      "boy": 875,
      "national": 876,
      "game": 877,
      "ures": 878,
      "mother": 879,
      "exper": 880,
      "clear": 881,
      "baby": 882,
      "bi": 883,
      "mem": 884,
      "ef": 885,
      "hot": 886,
      "ights": 887,
      "ved": 888,
      "igr": 889,
      "ctor": 890,
      "super": 891,
      "support": 892,
      "unt": 893,
      "bush": 894,
      "bad": 895,
      "god": 896,
      "respon": 897,
      "poll": 898,
      "election": 899,
      "start": 900,
      "dem": 901,
      "test": 902,
      "sexual": 903,
      "next": 904,
      "ier": 905,
      "mil": 906,
      "sol": 907,
      "aring": 908,
      "around": 909,
      "oney": 910,
      "class": 911,
      "guy": 912,
      "emplo": 913,
      "cat": 914,
      "local": 915,
      "teen": 916,
      "takes": 917,
      "step": 918,
      "million": 919,
      "ria": 920,
      "itch": 921,
      "del": 922,
      "ges": 923,
      "vice": 924,
      "wed": 925,
      "ief": 926,
      "bs": 927,
      "mat": 928,
      "intr": 929,
      "ports": 930,
      "cop": 931,
      "ience": 932,
      "ative": 933,
      "claim": 934,
      "sure": 935,
      "..": 936,
      "dire": 937,
      "ft": 938,
      "fail": 939,
      "ham": 940,
      "russ": 941,
      "live": 942,
      "month": 943,
      "aut": 944,
      "ince": 945,
      "ones": 946,
      "made": 947,
      "hold": 948,
      "ris": 949,
      "val": 950,
      "clim": 951,
      "office": 952,
      "protest": 953,
      "fre": 954,
      "lim": 955,
      "two": 956,
      "another": 957,
      "stand": 958,
      "ital": 959,
      "prom": 960,
      "quest": 961,
      "free": 962,
      "sign": 963,
      "gest": 964,
      "college": 965,
      "candid": 966,
      "--": 967,
      "thre": 968,
      "aff": 969,
      "ket": 970,
      "children": 971,
      "business": 972,
      "cts": 973,
      "minut": 974,
      "viol": 975,
      "hand": 976,
      "nu": 977,
      "pop": 978,
      "tain": 979,
      "ons": 980,
      "lear": 981,
      "season": 982,
      "body": 983,
      "vent": 984,
      "ams": 985,
      "fall": 986,
      "had": 987,
      "hour": 988,
      "ians": 989,
      "mass": 990,
      "vo": 991,
      "announces": 992,
      "couple": 993,
      "found": 994,
      "mas": 995,
      "vest": 996,
      "pret": 997,
      "hard": 998,
      "isis": 999,
      "heart": 1000,
      "pos": 1001,
      "away": 1002,
      "food": 1003,
      "finally": 1004,
      "debate": 1005,
      "hom": 1006,
      "sou": 1007,
      "sus": 1008,
      "wants": 1009,
      "york": 1010,
      "eral": 1011,
      "human": 1012,
      "dream": 1013,
      "father": 1014,
      "been": 1015,
      "much": 1016,
      "employe": 1017,
      "ker": 1018,
      "ll": 1019,
      "ness": 1020,
      "ards": 1021,
      "ben": 1022,
      "ps": 1023,
      "led": 1024,
      "vir": 1025,
      "atic": 1026,
      "entire": 1027,
      "uses": 1028,
      "pet": 1029,
      "izes": 1030,
      "actually": 1031,
      "pay": 1032,
      "tw": 1033,
      "sn": 1034,
      "enn": 1035,
      "ities": 1036,
      "key": 1037,
      "reveals": 1038,
      "birth": 1039,
      "give": 1040,
      "plain": 1041,
      "introdu": 1042,
      "fi": 1043,
      "wait": 1044,
      "place": 1045,
      "exp": 1046,
      "anger": 1047,
      "north": 1048,
      "money": 1049,
      "incre": 1050,
      "ross": 1051,
      "crim": 1052,
      "ble": 1053,
      "iver": 1054,
      "anti": 1055,
      "paul": 1056,
      "everyone": 1057,
      "senate": 1058,
      "11": 1059,
      "city": 1060,
      "sum": 1061,
      "tv": 1062,
      "deal": 1063,
      "aster": 1064,
      "climate": 1065,
      "jud": 1066,
      "invest": 1067,
      "better": 1068,
      "cau": 1069,
      "late": 1070,
      "ank": 1071,
      "immigr": 1072,
      "bal": 1073,
      "story": 1074,
      "acy": 1075,
      "trying": 1076,
      "film": 1077,
      "bid": 1078,
      "hal": 1079,
      "male": 1080,
      "nie": 1081,
      "pan": 1082,
      "pope": 1083,
      "ask": 1084,
      "ird": 1085,
      "ares": 1086,
      "shows": 1087,
      "great": 1088,
      "wood": 1089,
      "facebook": 1090,
      "making": 1091,
      "reason": 1092,
      "search": 1093,
      "ott": 1094,
      "unk": 1095,
      "without": 1096,
      "comple": 1097,
      "dle": 1098,
      "jor": 1099,
      "mag": 1100,
      "nment": 1101,
      "sal": 1102,
      "sle": 1103,
      "vic": 1104,
      "retur": 1105,
      "perfect": 1106,
      "ought": 1107,
      "friends": 1108,
      "ech": 1109,
      "hon": 1110,
      "mur": 1111,
      "movie": 1112,
      "far": 1113,
      "swe": 1114,
      "tax": 1115,
      "enough": 1116,
      "ils": 1117,
      "istr": 1118,
      "scient": 1119,
      "media": 1120,
      "ping": 1121,
      "ret": 1122,
      "ional": 1123,
      "adm": 1124,
      "very": 1125,
      "comes": 1126,
      "ending": 1127,
      "grou": 1128,
      "ized": 1129,
      "official": 1130,
      "pul": 1131,
      "sw": 1132,
      "ane": 1133,
      "produ": 1134,
      "think": 1135,
      "dif": 1136,
      "tly": 1137,
      "ips": 1138,
      "students": 1139,
      "government": 1140,
      "die": 1141,
      "fed": 1142,
      "ited": 1143,
      "beg": 1144,
      "prof": 1145,
      "move": 1146,
      "non": 1147,
      "cks": 1148,
      "aud": 1149,
      "hop": 1150,
      "ose": 1151,
      "unve": 1152,
      "mark": 1153,
      "water": 1154,
      "history": 1155,
      "company": 1156,
      "sanders": 1157,
      "fac": 1158,
      "reme": 1159,
      "ich": 1160,
      "ides": 1161,
      "email": 1162,
      "foot": 1163,
      "shooting": 1164,
      "case": 1165,
      "reg": 1166,
      "itter": 1167,
      "ically": 1168,
      "single": 1169,
      "introduces": 1170,
      "cause": 1171,
      "50": 1172,
      "must": 1173,
      "rac": 1174,
      "tex": 1175,
      "urch": 1176,
      "using": 1177,
      "board": 1178,
      "supreme": 1179,
      "middle": 1180,
      "hy": 1181,
      "hur": 1182,
      "ven": 1183,
      "grap": 1184,
      "ired": 1185,
      "discover": 1186,
      "cast": 1187,
      "recor": 1188,
      "speech": 1189,
      "ai": 1190,
      "gn": 1191,
      "iday": 1192,
      "bul": 1193,
      "din": 1194,
      "giving": 1195,
      "ju": 1196,
      "light": 1197,
      "wish": 1198,
      "eng": 1199,
      "already": 1200,
      "ased": 1201,
      "els": 1202,
      "aves": 1203,
      "pretty": 1204,
      "19": 1205,
      "bers": 1206,
      "ering": 1207,
      "fort": 1208,
      "former": 1209,
      "shit": 1210,
      "beaut": 1211,
      "roy": 1212,
      "mee": 1213,
      "talk": 1214,
      "town": 1215,
      "threat": 1216,
      "fut": 1217,
      "mc": 1218,
      "ped": 1219,
      "pic": 1220,
      "same": 1221,
      "ward": 1222,
      "issu": 1223,
      "exe": 1224,
      "crit": 1225,
      "belie": 1226,
      "wedding": 1227,
      "bt": 1228,
      "uc": 1229,
      "second": 1230,
      "appe": 1231,
      "ago": 1232,
      "social": 1233,
      "band": 1234,
      "cow": 1235,
      "name": 1236,
      "ues": 1237,
      "shot": 1238,
      "bert": 1239,
      "writ": 1240,
      "hind": 1241,
      "well": 1242,
      "stre": 1243,
      "releases": 1244,
      "hall": 1245,
      "ler": 1246,
      "sil": 1247,
      "secur": 1248,
      "box": 1249,
      "hero": 1250,
      "cost": 1251,
      "major": 1252,
      "commun": 1253,
      "proble": 1254,
      "pal": 1255,
      "past": 1256,
      "once": 1257,
      "sty": 1258,
      "ality": 1259,
      "alleg": 1260,
      "outs": 1261,
      "having": 1262,
      "country": 1263,
      "aur": 1264,
      "hun": 1265,
      "lot": 1266,
      "pot": 1267,
      "ri": 1268,
      "sch": 1269,
      "tom": 1270,
      "ark": 1271,
      "trav": 1272,
      "prop": 1273,
      "ender": 1274,
      "amaz": 1275,
      "presidential": 1276,
      "kind": 1277,
      "vol": 1278,
      "ony": 1279,
      "geor": 1280,
      "ably": 1281,
      "ape": 1282,
      "ution": 1283,
      "doing": 1284,
      "horr": 1285,
      "sleep": 1286,
      "ca": 1287,
      "ged": 1288,
      "gif": 1289,
      "rom": 1290,
      "sim": 1291,
      "ley": 1292,
      "chang": 1293,
      "ular": 1294,
      "avor": 1295,
      "something": 1296,
      "visit": 1297,
      "didn": 1298,
      "unveils": 1299,
      "daugh": 1300,
      "flo": 1301,
      "jour": 1302,
      "omin": 1303,
      "sub": 1304,
      "times": 1305,
      "claims": 1306,
      "investig": 1307,
      "kore": 1308,
      "lar": 1309,
      "osc": 1310,
      "row": 1311,
      "shop": 1312,
      "behind": 1313,
      "ument": 1314,
      "fron": 1315,
      "rock": 1316,
      "grad": 1317,
      "security": 1318,
      "fans": 1319,
      "rul": 1320,
      "roll": 1321,
      "wash": 1322,
      "order": 1323,
      "depart": 1324,
      "ared": 1325,
      "many": 1326,
      "team": 1327,
      "drug": 1328,
      "full": 1329,
      "republican": 1330,
      "lad": 1331,
      "wall": 1332,
      "ified": 1333,
      "poin": 1334,
      "breaking": 1335,
      "looking": 1336,
      "remind": 1337,
      "christmas": 1338,
      "future": 1339,
      "execut": 1340,
      "12": 1341,
      "30": 1342,
      "ey": 1343,
      "ging": 1344,
      "hen": 1345,
      "ix": 1346,
      "james": 1347,
      "lor": 1348,
      "lat": 1349,
      "ana": 1350,
      "stor": 1351,
      "dest": 1352,
      "wife": 1353,
      "ceo": 1354,
      "spot": 1355,
      "student": 1356,
      "host": 1357,
      "contin": 1358,
      "photos": 1359,
      "cess": 1360,
      "dam": 1361,
      "mess": 1362,
      "might": 1363,
      "rup": 1364,
      "race": 1365,
      "ried": 1366,
      "ses": 1367,
      "sit": 1368,
      "iran": 1369,
      "suit": 1370,
      "voters": 1371,
      "morning": 1372,
      "earth": 1373,
      "fucking": 1374,
      "scientists": 1375,
      "dies": 1376,
      "glo": 1377,
      "insp": 1378,
      "oud": 1379,
      "asks": 1380,
      "ween": 1381,
      "goes": 1382,
      "ments": 1383,
      "phone": 1384,
      "speak": 1385,
      "vote": 1386,
      "thinks": 1387,
      "between": 1388,
      "prison": 1389,
      "half": 1390,
      "group": 1391,
      "foll": 1392,
      "gold": 1393,
      "rights": 1394,
      "forced": 1395,
      "youn": 1396,
      "music": 1397,
      "control": 1398,
      "republicans": 1399,
      "teacher": 1400,
      "hit": 1401,
      "ik": 1402,
      "num": 1403,
      "near": 1404,
      "whe": 1405,
      "stru": 1406,
      "edly": 1407,
      "aged": 1408,
      "hael": 1409,
      "drop": 1410,
      "ryan": 1411,
      "2016": 1412,
      "democrats": 1413,
      "huff": 1414,
      "travel": 1415,
      "date": 1416,
      "ifor": 1417,
      "lab": 1418,
      "mis": 1419,
      "nia": 1420,
      "tar": 1421,
      "repe": 1422,
      "stem": 1423,
      "strug": 1424,
      "iously": 1425,
      "riage": 1426,
      "differ": 1427,
      "days": 1428,
      "today": 1429,
      "ility": 1430,
      "ages": 1431,
      "excit": 1432,
      "explain": 1433,
      "killed": 1434,
      "michael": 1435,
      "prote": 1436,
      "admits": 1437,
      "jim": 1438,
      "mind": 1439,
      "wild": 1440,
      "ino": 1441,
      "sto": 1442,
      "tour": 1443,
      "ica": 1444,
      "ford": 1445,
      "train": 1446,
      "tech": 1447,
      "cked": 1448,
      "marriage": 1449,
      "attemp": 1450,
      "remem": 1451,
      "violence": 1452,
      "gar": 1453,
      "mal": 1454,
      "thor": 1455,
      "because": 1456,
      "gram": 1457,
      "succ": 1458,
      "califor": 1459,
      "muslim": 1460,
      "terror": 1461,
      "bed": 1462,
      "cust": 1463,
      "lg": 1464,
      "mart": 1465,
      "ened": 1466,
      "educ": 1467,
      "obam": 1468,
      "aving": 1469,
      "department": 1470,
      "ders": 1471,
      "div": 1472,
      "ken": 1473,
      "nal": 1474,
      "sent": 1475,
      "spr": 1476,
      "ington": 1477,
      "cept": 1478,
      "apolog": 1479,
      "working": 1480,
      "ustr": 1481,
      "ific": 1482,
      "bernie": 1483,
      "fully": 1484,
      "surv": 1485,
      "ject": 1486,
      "twitter": 1487,
      "california": 1488,
      "lgbt": 1489,
      "15": 1490,
      "bom": 1491,
      "sun": 1492,
      "tou": 1493,
      "ury": 1494,
      "female": 1495,
      "plans": 1496,
      "plann": 1497,
      "doc": 1498,
      "poss": 1499,
      "girls": 1500,
      "milit": 1501,
      "bol": 1502,
      "lam": 1503,
      "ram": 1504,
      "tion": 1505,
      "ises": 1506,
      "ider": 1507,
      "plac": 1508,
      "word": 1509,
      "build": 1510,
      "inside": 1511,
      "everything": 1512,
      "hood": 1513,
      "political": 1514,
      "minutes": 1515,
      "ba": 1516,
      "eating": 1517,
      "fan": 1518,
      "na": 1519,
      "taking": 1520,
      "uge": 1521,
      "inst": 1522,
      "era": 1523,
      "always": 1524,
      "franc": 1525,
      "concer": 1526,
      "rob": 1527,
      "push": 1528,
      "system": 1529,
      "small": 1530,
      "until": 1531,
      "judge": 1532,
      "gi": 1533,
      "side": 1534,
      "icy": 1535,
      "ador": 1536,
      "living": 1537,
      "ext": 1538,
      "hair": 1539,
      "restaur": 1540,
      "running": 1541,
      "russia": 1542,
      "candidate": 1543,
      "employee": 1544,
      "daughter": 1545,
      "front": 1546,
      "francis": 1547,
      "du": 1548,
      "dress": 1549,
      "fli": 1550,
      "jack": 1551,
      "pain": 1552,
      "ink": 1553,
      "thous": 1554,
      "admin": 1555,
      "lik": 1556,
      "meet": 1557,
      "izing": 1558,
      "action": 1559,
      "berg": 1560,
      "histor": 1561,
      "record": 1562,
      "success": 1563,
      "dav": 1564,
      "each": 1565,
      "fast": 1566,
      "mel": 1567,
      "nam": 1568,
      "were": 1569,
      "states": 1570,
      "ira": 1571,
      "aper": 1572,
      "few": 1573,
      "worth": 1574,
      "activ": 1575,
      "warns": 1576,
      "wrong": 1577,
      "leader": 1578,
      "refuge": 1579,
      "summer": 1580,
      "victim": 1581,
      "murder": 1582,
      "dy": 1583,
      "mad": 1584,
      "reports": 1585,
      "asy": 1586,
      "prim": 1587,
      "road": 1588,
      "assa": 1589,
      "idea": 1590,
      "owner": 1591,
      "tells": 1592,
      "meeting": 1593,
      "street": 1594,
      "administr": 1595,
      "bow": 1596,
      "econ": 1597,
      "favor": 1598,
      "ires": 1599,
      "song": 1600,
      "save": 1601,
      "wind": 1602,
      "thought": 1603,
      "left": 1604,
      "confir": 1605,
      "point": 1606,
      "pregn": 1607,
      "service": 1608,
      "legal": 1609,
      "iversity": 1610,
      "econom": 1611,
      "dan": 1612,
      "rick": 1613,
      "acare": 1614,
      "oly": 1615,
      "conf": 1616,
      "justice": 1617,
      "biden": 1618,
      "cowork": 1619,
      "obamacare": 1620,
      "abe": 1621,
      "bing": 1622,
      "di": 1623,
      "kim": 1624,
      "ron": 1625,
      "three": 1626,
      "ense": 1627,
      "trail": 1628,
      "lives": 1629,
      "cancer": 1630,
      "flu": 1631,
      "billion": 1632,
      "girlfriend": 1633,
      "missing": 1634,
      "mike": 1635,
      "secretary": 1636,
      "george": 1637,
      "gan": 1638,
      "gender": 1639,
      "hil": 1640,
      "thers": 1641,
      "toge": 1642,
      "tru": 1643,
      "eless": 1644,
      "union": 1645,
      "feat": 1646,
      "ground": 1647,
      "march": 1648,
      "someone": 1649,
      "looks": 1650,
      "needs": 1651,
      "check": 1652,
      "cruz": 1653,
      "korea": 1654,
      "thousands": 1655,
      "together": 1656,
      "bon": 1657,
      "card": 1658,
      "gives": 1659,
      "rece": 1660,
      "arr": 1661,
      "isra": 1662,
      "shut": 1663,
      "ured": 1664,
      "thanks": 1665,
      "turn": 1666,
      "director": 1667,
      "israel": 1668,
      "dou": 1669,
      "sat": 1670,
      "tor": 1671,
      "depress": 1672,
      "trip": 1673,
      "neigh": 1674,
      "imp": 1675,
      "lie": 1676,
      "apart": 1677,
      "accident": 1678,
      "fly": 1679,
      "hope": 1680,
      "mex": 1681,
      "anim": 1682,
      "store": 1683,
      "chief": 1684,
      "lost": 1685,
      "appro": 1686,
      "ationship": 1687,
      "bring": 1688,
      "interview": 1689,
      "letter": 1690,
      "relationship": 1691,
      "personal": 1692,
      "probably": 1693,
      "...": 1694,
      "hours": 1695,
      "south": 1696,
      "officials": 1697,
      "believe": 1698,
      "restaurant": 1699,
      "nc": 1700,
      "oc": 1701,
      "vin": 1702,
      "ators": 1703,
      "yet": 1704,
      "fox": 1705,
      "color": 1706,
      "launch": 1707,
      "young": 1708,
      "protect": 1709,
      "bit": 1710,
      "ith": 1711,
      "mate": 1712,
      "nn": 1713,
      "nat": 1714,
      "pen": 1715,
      "pie": 1716,
      "wins": 1717,
      "convers": 1718,
      "west": 1719,
      "crash": 1720,
      "iven": 1721,
      "ival": 1722,
      "ount": 1723,
      "phil": 1724,
      "talks": 1725,
      "texas": 1726,
      "journal": 1727,
      "custom": 1728,
      "iraq": 1729,
      "administration": 1730,
      "mexic": 1731,
      "da": 1732,
      "kel": 1733,
      "san": 1734,
      "tra": 1735,
      "lywood": 1736,
      "idence": 1737,
      "const": 1738,
      "ute": 1739,
      "wearing": 1740,
      "draw": 1741,
      "scre": 1742,
      "nothing": 1743,
      "watching": 1744,
      "design": 1745,
      "complet": 1746,
      "washington": 1747,
      "education": 1748,
      "aid": 1749,
      "fig": 1750,
      "round": 1751,
      "ening": 1752,
      "deli": 1753,
      "tro": 1754,
      "ida": 1755,
      "irt": 1756,
      "crisis": 1757,
      "iful": 1758,
      "author": 1759,
      "guest": 1760,
      "special": 1761,
      "surpris": 1762,
      "kills": 1763,
      "reveal": 1764,
      "romney": 1765,
      "struggl": 1766,
      "afr": 1767,
      "four": 1768,
      "fbi": 1769,
      "pack": 1770,
      "ately": 1771,
      "leave": 1772,
      "abort": 1773,
      "aked": 1774,
      "aging": 1775,
      "ghan": 1776,
      "eller": 1777,
      "stra": 1778,
      "commit": 1779,
      "olym": 1780,
      "40": 1781,
      "bud": 1782,
      "equ": 1783,
      "fact": 1784,
      "gor": 1785,
      "pick": 1786,
      "rid": 1787,
      "ten": 1788,
      "tips": 1789,
      "arrest": 1790,
      "sea": 1791,
      "ister": 1792,
      "flor": 1793,
      "stars": 1794,
      "happy": 1795,
      "hate": 1796,
      "oid": 1797,
      "pict": 1798,
      "scr": 1799,
      "wel": 1800,
      "third": 1801,
      "chic": 1802,
      "ended": 1803,
      "iest": 1804,
      "drunk": 1805,
      "park": 1806,
      "attacks": 1807,
      "different": 1808,
      "remember": 1809,
      "military": 1810,
      "bag": 1811,
      "ior": 1812,
      "rad": 1813,
      "spo": 1814,
      "chin": 1815,
      "china": 1816,
      "oper": 1817,
      "priv": 1818,
      "lies": 1819,
      "aps": 1820,
      "apple": 1821,
      "weight": 1822,
      "expect": 1823,
      "door": 1824,
      "quie": 1825,
      "mean": 1826,
      "percent": 1827,
      "angel": 1828,
      "internet": 1829,
      "talking": 1830,
      "clean": 1831,
      "hollywood": 1832,
      "community": 1833,
      "100": 1834,
      "batt": 1835,
      "bio": 1836,
      "fit": 1837,
      "ls": 1838,
      "lon": 1839,
      "low": 1840,
      "sess": 1841,
      "online": 1842,
      "ision": 1843,
      "united": 1844,
      "prince": 1845,
      "mental": 1846,
      "scott": 1847,
      "guide": 1848,
      "buy": 1849,
      "called": 1850,
      "camp": 1851,
      "weets": 1852,
      "lines": 1853,
      "months": 1854,
      "birthday": 1855,
      "beautiful": 1856,
      "outside": 1857,
      "straight": 1858,
      "jer": 1859,
      "sad": 1860,
      "squ": 1861,
      "sick": 1862,
      "sound": 1863,
      "ush": 1864,
      "inal": 1865,
      "research": 1866,
      "ston": 1867,
      "leaves": 1868,
      "track": 1869,
      "import": 1870,
      "hear": 1871,
      "ager": 1872,
      "crow": 1873,
      "cool": 1874,
      "spec": 1875,
      "green": 1876,
      "moment": 1877,
      "chris": 1878,
      "glass": 1879,
      "mueller": 1880,
      "close": 1881,
      "announce": 1882,
      "democratic": 1883,
      "questions": 1884,
      "nuclear": 1885,
      "federal": 1886,
      "style": 1887,
      "document": 1888,
      "200": 1889,
      "gas": 1890,
      "ike": 1891,
      "lou": 1892,
      "mot": 1893,
      "those": 1894,
      "staff": 1895,
      "ater": 1896,
      "aken": 1897,
      "ctions": 1898,
      "ains": 1899,
      "tee": 1900,
      "cking": 1901,
      "willi": 1902,
      "interest": 1903,
      "safe": 1904,
      "issues": 1905,
      "following": 1906,
      "assault": 1907,
      "florida": 1908,
      "fill": 1909,
      "fash": 1910,
      "jen": 1911,
      "ming": 1912,
      "oh": 1913,
      "tweets": 1914,
      "stat": 1915,
      "ener": 1916,
      "told": 1917,
      "users": 1918,
      "met": 1919,
      "gener": 1920,
      "blood": 1921,
      "address": 1922,
      "suspect": 1923,
      "latest": 1924,
      "majority": 1925,
      "gift": 1926,
      "rules": 1927,
      "ost": 1928,
      "overs": 1929,
      "since": 1930,
      "van": 1931,
      "vac": 1932,
      "recomm": 1933,
      "enjo": 1934,
      "allen": 1935,
      "ults": 1936,
      "emer": 1937,
      "crack": 1938,
      "space": 1939,
      "soc": 1940,
      "apped": 1941,
      "serv": 1942,
      "knows": 1943,
      "holiday": 1944,
      "congressman": 1945,
      "wonder": 1946,
      "walk": 1947,
      "graph": 1948,
      "critic": 1949,
      "problem": 1950,
      "investigation": 1951,
      "excited": 1952,
      "abortion": 1953,
      "ky": 1954,
      "lu": 1955,
      "matt": 1956,
      "pence": 1957,
      "rise": 1958,
      "tic": 1959,
      "inv": 1960,
      "stone": 1961,
      "lets": 1962,
      "bey": 1963,
      "opens": 1964,
      "clu": 1965,
      "offers": 1966,
      "izz": 1967,
      "series": 1968,
      "senator": 1969,
      "leaders": 1970,
      "plane": 1971,
      "relig": 1972,
      "huge": 1973,
      "minute": 1974,
      "fashion": 1975,
      "came": 1976,
      "hus": 1977,
      "iel": 1978,
      "rap": 1979,
      "tail": 1980,
      "reach": 1981,
      "stage": 1982,
      "chick": 1983,
      "church": 1984,
      "aylor": 1985,
      "moving": 1986,
      "spends": 1987,
      "sug": 1988,
      "avoid": 1989,
      "cook": 1990,
      "carol": 1991,
      "vision": 1992,
      "2015": 1993,
      "curren": 1994,
      "center": 1995,
      "waiting": 1996,
      "david": 1997,
      "60": 1998,
      "bath": 1999,
      "civ": 2000,
      "mak": 2001,
      "nob": 2002,
      "inj": 2003,
      "rec": 2004,
      "stay": 2005,
      "lee": 2006,
      "ices": 2007,
      "dep": 2008,
      "force": 2009,
      "tries": 2010,
      "short": 2011,
      "ots": 2012,
      "porter": 2013,
      "spir": 2014,
      "anything": 2015,
      "barr": 2016,
      "thinking": 2017,
      "millions": 2018,
      "ancy": 2019,
      "aught": 2020,
      "stephen": 2021,
      "huffpost": 2022,
      "possible": 2023,
      "favorite": 2024,
      "suggest": 2025,
      "13": 2026,
      "sports": 2027,
      "ines": 2028,
      "inste": 2029,
      "review": 2030,
      "isn": 2031,
      "asing": 2032,
      "ches": 2033,
      "chair": 2034,
      "impress": 2035,
      "fee": 2036,
      "emot": 2037,
      "worried": 2038,
      "whole": 2039,
      "rich": 2040,
      "response": 2041,
      "russian": 2042,
      "candidates": 2043,
      "neighbor": 2044,
      "chinese": 2045,
      "bas": 2046,
      "kr": 2047,
      "mir": 2048,
      "mist": 2049,
      "smo": 2050,
      "table": 2051,
      "taylor": 2052,
      "stun": 2053,
      "icide": 2054,
      "los": 2055,
      "peace": 2056,
      "weird": 2057,
      "iety": 2058,
      "aine": 2059,
      "prep": 2060,
      "syr": 2061,
      "career": 2062,
      "weekend": 2063,
      "celebrates": 2064,
      "treat": 2065,
      "employees": 2066,
      "reasons": 2067,
      "jimmy": 2068,
      "trailer": 2069,
      "18": 2070,
      "cus": 2071,
      "eat": 2072,
      "hands": 2073,
      "mit": 2074,
      "pur": 2075,
      "inc": 2076,
      "deep": 2077,
      "lob": 2078,
      "lip": 2079,
      "conserv": 2080,
      "istan": 2081,
      "fear": 2082,
      "brit": 2083,
      "present": 2084,
      "himself": 2085,
      "ulture": 2086,
      "bank": 2087,
      "early": 2088,
      "politics": 2089,
      "immigration": 2090,
      "honor": 2091,
      "amazon": 2092,
      "14": 2093,
      "bat": 2094,
      "bum": 2095,
      "cup": 2096,
      "dat": 2097,
      "hone": 2098,
      "kn": 2099,
      "pers": 2100,
      "ta": 2101,
      "wast": 2102,
      "zz": 2103,
      "tot": 2104,
      "least": 2105,
      "true": 2106,
      "cted": 2107,
      "words": 2108,
      "scen": 2109,
      "turns": 2110,
      "reading": 2111,
      "feels": 2112,
      "queer": 2113,
      "labor": 2114,
      "divor": 2115,
      "victims": 2116,
      "completely": 2117,
      "struggling": 2118,
      "?'": 2119,
      "fat": 2120,
      "ien": 2121,
      "nomin": 2122,
      "reli": 2123,
      "onion": 2124,
      "shirt": 2125,
      "become": 2126,
      "comed": 2127,
      "bling": 2128,
      "boys": 2129,
      "ization": 2130,
      "policy": 2131,
      "prevent": 2132,
      "syria": 2133,
      "killing": 2134,
      "accused": 2135,
      "harass": 2136,
      "starting": 2137,
      "massive": 2138,
      "retire": 2139,
      "hurric": 2140,
      "message": 2141,
      "conversation": 2142,
      "cash": 2143,
      "cnn": 2144,
      "dating": 2145,
      "dance": 2146,
      "fel": 2147,
      "swi": 2148,
      "sav": 2149,
      "vict": 2150,
      "vows": 2151,
      "ze": 2152,
      "stu": 2153,
      "ching": 2154,
      "amp": 2155,
      "commer": 2156,
      "wars": 2157,
      "desper": 2158,
      "lawy": 2159,
      "playing": 2160,
      "controvers": 2161,
      "decision": 2162,
      "experts": 2163,
      "appear": 2164,
      "hilar": 2165,
      "kelly": 2166,
      "civil": 2167,
      "cas": 2168,
      "fish": 2169,
      "ium": 2170,
      "kard": 2171,
      "mach": 2172,
      "oil": 2173,
      "snow": 2174,
      "ters": 2175,
      "iter": 2176,
      "itor": 2177,
      "seen": 2178,
      "owe": 2179,
      "iring": 2180,
      "moder": 2181,
      "fest": 2182,
      "ustry": 2183,
      "tele": 2184,
      "industry": 2185,
      "ifying": 2186,
      "brief": 2187,
      "driving": 2188,
      "ously": 2189,
      "actor": 2190,
      "program": 2191,
      "joe": 2192,
      "reality": 2193,
      "hosp": 2194,
      "lessons": 2195,
      "michel": 2196,
      "capt": 2197,
      "citiz": 2198,
      "experience": 2199,
      "clearly": 2200,
      "demand": 2201,
      "returns": 2202,
      "spring": 2203,
      "kardash": 2204,
      "bann": 2205,
      "dd": 2206,
      "fant": 2207,
      "given": 2208,
      "hab": 2209,
      "psy": 2210,
      "purch": 2211,
      "ring": 2212,
      "sud": 2213,
      "todd": 2214,
      "arian": 2215,
      "dev": 2216,
      "acter": 2217,
      "adds": 2218,
      "abuse": 2219,
      "appoin": 2220,
      "allow": 2221,
      "role": 2222,
      "afghan": 2223,
      "usted": 2224,
      "artist": 2225,
      "blast": 2226,
      "perfor": 2227,
      "ished": 2228,
      "governor": 2229,
      "cops": 2230,
      "question": 2231,
      "dinner": 2232,
      "wishes": 2233,
      "number": 2234,
      "whether": 2235,
      "adorable": 2236,
      "coworker": 2237,
      "chicago": 2238,
      "vacation": 2239,
      "totally": 2240,
      "17": 2241,
      "bell": 2242,
      "iow": 2243,
      "jr": 2244,
      "lap": 2245,
      "names": 2246,
      "six": 2247,
      "stress": 2248,
      "decl": 2249,
      "devel": 2250,
      "across": 2251,
      "andal": 2252,
      "beat": 2253,
      "proud": 2254,
      "friday": 2255,
      "poor": 2256,
      "quick": 2257,
      "workers": 2258,
      "final": 2259,
      "jeff": 2260,
      "rubio": 2261,
      "breaks": 2262,
      "walking": 2263,
      "powerful": 2264,
      "signs": 2265,
      "learned": 2266,
      "voice": 2267,
      "begin": 2268,
      "hoping": 2269,
      "global": 2270,
      "apartment": 2271,
      "commercial": 2272,
      "bob": 2273,
      "cing": 2274,
      "cross": 2275,
      "eye": 2276,
      "gin": 2277,
      "hack": 2278,
      "hell": 2279,
      "ito": 2280,
      "uel": 2281,
      "zer": 2282,
      "ising": 2283,
      "icks": 2284,
      "iling": 2285,
      "ote": 2286,
      "prise": 2287,
      "lose": 2288,
      "conne": 2289,
      "weet": 2290,
      "plic": 2291,
      "ems": 2292,
      "doctor": 2293,
      "puts": 2294,
      "saud": 2295,
      "keeps": 2296,
      "fighting": 2297,
      "memor": 2298,
      "direct": 2299,
      "risk": 2300,
      "begins": 2301,
      "football": 2302,
      "techn": 2303,
      "surviv": 2304,
      "crowd": 2305,
      "syrian": 2306,
      "develop": 2307,
      "cof": 2308,
      "cell": 2309,
      "dark": 2310,
      "gus": 2311,
      "hits": 2312,
      "nes": 2313,
      "nas": 2314,
      "organ": 2315,
      "almost": 2316,
      "islam": 2317,
      "vey": 2318,
      "resident": 2319,
      "worst": 2320,
      "boss": 2321,
      "goog": 2322,
      "awards": 2323,
      "suicide": 2324,
      "anyone": 2325,
      "schools": 2326,
      "healthy": 2327,
      "planet": 2328,
      "longer": 2329,
      "born": 2330,
      "link": 2331,
      "feeling": 2332,
      "boyfriend": 2333,
      "crime": 2334,
      "oscar": 2335,
      "hurricane": 2336,
      "stuff": 2337,
      "coffee": 2338,
      "aver": 2339,
      "gle": 2340,
      "mcc": 2341,
      "nick": 2342,
      "ode": 2343,
      "py": 2344,
      "ential": 2345,
      "university": 2346,
      "which": 2347,
      "loc": 2348,
      "loy": 2349,
      "moves": 2350,
      "wear": 2351,
      "webs": 2352,
      "robert": 2353,
      "driver": 2354,
      "annivers": 2355,
      "surprise": 2356,
      "paris": 2357,
      "slow": 2358,
      "leading": 2359,
      "azy": 2360,
      "netfli": 2361,
      "homeless": 2362,
      "sales": 2363,
      "oscars": 2364,
      "louis": 2365,
      "bathroom": 2366,
      "swift": 2367,
      "kardashian": 2368,
      "anniversary": 2369,
      "netflix": 2370,
      "danger": 2371,
      "fur": 2372,
      "nfl": 2373,
      "pound": 2374,
      "reform": 2375,
      "station": 2376,
      "ena": 2377,
      "ency": 2378,
      "level": 2379,
      "bear": 2380,
      "ume": 2381,
      "ided": 2382,
      "term": 2383,
      "resign": 2384,
      "evidence": 2385,
      "famil": 2386,
      "mayor": 2387,
      "fund": 2388,
      "general": 2389,
      "transgender": 2390,
      "grandma": 2391,
      "skin": 2392,
      "popular": 2393,
      "magaz": 2394,
      "return": 2395,
      "audience": 2396,
      "hallowe": 2397,
      "repeal": 2398,
      "stock": 2399,
      "planned": 2400,
      "jenner": 2401,
      "data": 2402,
      "hospital": 2403,
      "iowa": 2404,
      "25": 2405,
      "culture": 2406,
      "dre": 2407,
      "five": 2408,
      "gal": 2409,
      "ii": 2410,
      "jes": 2411,
      "ners": 2412,
      "oo": 2413,
      "tweet": 2414,
      "challen": 2415,
      "sey": 2416,
      "lyn": 2417,
      "heav": 2418,
      "ctive": 2419,
      "haw": 2420,
      "drin": 2421,
      "drag": 2422,
      "disc": 2423,
      "cred": 2424,
      "gue": 2425,
      "apparen": 2426,
      "finding": 2427,
      "voter": 2428,
      "2014": 2429,
      "steve": 2430,
      "demands": 2431,
      "executive": 2432,
      "apologizes": 2433,
      "likely": 2434,
      "truth": 2435,
      "picture": 2436,
      "important": 2437,
      "husband": 2438,
      "michelle": 2439,
      "google": 2440,
      "magazine": 2441,
      "halloween": 2442,
      "bin": 2443,
      "dying": 2444,
      "easy": 2445,
      "gg": 2446,
      "kick": 2447,
      "mou": 2448,
      "sam": 2449,
      "sold": 2450,
      "ond": 2451,
      "alia": 2452,
      "ched": 2453,
      "chance": 2454,
      "defin": 2455,
      "shel": 2456,
      "urges": 2457,
      "wide": 2458,
      "liber": 2459,
      "ement": 2460,
      "works": 2461,
      "answ": 2462,
      "clus": 2463,
      "brand": 2464,
      "brown": 2465,
      "award": 2466,
      "marke": 2467,
      "epis": 2468,
      "strate": 2469,
      "reportedly": 2470,
      "selves": 2471,
      "corpor": 2472,
      "moms": 2473,
      "fergus": 2474,
      "2017": 2475,
      "harry": 2476,
      "christian": 2477,
      "ologists": 2478,
      "defense": 2479,
      "nyc": 2480,
      "members": 2481,
      "virgin": 2482,
      "profess": 2483,
      "gradu": 2484,
      "eyes": 2485,
      "building": 2486,
      "screen": 2487,
      "ferguson": 2488,
      "dist": 2489,
      "fif": 2490,
      "hat": 2491,
      "ially": 2492,
      "nur": 2493,
      "pizz": 2494,
      "arm": 2495,
      "edge": 2496,
      "itive": 2497,
      "ades": 2498,
      "advice": 2499,
      "veter": 2500,
      "model": 2501,
      "ples": 2502,
      "crip": 2503,
      "doz": 2504,
      "blue": 2505,
      "brings": 2506,
      "ideas": 2507,
      "achel": 2508,
      "soon": 2509,
      "gree": 2510,
      "deser": 2511,
      "biggest": 2512,
      "telling": 2513,
      "officer": 2514,
      "queen": 2515,
      "supporters": 2516,
      "holding": 2517,
      "kerry": 2518,
      "incred": 2519,
      "racist": 2520,
      "beauty": 2521,
      "propos": 2522,
      "lady": 2523,
      "constit": 2524,
      "battle": 2525,
      "carolina": 2526,
      "website": 2527,
      "base": 2528,
      "cel": 2529,
      "cir": 2530,
      "cab": 2531,
      "dig": 2532,
      "fair": 2533,
      "kin": 2534,
      "paper": 2535,
      "rally": 2536,
      "sor": 2537,
      "une": 2538,
      "uary": 2539,
      "onto": 2540,
      "attr": 2541,
      "atives": 2542,
      "asking": 2543,
      "sean": 2544,
      "ado": 2545,
      "advis": 2546,
      "umer": 2547,
      "youth": 2548,
      "ulation": 2549,
      "teens": 2550,
      "anta": 2551,
      "market": 2552,
      "pred": 2553,
      "prev": 2554,
      "aug": 2555,
      "prove": 2556,
      "myster": 2557,
      "financ": 2558,
      "ored": 2559,
      "desp": 2560,
      "humans": 2561,
      "broad": 2562,
      "jobs": 2563,
      "protesters": 2564,
      "learn": 2565,
      "faces": 2566,
      "allegations": 2567,
      "bowl": 2568,
      "abeth": 2569,
      "accidentally": 2570,
      "williams": 2571,
      "chicken": 2572,
      "sudden": 2573,
      "performan": 2574,
      "90": 2575,
      "jones": 2576,
      "nice": 2577,
      "page": 2578,
      "reporter": 2579,
      "album": 2580,
      "ised": 2581,
      "olf": 2582,
      "eliz": 2583,
      "enter": 2584,
      "ention": 2585,
      "user": 2586,
      "ify": 2587,
      "quality": 2588,
      "disney": 2589,
      "guard": 2590,
      "member": 2591,
      "benef": 2592,
      "writer": 2593,
      "amazing": 2594,
      "reminds": 2595,
      "pregnant": 2596,
      "quietly": 2597,
      "energy": 2598,
      "religious": 2599,
      "apparently": 2600,
      "elizabeth": 2601,
      "':": 2602,
      "80": 2603,
      "cia": 2604,
      "dum": 2605,
      "died": 2606,
      "jenn": 2607,
      "mates": 2608,
      "sar": 2609,
      "uce": 2610,
      "uct": 2611,
      "forward": 2612,
      "trou": 2613,
      "else": 2614,
      "ads": 2615,
      "ota": 2616,
      "bee": 2617,
      "moore": 2618,
      "exact": 2619,
      "pool": 2620,
      "older": 2621,
      "disg": 2622,
      "strong": 2623,
      "prov": 2624,
      "thank": 2625,
      "ucker": 2626,
      "worker": 2627,
      "sense": 2628,
      "ference": 2629,
      "muse": 2630,
      "passes": 2631,
      "celebrate": 2632,
      "opening": 2633,
      "simple": 2634,
      "martin": 2635,
      "economy": 2636,
      "club": 2637,
      "suggests": 2638,
      "emotional": 2639,
      "saudi": 2640,
      "mccain": 2641,
      "mouth": 2642,
      "performance": 2643,
      "done": 2644,
      "fing": 2645,
      "fake": 2646,
      "ffer": 2647,
      "han": 2648,
      "hob": 2649,
      "jump": 2650,
      "mast": 2651,
      "rand": 2652,
      "recalls": 2653,
      "anno": 2654,
      "aly": 2655,
      "ites": 2656,
      "icon": 2657,
      "secut": 2658,
      "forms": 2659,
      "lying": 2660,
      "shares": 2661,
      "ability": 2662,
      "comfort": 2663,
      "plant": 2664,
      "brid": 2665,
      "brain": 2666,
      "science": 2667,
      "epa": 2668,
      "colbert": 2669,
      "throws": 2670,
      "voting": 2671,
      "remain": 2672,
      "leads": 2673,
      "character": 2674,
      "player": 2675,
      "happens": 2676,
      "happened": 2677,
      "rush": 2678,
      "toward": 2679,
      "bird": 2680,
      "said": 2681,
      "matter": 2682,
      "holds": 2683,
      "standing": 2684,
      "learning": 2685,
      "farm": 2686,
      "issue": 2687,
      "problems": 2688,
      "palest": 2689,
      "explains": 2690,
      "private": 2691,
      "lobby": 2692,
      "episode": 2693,
      "pizza": 2694,
      "east": 2695,
      "gave": 2696,
      "iju": 2697,
      "jan": 2698,
      "nb": 2699,
      "nom": 2700,
      "nra": 2701,
      "pac": 2702,
      "tle": 2703,
      "wis": 2704,
      "wil": 2705,
      "went": 2706,
      "iny": 2707,
      "orders": 2708,
      "leaving": 2709,
      "icle": 2710,
      "chann": 2711,
      "trad": 2712,
      "trade": 2713,
      "elder": 2714,
      "iment": 2715,
      "imag": 2716,
      "prin": 2717,
      "loss": 2718,
      "loses": 2719,
      "lif": 2720,
      "results": 2721,
      "weap": 2722,
      "extra": 2723,
      "embarr": 2724,
      "offer": 2725,
      "scandal": 2726,
      "disappoin": 2727,
      "hasn": 2728,
      "attend": 2729,
      "progress": 2730,
      "flag": 2731,
      "flight": 2732,
      "insur": 2733,
      "event": 2734,
      "medi": 2735,
      "foreign": 2736,
      "realizes": 2737,
      "legis": 2738,
      "access": 2739,
      "smart": 2740,
      "smith": 2741,
      "comey": 2742,
      "brother": 2743,
      "mix": 2744,
      "hotel": 2745,
      "steps": 2746,
      "fails": 2747,
      "freed": 2748,
      "vention": 2749,
      "asked": 2750,
      "perfectly": 2751,
      "hopes": 2752,
      "confirm": 2753,
      "receives": 2754,
      "thanksgiving": 2755,
      "committee": 2756,
      "harassment": 2757,
      "desperate": 2758,
      "hilarious": 2759,
      "families": 2760,
      "jesus": 2761,
      "museum": 2762,
      "ijuana": 2763,
      "embarrass": 2764,
      "ahead": 2765,
      "bil": 2766,
      "doll": 2767,
      "ebol": 2768,
      "jon": 2769,
      "ko": 2770,
      "nell": 2771,
      "pun": 2772,
      "sour": 2773,
      "tired": 2774,
      "vies": 2775,
      "regre": 2776,
      "anx": 2777,
      "escap": 2778,
      "ili": 2779,
      "amid": 2780,
      "detail": 2781,
      "trial": 2782,
      "ently": 2783,
      "anda": 2784,
      "shr": 2785,
      "ural": 2786,
      "frank": 2787,
      "moon": 2788,
      "movies": 2789,
      "manager": 2790,
      "worse": 2791,
      "grow": 2792,
      "spend": 2793,
      "spending": 2794,
      "drive": 2795,
      "marijuana": 2796,
      "ibly": 2797,
      "angers": 2798,
      "airport": 2799,
      "killer": 2800,
      "cerem": 2801,
      "slams": 2802,
      "funding": 2803,
      "cheese": 2804,
      "iction": 2805,
      "mission": 2806,
      "deadly": 2807,
      "ology": 2808,
      "fresh": 2809,
      "snl": 2810,
      "writing": 2811,
      "inspired": 2812,
      "lgbtq": 2813,
      "places": 2814,
      "refugees": 2815,
      "piece": 2816,
      "budget": 2817,
      "arrested": 2818,
      "nasa": 2819,
      "residents": 2820,
      "dozens": 2821,
      "despite": 2822,
      "ebola": 2823,
      "cold": 2824,
      "mult": 2825,
      "rape": 2826,
      "send": 2827,
      "tree": 2828,
      "uber": 2829,
      "vil": 2830,
      "winter": 2831,
      "ya": 2832,
      "anch": 2833,
      "tho": 2834,
      "also": 2835,
      "chuck": 2836,
      "ills": 2837,
      "vert": 2838,
      "pract": 2839,
      "lian": 2840,
      "cep": 2841,
      "hearing": 2842,
      "fet": 2843,
      "femin": 2844,
      "comments": 2845,
      "agre": 2846,
      "exist": 2847,
      "therap": 2848,
      "antly": 2849,
      "pose": 2850,
      "meat": 2851,
      "awk": 2852,
      "join": 2853,
      "path": 2854,
      "ashes": 2855,
      "thrones": 2856,
      "turkey": 2857,
      "harvey": 2858,
      "seeing": 2859,
      "guns": 2860,
      "putin": 2861,
      "release": 2862,
      "consider": 2863,
      "sky": 2864,
      "responds": 2865,
      "susp": 2866,
      "immigrants": 2867,
      "sweet": 2868,
      "continues": 2869,
      "attempt": 2870,
      "documentary": 2871,
      "wondering": 2872,
      "recip": 2873,
      "depend": 2874,
      "16": 2875,
      "bot": 2876,
      "bass": 2877,
      "games": 2878,
      "lunch": 2879,
      "ride": 2880,
      "tit": 2881,
      "yes": 2882,
      "ination": 2883,
      "ences": 2884,
      "oft": 2885,
      "amed": 2886,
      "among": 2887,
      "acqu": 2888,
      "accept": 2889,
      "sets": 2890,
      "beer": 2891,
      "beach": 2892,
      "pray": 2893,
      "ctors": 2894,
      "agram": 2895,
      "assures": 2896,
      "such": 2897,
      "create": 2898,
      "creep": 2899,
      "warning": 2900,
      "medical": 2901,
      "sym": 2902,
      "desk": 2903,
      "books": 2904,
      "course": 2905,
      "ruin": 2906,
      "winning": 2907,
      "horse": 2908,
      "valent": 2909,
      "promises": 2910,
      "dreams": 2911,
      "changing": 2912,
      "points": 2913,
      "golden": 2914,
      "nearly": 2915,
      "struction": 2916,
      "giant": 2917,
      "historical": 2918,
      "refugee": 2919,
      "customers": 2920,
      "scene": 2921,
      "toddler": 2922,
      "palestin": 2923,
      "nomine": 2924,
      "21": 2925,
      "caught": 2926,
      "dail": 2927,
      "distr": 2928,
      "dnc": 2929,
      "fda": 2930,
      "kav": 2931,
      "lay": 2932,
      "lack": 2933,
      "migr": 2934,
      "master": 2935,
      "ray": 2936,
      "vs": 2937,
      "ert": 2938,
      "recent": 2939,
      "stup": 2940,
      "arg": 2941,
      "accor": 2942,
      "enters": 2943,
      "share": 2944,
      "becoming": 2945,
      "idi": 2946,
      "abs": 2947,
      "ops": 2948,
      "pra": 2949,
      "frustr": 2950,
      "heard": 2951,
      "cry": 2952,
      "scream": 2953,
      "guil": 2954,
      "guys": 2955,
      "paid": 2956,
      "rench": 2957,
      "monday": 2958,
      "lawsuit": 2959,
      "lawmak": 2960,
      "account": 2961,
      "jeb": 2962,
      "saying": 2963,
      "burger": 2964,
      "putting": 2965,
      "released": 2966,
      "gym": 2967,
      "grandmother": 2968,
      "solut": 2969,
      "position": 2970,
      "fix": 2971,
      "fires": 2972,
      "immigrant": 2973,
      "royal": 2974,
      "hundre": 2975,
      "flood": 2976,
      "activists": 2977,
      "mexico": 2978,
      "olympic": 2979,
      "ohio": 2980,
      "neighborhood": 2981,
      "retirement": 2982,
      "machine": 2983,
      "average": 2984,
      "discuss": 2985,
      "financial": 2986,
      "elderly": 2987,
      "daily": 2988,
      "hundreds": 2989,
      "ae": 2990,
      "bes": 2991,
      "cath": 2992,
      "dar": 2993,
      "kes": 2994,
      "lan": 2995,
      "lights": 2996,
      "mac": 2997,
      "main": 2998,
      "rain": 2999,
      "sed": 3000,
      "spl": 3001,
      "vatic": 3002,
      "wich": 3003,
      "influ": 3004,
      "erto": 3005,
      "anaugh": 3006,
      "thes": 3007,
      "stic": 3008,
      "envir": 3009,
      "truck": 3010,
      "unable": 3011,
      "immedi": 3012,
      "weather": 3013,
      "doctors": 3014,
      "astic": 3015,
      "bles": 3016,
      "note": 3017,
      "covers": 3018,
      "probe": 3019,
      "project": 3020,
      "puerto": 3021,
      "somehow": 3022,
      "weeks": 3023,
      "raise": 3024,
      "parent": 3025,
      "covered": 3026,
      "congressional": 3027,
      "fired": 3028,
      "dogs": 3029,
      "sandwich": 3030,
      "defends": 3031,
      "cuts": 3032,
      "respons": 3033,
      "iverse": 3034,
      "engers": 3035,
      "mccon": 3036,
      "destroy": 3037,
      "primary": 3038,
      "london": 3039,
      "researchers": 3040,
      "divorce": 3041,
      "credit": 3042,
      "thood": 3043,
      "awkward": 3044,
      "kavanaugh": 3045,
      "vatican": 3046,
      "45": 3047,
      "70": 3048,
      "austr": 3049,
      "cake": 3050,
      "cue": 3051,
      "eth": 3052,
      "eur": 3053,
      "hip": 3054,
      "hang": 3055,
      "jap": 3056,
      "jail": 3057,
      "nic": 3058,
      "sin": 3059,
      "tam": 3060,
      "taken": 3061,
      "inno": 3062,
      "stick": 3063,
      "stream": 3064,
      "orig": 3065,
      "encour": 3066,
      "cher": 3067,
      "forces": 3068,
      "ada": 3069,
      "convention": 3070,
      "resol": 3071,
      "istic": 3072,
      "feed": 3073,
      "common": 3074,
      "aft": 3075,
      "afford": 3076,
      "obsess": 3077,
      "clud": 3078,
      "iff": 3079,
      "ifer": 3080,
      "novel": 3081,
      "strip": 3082,
      "sole": 3083,
      "ensive": 3084,
      "ucky": 3085,
      "medic": 3086,
      "votes": 3087,
      "shouldn": 3088,
      "helping": 3089,
      "border": 3090,
      "cities": 3091,
      "terrible": 3092,
      "patient": 3093,
      "politic": 3094,
      "celebrity": 3095,
      "effort": 3096,
      "complete": 3097,
      "pull": 3098,
      "floor": 3099,
      "concerned": 3100,
      "named": 3101,
      "confirms": 3102,
      "mexican": 3103,
      "olymp": 3104,
      "graphic": 3105,
      "psych": 3106,
      "dangerous": 3107,
      "marketing": 3108,
      "incredible": 3109,
      "freedom": 3110,
      "ville": 3111,
      "valentine": 3112,
      "according": 3113,
      "japan": 3114,
      "cul": 3115,
      "dome": 3116,
      "eh": 3117,
      "eu": 3118,
      "ease": 3119,
      "fai": 3120,
      "hig": 3121,
      "laugh": 3122,
      "mail": 3123,
      "rare": 3124,
      "sends": 3125,
      "wart": 3126,
      "inform": 3127,
      "rep": 3128,
      "rev": 3129,
      "aling": 3130,
      "alex": 3131,
      "sees": 3132,
      "sever": 3133,
      "opin": 3134,
      "log": 3135,
      "conds": 3136,
      "endor": 3137,
      "blind": 3138,
      "indian": 3139,
      "spent": 3140,
      "acting": 3141,
      "marco": 3142,
      "process": 3143,
      "warren": 3144,
      "carpet": 3145,
      "throw": 3146,
      "senators": 3147,
      "broken": 3148,
      "wanted": 3149,
      "conduct": 3150,
      "movement": 3151,
      "discovered": 3152,
      "numbers": 3153,
      "target": 3154,
      "bomb": 3155,
      "depression": 3156,
      "animals": 3157,
      "customer": 3158,
      "nobody": 3159,
      "stunning": 3160,
      "modern": 3161,
      "afghanistan": 3162,
      "jennifer": 3163,
      "stupid": 3164,
      "environ": 3165,
      "europe": 3166,
      "faith": 3167,
      ".'": 3168,
      "cket": 3169,
      "dick": 3170,
      "domin": 3171,
      "fal": 3172,
      "las": 3173,
      "mour": 3174,
      "naked": 3175,
      "oth": 3176,
      "pants": 3177,
      "wing": 3178,
      "zucker": 3179,
      "ery": 3180,
      "requ": 3181,
      "stal": 3182,
      "stuck": 3183,
      "oring": 3184,
      "ali": 3185,
      "alone": 3186,
      "armed": 3187,
      "itation": 3188,
      "dear": 3189,
      "accep": 3190,
      "seconds": 3191,
      "traged": 3192,
      "becomes": 3193,
      "tern": 3194,
      "price": 3195,
      "loved": 3196,
      "condem": 3197,
      "compet": 3198,
      "plays": 3199,
      "ros": 3200,
      "crazy": 3201,
      "ansas": 3202,
      "gry": 3203,
      "grade": 3204,
      "brad": 3205,
      "meal": 3206,
      "means": 3207,
      "suffer": 3208,
      "focus": 3209,
      "premi": 3210,
      "choice": 3211,
      "nerv": 3212,
      "finish": 3213,
      "legend": 3214,
      "empty": 3215,
      "elec": 3216,
      "heads": 3217,
      "effect": 3218,
      "voc": 3219,
      "fiel": 3220,
      "explo": 3221,
      "increasing": 3222,
      "hurt": 3223,
      "changes": 3224,
      "subway": 3225,
      "speaks": 3226,
      "window": 3227,
      "pregnancy": 3228,
      "launches": 3229,
      "surprised": 3230,
      "species": 3231,
      "citizens": 3232,
      "virginia": 3233,
      "fifth": 3234,
      "suddenly": 3235,
      "sarah": 3236,
      "ceremony": 3237,
      "guilty": 3238,
      "cathol": 3239,
      "danc": 3240,
      "egg": 3241,
      "french": 3242,
      "hann": 3243,
      "iant": 3244,
      "ients": 3245,
      "lake": 3246,
      "mr": 3247,
      "nail": 3248,
      "pod": 3249,
      "site": 3250,
      "wake": 3251,
      "zen": 3252,
      "invol": 3253,
      "rebel": 3254,
      "thom": 3255,
      "itions": 3256,
      "itself": 3257,
      "icul": 3258,
      "theory": 3259,
      "chen": 3260,
      "iger": 3261,
      "unity": 3262,
      "urb": 3263,
      "loves": 3264,
      "resist": 3265,
      "allows": 3266,
      "complain": 3267,
      "weak": 3268,
      "agent": 3269,
      "ively": 3270,
      "growing": 3271,
      "antic": 3272,
      "meas": 3273,
      "married": 3274,
      "justin": 3275,
      "dish": 3276,
      "created": 3277,
      "strike": 3278,
      "warm": 3279,
      "warn": 3280,
      "cars": 3281,
      "minor": 3282,
      "anymore": 3283,
      "apping": 3284,
      "speed": 3285,
      "turning": 3286,
      "airlines": 3287,
      "held": 3288,
      "2018": 3289,
      "christie": 3290,
      "contain": 3291,
      "archives": 3292,
      "refuses": 3293,
      "increase": 3294,
      "magical": 3295,
      "regular": 3296,
      "stories": 3297,
      "continue": 3298,
      "ikes": 3299,
      "instagram": 3300,
      "fourth": 3301,
      "lawyer": 3302,
      "insurance": 3303,
      "bod": 3304,
      "dor": 3305,
      "diversity": 3306,
      "gam": 3307,
      "gone": 3308,
      "huck": 3309,
      "loud": 3310,
      "mile": 3311,
      "others": 3312,
      "pit": 3313,
      "rum": 3314,
      "tem": 3315,
      "uts": 3316,
      "vor": 3317,
      "ws": 3318,
      "wage": 3319,
      "intell": 3320,
      "ania": 3321,
      "ances": 3322,
      "ingly": 3323,
      "iting": 3324,
      "theater": 3325,
      "asian": 3326,
      "deter": 3327,
      "forgot": 3328,
      "trib": 3329,
      "troll": 3330,
      "igno": 3331,
      "aret": 3332,
      "france": 3333,
      "upcoming": 3334,
      "atest": 3335,
      "ighter": 3336,
      "ague": 3337,
      "clar": 3338,
      "aware": 3339,
      "phys": 3340,
      "breast": 3341,
      "forever": 3342,
      "greatest": 3343,
      "surge": 3344,
      "parking": 3345,
      "shocked": 3346,
      "gency": 3347,
      "counter": 3348,
      "johnson": 3349,
      "breakfast": 3350,
      "decides": 3351,
      "crush": 3352,
      "block": 3353,
      "protests": 3354,
      "soul": 3355,
      "product": 3356,
      "diet": 3357,
      "threatens": 3358,
      "grader": 3359,
      "damn": 3360,
      "sitting": 3361,
      "planning": 3362,
      "abee": 3363,
      "roundup": 3364,
      "recommend": 3365,
      "instein": 3366,
      "controversial": 3367,
      "appearance": 3368,
      "survivors": 3369,
      "slowly": 3370,
      "answer": 3371,
      "exactly": 3372,
      "nbc": 3373,
      "immediately": 3374,
      "mcconnell": 3375,
      "zuckerberg": 3376,
      "electr": 3377,
      "field": 3378,
      "huckabee": 3379,
      "intellig": 3380,
      "**": 3381,
      "aire": 3382,
      "biz": 3383,
      "cd": 3384,
      "cin": 3385,
      "dump": 3386,
      "dut": 3387,
      "fine": 3388,
      "ius": 3389,
      "ither": 3390,
      "liter": 3391,
      "mber": 3392,
      "nel": 3393,
      "nav": 3394,
      "sort": 3395,
      "santa": 3396,
      "tap": 3397,
      "tast": 3398,
      "tren": 3399,
      "yed": 3400,
      "inaug": 3401,
      "then": 3402,
      "took": 3403,
      "arab": 3404,
      "editor": 3405,
      "ison": 3406,
      "isher": 3407,
      "island": 3408,
      "ican": 3409,
      "neur": 3410,
      "shar": 3411,
      "shap": 3412,
      "shif": 3413,
      "otic": 3414,
      "universe": 3415,
      "image": 3416,
      "aband": 3417,
      "losing": 3418,
      "aks": 3419,
      "consc": 3420,
      "within": 3421,
      "update": 3422,
      "web": 3423,
      "agon": 3424,
      "usting": 3425,
      "boeh": 3426,
      "iphone": 3427,
      "drink": 3428,
      "izon": 3429,
      "timate": 3430,
      "active": 3431,
      "marks": 3432,
      "agement": 3433,
      "please": 3434,
      "carry": 3435,
      "calling": 3436,
      "international": 3437,
      "jects": 3438,
      "millenn": 3439,
      "happen": 3440,
      "listen": 3441,
      "network": 3442,
      "refle": 3443,
      "failed": 3444,
      "failure": 3445,
      "violent": 3446,
      "viral": 3447,
      "anka": 3448,
      "mcdonald": 3449,
      "schumer": 3450,
      "grammy": 3451,
      "historic": 3452,
      "figures": 3453,
      "authorities": 3454,
      "guests": 3455,
      "treatment": 3456,
      "festival": 3457,
      "television": 3458,
      "bridge": 3459,
      "weapons": 3460,
      "disappointed": 3461,
      "domestic": 3462,
      "endorse": 3463,
      "conscious": 3464,
      "boehner": 3465,
      "24": 3466,
      "bare": 3467,
      "cil": 3468,
      "gia": 3469,
      "jay": 3470,
      "jong": 3471,
      "kat": 3472,
      "kate": 3473,
      "kno": 3474,
      "lower": 3475,
      "mitch": 3476,
      "pup": 3477,
      "pson": 3478,
      "tes": 3479,
      "ties": 3480,
      "va": 3481,
      "zoo": 3482,
      "independ": 3483,
      "reco": 3484,
      "recover": 3485,
      "revol": 3486,
      "represent": 3487,
      "anth": 3488,
      "entr": 3489,
      "alab": 3490,
      "aries": 3491,
      "esome": 3492,
      "dete": 3493,
      "acle": 3494,
      "sequ": 3495,
      "otes": 3496,
      "tery": 3497,
      "fraud": 3498,
      "moved": 3499,
      "confl": 3500,
      "newly": 3501,
      "newsp": 3502,
      "pects": 3503,
      "cting": 3504,
      "porn": 3505,
      "ivity": 3506,
      "tear": 3507,
      "india": 3508,
      "brac": 3509,
      "portation": 3510,
      "okes": 3511,
      "offering": 3512,
      "noah": 3513,
      "perform": 3514,
      "cock": 3515,
      "disaster": 3516,
      "auto": 3517,
      "prosecut": 3518,
      "studio": 3519,
      "partner": 3520,
      "eved": 3521,
      "evol": 3522,
      "serious": 3523,
      "parenting": 3524,
      "itten": 3525,
      "singer": 3526,
      "helps": 3527,
      "clothes": 3528,
      "content": 3529,
      "debt": 3530,
      "trevor": 3531,
      "teachers": 3532,
      "polls": 3533,
      "panick": 3534,
      "sweat": 3535,
      "racism": 3536,
      "text": 3537,
      "bull": 3538,
      "silence": 3539,
      "large": 3540,
      "repeated": 3541,
      "attempts": 3542,
      "muslims": 3543,
      "extrem": 3544,
      "double": 3545,
      "emergency": 3546,
      "soccer": 3547,
      "bannon": 3548,
      "declares": 3549,
      "memorial": 3550,
      "heaven": 3551,
      "veteran": 3552,
      "comfortable": 3553,
      "channel": 3554,
      "legisl": 3555,
      "recipes": 3556,
      "nominee": 3557,
      "frustrated": 3558,
      "catholic": 3559,
      "alabama": 3560,
      "!'": 3561,
      "bie": 3562,
      "clip": 3563,
      "dol": 3564,
      "dun": 3565,
      "eas": 3566,
      "gap": 3567,
      "gro": 3568,
      "hid": 3569,
      "jury": 3570,
      "kiss": 3571,
      "lands": 3572,
      "nar": 3573,
      "nba": 3574,
      "oce": 3575,
      "rout": 3576,
      "rate": 3577,
      "ries": 3578,
      "rnc": 3579,
      "tort": 3580,
      "tues": 3581,
      "yard": 3582,
      "yell": 3583,
      "replace": 3584,
      "along": 3585,
      "assho": 3586,
      "amy": 3587,
      "dece": 3588,
      "debu": 3589,
      "advert": 3590,
      "whate": 3591,
      "absolut": 3592,
      "illing": 3593,
      "load": 3594,
      "rescu": 3595,
      "compl": 3596,
      "weigh": 3597,
      "agree": 3598,
      "pled": 3599,
      "exha": 3600,
      "exclus": 3601,
      "kets": 3602,
      "boat": 3603,
      "ifies": 3604,
      "bron": 3605,
      "braz": 3606,
      "memo": 3607,
      "cancel": 3608,
      "herself": 3609,
      "cos": 3610,
      "coach": 3611,
      "strikes": 3612,
      "yourself": 3613,
      "proves": 3614,
      "annual": 3615,
      "sell": 3616,
      "ibility": 3617,
      "parenthood": 3618,
      "write": 3619,
      "charged": 3620,
      "runs": 3621,
      "brook": 3622,
      "denies": 3623,
      "rico": 3624,
      "passengers": 3625,
      "themselves": 3626,
      "itional": 3627,
      "consum": 3628,
      "consid": 3629,
      "freak": 3630,
      "criminal": 3631,
      "niest": 3632,
      "groups": 3633,
      "199": 3634,
      "critics": 3635,
      "costume": 3636,
      "allegedly": 3637,
      "storm": 3638,
      "dressed": 3639,
      "coworkers": 3640,
      "journalist": 3641,
      "deliver": 3642,
      "radio": 3643,
      "glasses": 3644,
      "safety": 3645,
      "generation": 3646,
      "recommends": 3647,
      "society": 3648,
      "currently": 3649,
      "spirit": 3650,
      "instead": 3651,
      "relieved": 3652,
      "comedy": 3653,
      "challenge": 3654,
      "drinking": 3655,
      "masturb": 3656,
      "abandon": 3657,
      "asshole": 3658,
      "debuts": 3659,
      "whatever": 3660,
      "absolutely": 3661,
      "400": 3662,
      "based": 3663,
      "due": 3664,
      "easter": 3665,
      "gon": 3666,
      "gall": 3667,
      "hog": 3668,
      "kan": 3669,
      "kitch": 3670,
      "mall": 3671,
      "moun": 3672,
      "pi": 3673,
      "pays": 3674,
      "piss": 3675,
      "rip": 3676,
      "sens": 3677,
      "size": 3678,
      "tiny": 3679,
      "uk": 3680,
      "vill": 3681,
      "wre": 3682,
      "wolf": 3683,
      "instru": 3684,
      "refer": 3685,
      "anne": 3686,
      "enced": 3687,
      "alco": 3688,
      "army": 3689,
      "iti": 3690,
      "section": 3691,
      "trust": 3692,
      "trash": 3693,
      "traff": 3694,
      "beha": 3695,
      "urs": 3696,
      "pride": 3697,
      "conference": 3698,
      "upd": 3699,
      "peter": 3700,
      "compu": 3701,
      "crib": 3702,
      "portr": 3703,
      "ivanka": 3704,
      "blow": 3705,
      "awesome": 3706,
      "inet": 3707,
      "perry": 3708,
      "mary": 3709,
      "disab": 3710,
      "cream": 3711,
      "stranger": 3712,
      "attor": 3713,
      "attention": 3714,
      "joke": 3715,
      "ension": 3716,
      "camera": 3717,
      "realize": 3718,
      "senior": 3719,
      "funniest": 3720,
      "charges": 3721,
      "busy": 3722,
      "century": 3723,
      "helped": 3724,
      "rule": 3725,
      "capital": 3726,
      "shooter": 3727,
      "decades": 3728,
      "keeping": 3729,
      "profit": 3730,
      "changed": 3731,
      "visiting": 3732,
      "sunday": 3733,
      "concert": 3734,
      "economic": 3735,
      "shutdown": 3736,
      "israeli": 3737,
      "depressed": 3738,
      "figure": 3739,
      "african": 3740,
      "campus": 3741,
      "motor": 3742,
      "waste": 3743,
      "saved": 3744,
      "hawai": 3745,
      "corporate": 3746,
      "disgusting": 3747,
      "recogn": 3748,
      "kanye": 3749,
      "alcohol": 3750,
      "computer": 3751,
      "23": 3752,
      "bunch": 3753,
      "bachel": 3754,
      "cig": 3755,
      "ez": 3756,
      "fare": 3757,
      "hi": 3758,
      "hib": 3759,
      "kush": 3760,
      "rot": 3761,
      "rod": 3762,
      "sale": 3763,
      "tu": 3764,
      "tip": 3765,
      "wine": 3766,
      "yers": 3767,
      "request": 3768,
      "sting": 3769,
      "atter": 3770,
      "allies": 3771,
      "arre": 3772,
      "icted": 3773,
      "thetic": 3774,
      "chap": 3775,
      "chem": 3776,
      "champ": 3777,
      "amount": 3778,
      "ander": 3779,
      "shad": 3780,
      "idays": 3781,
      "loving": 3782,
      "usion": 3783,
      "pep": 3784,
      "ctic": 3785,
      "exer": 3786,
      "article": 3787,
      "tears": 3788,
      "boost": 3789,
      "haz": 3790,
      "quar": 3791,
      "span": 3792,
      "sco": 3793,
      "scar": 3794,
      "disease": 3795,
      "tonight": 3796,
      "proof": 3797,
      "buying": 3798,
      "selling": 3799,
      "insists": 3800,
      "lifetime": 3801,
      "orses": 3802,
      "realizing": 3803,
      "starts": 3804,
      "raid": 3805,
      "couldn": 3806,
      "funeral": 3807,
      "wouldn": 3808,
      "healthcare": 3809,
      "higher": 3810,
      "normal": 3811,
      "missile": 3812,
      "players": 3813,
      "holidays": 3814,
      "stops": 3815,
      "secrets": 3816,
      "throughout": 3817,
      "democracy": 3818,
      "terrified": 3819,
      "memory": 3820,
      "pollster": 3821,
      "delic": 3822,
      "promise": 3823,
      "threats": 3824,
      "nude": 3825,
      "falls": 3826,
      "poses": 3827,
      "explos": 3828,
      "honors": 3829,
      "meets": 3830,
      "picks": 3831,
      "silver": 3832,
      "georgia": 3833,
      "ruling": 3834,
      "latin": 3835,
      "rupt": 3836,
      "follow": 3837,
      "training": 3838,
      "jackson": 3839,
      "likes": 3840,
      "melania": 3841,
      "features": 3842,
      "current": 3843,
      "injured": 3844,
      "nomination": 3845,
      "strategy": 3846,
      "cription": 3847,
      "baseball": 3848,
      "olympics": 3849,
      "bizarre": 3850,
      "kitchen": 3851,
      "kushner": 3852,
      "cé": 3853,
      "gers": 3854,
      "gaz": 3855,
      "hous": 3856,
      "iation": 3857,
      "jared": 3858,
      "kimm": 3859,
      "nast": 3860,
      "pin": 3861,
      "pel": 3862,
      "penn": 3863,
      "ran": 3864,
      "rat": 3865,
      "rus": 3866,
      "saving": 3867,
      "tan": 3868,
      "ware": 3869,
      "restr": 3870,
      "angry": 3871,
      "engl": 3872,
      "total": 3873,
      "themed": 3874,
      "ilities": 3875,
      "cha": 3876,
      "detain": 3877,
      "acts": 3878,
      "seat": 3879,
      "seem": 3880,
      "separ": 3881,
      "tried": 3882,
      "igen": 3883,
      "idency": 3884,
      "uration": 3885,
      "opt": 3886,
      "prize": 3887,
      "lock": 3888,
      "contest": 3889,
      "respect": 3890,
      "pete": 3891,
      "feet": 3892,
      "express": 3893,
      "blame": 3894,
      "assist": 3895,
      "brut": 3896,
      "dra": 3897,
      "inequality": 3898,
      "ials": 3899,
      "actors": 3900,
      "coast": 3901,
      "cohen": 3902,
      "achie": 3903,
      "bucks": 3904,
      "joy": 3905,
      "pair": 3906,
      "corre": 3907,
      "famous": 3908,
      "tale": 3909,
      "looked": 3910,
      "laws": 3911,
      "visits": 3912,
      "needed": 3913,
      "misses": 3914,
      "burning": 3915,
      "couples": 3916,
      "compan": 3917,
      "defend": 3918,
      "cuba": 3919,
      "classic": 3920,
      "catch": 3921,
      "failing": 3922,
      "rising": 3923,
      "value": 3924,
      "population": 3925,
      "ledge": 3926,
      "admit": 3927,
      "footage": 3928,
      "grapher": 3929,
      "horrified": 3930,
      "gifts": 3931,
      "journey": 3932,
      "largest": 3933,
      "reminder": 3934,
      "drops": 3935,
      "misconduct": 3936,
      "sentence": 3937,
      "touch": 3938,
      "giu": 3939,
      "prime": 3940,
      "songs": 3941,
      "journalists": 3942,
      "delivers": 3943,
      "meaning": 3944,
      "sessions": 3945,
      "victory": 3946,
      "beginning": 3947,
      "sorry": 3948,
      "entertain": 3949,
      "finger": 3950,
      "escape": 3951,
      "palestinian": 3952,
      "intelligence": 3953,
      "tuesday": 3954,
      "behavi": 3955,
      "attorney": 3956,
      "kimmel": 3957,
      "gate": 3958,
      "gard": 3959,
      "hunt": 3960,
      "ki": 3961,
      "kansas": 3962,
      "mp": 3963,
      "pil": 3964,
      "rud": 3965,
      "si": 3966,
      "sight": 3967,
      "saw": 3968,
      "tat": 3969,
      "tac": 3970,
      "yog": 3971,
      "alan": 3972,
      "tox": 3973,
      "edition": 3974,
      "items": 3975,
      "elle": 3976,
      "andre": 3977,
      "advoc": 3978,
      "sham": 3979,
      "shire": 3980,
      "ung": 3981,
      "unsure": 3982,
      "irty": 3983,
      "rescue": 3984,
      "wealth": 3985,
      "exchange": 3986,
      "rose": 3987,
      "worry": 3988,
      "arters": 3989,
      "grave": 3990,
      "astron": 3991,
      "bled": 3992,
      "quarters": 3993,
      "drone": 3994,
      "owners": 3995,
      "actual": 3996,
      "ellen": 3997,
      "cooper": 3998,
      "discrim": 3999,
      "crew": 4000,
      "creator": 4001,
      "suprem": 4002,
      "type": 4003,
      "speaking": 4004,
      "shower": 4005,
      "serial": 4006,
      "syl": 4007,
      "raises": 4008,
      "barack": 4009,
      "seek": 4010,
      "roommate": 4011,
      "stewart": 4012,
      "ahu": 4013,
      "richard": 4014,
      "celebrities": 4015,
      "respond": 4016,
      "posed": 4017,
      "crimes": 4018,
      "panic": 4019,
      "magic": 4020,
      "pulls": 4021,
      "diff": 4022,
      "racial": 4023,
      "hypo": 4024,
      "appears": 4025,
      "drugs": 4026,
      "lord": 4027,
      "ika": 4028,
      "feature": 4029,
      "equality": 4030,
      "enjoy": 4031,
      "matters": 4032,
      "blasts": 4033,
      "technology": 4034,
      "cabinet": 4035,
      "digital": 4036,
      "liani": 4037,
      "creepy": 4038,
      "split": 4039,
      "opinion": 4040,
      "dancing": 4041,
      "tribute": 4042,
      "inauguration": 4043,
      "revolution": 4044,
      "newspaper": 4045,
      "exhausted": 4046,
      "brazil": 4047,
      "exerc": 4048,
      "giuliani": 4049,
      "22": 4050,
      "bust": 4051,
      "bans": 4052,
      "cases": 4053,
      "ditch": 4054,
      "foun": 4055,
      "hug": 4056,
      "ife": 4057,
      "ique": 4058,
      "lind": 4059,
      "lish": 4060,
      "mut": 4061,
      "pig": 4062,
      "pump": 4063,
      "ror": 4064,
      "rating": 4065,
      "saf": 4066,
      "ske": 4067,
      "sust": 4068,
      "tun": 4069,
      "tack": 4070,
      "tank": 4071,
      "tape": 4072,
      "uit": 4073,
      "unex": 4074,
      "ukr": 4075,
      "vacc": 4076,
      "analy": 4077,
      "itely": 4078,
      "icer": 4079,
      "oma": 4080,
      "omers": 4081,
      "illegal": 4082,
      "demon": 4083,
      "trick": 4084,
      "adv": 4085,
      "adam": 4086,
      "adult": 4087,
      "unaware": 4088,
      "uments": 4089,
      "urge": 4090,
      "ophob": 4091,
      "fro": 4092,
      "lide": 4093,
      "ull": 4094,
      "plastic": 4095,
      "peri": 4096,
      "mars": 4097,
      "marine": 4098,
      "creating": 4099,
      "creative": 4100,
      "collap": 4101,
      "minister": 4102,
      "turned": 4103,
      "corden": 4104,
      "seriously": 4105,
      "legacy": 4106,
      "funny": 4107,
      "charl": 4108,
      "azz": 4109,
      "headquarters": 4110,
      "countries": 4111,
      "council": 4112,
      "capable": 4113,
      "aham": 4114,
      "passing": 4115,
      "settle": 4116,
      "experien": 4117,
      "experiment": 4118,
      "hamp": 4119,
      "falling": 4120,
      "emails": 4121,
      "graphy": 4122,
      "potential": 4123,
      "korean": 4124,
      "later": 4125,
      "latino": 4126,
      "wheel": 4127,
      "huffpollster": 4128,
      "terrorism": 4129,
      "leadership": 4130,
      "flying": 4131,
      "animal": 4132,
      "approves": 4133,
      "welcome": 4134,
      "filled": 4135,
      "statue": 4136,
      "beyond": 4137,
      "prepares": 4138,
      "incident": 4139,
      "conservative": 4140,
      "conservatives": 4141,
      "lawyers": 4142,
      "controversy": 4143,
      "linked": 4144,
      "resigns": 4145,
      "benefits": 4146,
      "princess": 4147,
      "regret": 4148,
      "anxiety": 4149,
      "information": 4150,
      "increasingly": 4151,
      "cheney": 4152,
      "determin": 4153,
      "legislation": 4154,
      "torture": 4155,
      "hawaii": 4156,
      "cigaret": 4157,
      "35": 4158,
      "bian": 4159,
      "bott": 4160,
      "dom": 4161,
      "ek": 4162,
      "either": 4163,
      "fa": 4164,
      "fell": 4165,
      "gag": 4166,
      "gates": 4167,
      "gather": 4168,
      "hing": 4169,
      "hiv": 4170,
      "hide": 4171,
      "iers": 4172,
      "ji": 4173,
      "lau": 4174,
      "mitt": 4175,
      "ox": 4176,
      "pent": 4177,
      "ply": 4178,
      "pap": 4179,
      "pitch": 4180,
      "rol": 4181,
      "river": 4182,
      "skills": 4183,
      "sister": 4184,
      "till": 4185,
      "wa": 4186,
      "wid": 4187,
      "yem": 4188,
      "invent": 4189,
      "includ": 4190,
      "replac": 4191,
      "though": 4192,
      "ature": 4193,
      "toy": 4194,
      "tool": 4195,
      "toile": 4196,
      "arms": 4197,
      "chain": 4198,
      "forget": 4199,
      "trapped": 4200,
      "neck": 4201,
      "urban": 4202,
      "opport": 4203,
      "wist": 4204,
      "mole": 4205,
      "conspir": 4206,
      "ultimate": 4207,
      "fects": 4208,
      "weed": 4209,
      "weinstein": 4210,
      "exam": 4211,
      "affect": 4212,
      "grat": 4213,
      "boston": 4214,
      "quit": 4215,
      "spin": 4216,
      "subs": 4217,
      "ghost": 4218,
      "acters": 4219,
      "tony": 4220,
      "presidency": 4221,
      "carson": 4222,
      "mont": 4223,
      "meditation": 4224,
      "sexist": 4225,
      "airs": 4226,
      "parade": 4227,
      "certain": 4228,
      "slight": 4229,
      "butter": 4230,
      "charge": 4231,
      "charity": 4232,
      "characters": 4233,
      "played": 4234,
      "related": 4235,
      "cute": 4236,
      "humili": 4237,
      "poster": 4238,
      "musical": 4239,
      "viewers": 4240,
      "brothers": 4241,
      "listening": 4242,
      "cyber": 4243,
      "stern": 4244,
      "terrifying": 4245,
      "decide": 4246,
      "miles": 4247,
      "solar": 4248,
      "match": 4249,
      "promot": 4250,
      "homo": 4251,
      "facts": 4252,
      "costs": 4253,
      "onym": 4254,
      "horrible": 4255,
      "rolls": 4256,
      "spotted": 4257,
      "dropped": 4258,
      "struggle": 4259,
      "successful": 4260,
      "satur": 4261,
      "colorado": 4262,
      "philip": 4263,
      "spoof": 4264,
      "fantasy": 4265,
      "quickly": 4266,
      "mysterious": 4267,
      "broadway": 4268,
      "ocean": 4269,
      "exclusive": 4270,
      "sustain": 4271,
      "period": 4272,
      "hampshire": 4273,
      "aunt": 4274,
      "bac": 4275,
      "bay": 4276,
      "bun": 4277,
      "bound": 4278,
      "cous": 4279,
      "cards": 4280,
      "centr": 4281,
      "dak": 4282,
      "duck": 4283,
      "dirty": 4284,
      "fisher": 4285,
      "gic": 4286,
      "gps": 4287,
      "knew": 4288,
      "naz": 4289,
      "ole": 4290,
      "qa": 4291,
      "rant": 4292,
      "sne": 4293,
      "tall": 4294,
      "ude": 4295,
      "inmates": 4296,
      "reject": 4297,
      "stam": 4298,
      "sters": 4299,
      "stren": 4300,
      "orland": 4301,
      "ato": 4302,
      "ende": 4303,
      "ara": 4304,
      "itzer": 4305,
      "iced": 4306,
      "amend": 4307,
      "deput": 4308,
      "sem": 4309,
      "sele": 4310,
      "seems": 4311,
      "tri": 4312,
      "adop": 4313,
      "necess": 4314,
      "sher": 4315,
      "shark": 4316,
      "bets": 4317,
      "vegas": 4318,
      "improve": 4319,
      "oping": 4320,
      "illino": 4321,
      "locked": 4322,
      "roger": 4323,
      "kevin": 4324,
      "artists": 4325,
      "obv": 4326,
      "thern": 4327,
      "graham": 4328,
      "blames": 4329,
      "bye": 4330,
      "both": 4331,
      "bored": 4332,
      "assoc": 4333,
      "haun": 4334,
      "oked": 4335,
      "okay": 4336,
      "meth": 4337,
      "idemic": 4338,
      "spicer": 4339,
      "avail": 4340,
      "bern": 4341,
      "marvel": 4342,
      "epidemic": 4343,
      "polic": 4344,
      "joins": 4345,
      "partic": 4346,
      "maid": 4347,
      "rent": 4348,
      "anyahu": 4349,
      "thrill": 4350,
      "issy": 4351,
      "corn": 4352,
      "sexually": 4353,
      "worked": 4354,
      "camer": 4355,
      "wasn": 4356,
      "remains": 4357,
      "chrissy": 4358,
      "hole": 4359,
      "glad": 4360,
      "function": 4361,
      "aze": 4362,
      "michig": 4363,
      "transform": 4364,
      "happiness": 4365,
      "adel": 4366,
      "officers": 4367,
      "boring": 4368,
      "netanyahu": 4369,
      "patri": 4370,
      "milk": 4371,
      "delay": 4372,
      "mater": 4373,
      "foundation": 4374,
      "positive": 4375,
      "engine": 4376,
      "threatened": 4377,
      "alleged": 4378,
      "horror": 4379,
      "eyed": 4380,
      "ruption": 4381,
      "inspires": 4382,
      "hitting": 4383,
      "instit": 4384,
      "flip": 4385,
      "activist": 4386,
      "natural": 4387,
      "africa": 4388,
      "quiet": 4389,
      "sounds": 4390,
      "reaches": 4391,
      "impression": 4392,
      "known": 4393,
      "felt": 4394,
      "citizen": 4395,
      "islamic": 4396,
      "pounds": 4397,
      "previously": 4398,
      "mystery": 4399,
      "random": 4400,
      "embarrassed": 4401,
      "idiot": 4402,
      "screaming": 4403,
      "lawmakers": 4404,
      "condemns": 4405,
      "premiere": 4406,
      "mountain": 4407,
      "companies": 4408,
      "behavior": 4409,
      "yoga": 4410,
      "toxic": 4411,
      "yemen": 4412,
      "orlando": 4413,
      "illinois": 4414,
      "michigan": 4415,
      "500": 4416,
      "bart": 4417,
      "bold": 4418,
      "cli": 4419,
      "egy": 4420,
      "jam": 4421,
      "jun": 4422,
      "jet": 4423,
      "lah": 4424,
      "lucky": 4425,
      "nap": 4426,
      "pow": 4427,
      "pour": 4428,
      "pile": 4429,
      "sob": 4430,
      "sque": 4431,
      "yout": 4432,
      "rex": 4433,
      "rey": 4434,
      "repre": 4435,
      "remove": 4436,
      "oncé": 4437,
      "enger": 4438,
      "altern": 4439,
      "ari": 4440,
      "arizon": 4441,
      "esville": 4442,
      "oms": 4443,
      "chip": 4444,
      "detro": 4445,
      "formed": 4446,
      "eland": 4447,
      "shake": 4448,
      "shape": 4449,
      "imum": 4450,
      "priest": 4451,
      "manuel": 4452,
      "fears": 4453,
      "exhib": 4454,
      "kee": 4455,
      "craw": 4456,
      "teigen": 4457,
      "antically": 4458,
      "bra": 4459,
      "brush": 4460,
      "dry": 4461,
      "fool": 4462,
      "scalia": 4463,
      "actress": 4464,
      "creates": 4465,
      "ached": 4466,
      "myth": 4467,
      "ishing": 4468,
      "math": 4469,
      "rence": 4470,
      "friendly": 4471,
      "corner": 4472,
      "surve": 4473,
      "surger": 4474,
      "lawn": 4475,
      "slam": 4476,
      "jewish": 4477,
      "written": 4478,
      "german": 4479,
      "highway": 4480,
      "statement": 4481,
      "missed": 4482,
      "banks": 4483,
      "closer": 4484,
      "winner": 4485,
      "officially": 4486,
      "films": 4487,
      "shoots": 4488,
      "walker": 4489,
      "laid": 4490,
      "treas": 4491,
      "businesses": 4492,
      "handle": 4493,
      "homes": 4494,
      "humanity": 4495,
      "paying": 4496,
      "ottesville": 4497,
      "switch": 4498,
      "feder": 4499,
      "profile": 4500,
      "proper": 4501,
      "causes": 4502,
      "continu": 4503,
      "speaker": 4504,
      "attempting": 4505,
      "remembers": 4506,
      "apology": 4507,
      "bombing": 4508,
      "tough": 4509,
      "truly": 4510,
      "designer": 4511,
      "equal": 4512,
      "factory": 4513,
      "staffers": 4514,
      "william": 4515,
      "criticism": 4516,
      "kylie": 4517,
      "beyoncé": 4518,
      "impressed": 4519,
      "honest": 4520,
      "perspect": 4521,
      "purchase": 4522,
      "devos": 4523,
      "zero": 4524,
      "loyal": 4525,
      "annoyed": 4526,
      "progressive": 4527,
      "details": 4528,
      "argument": 4529,
      "several": 4530,
      "nervous": 4531,
      "trolls": 4532,
      "electric": 4533,
      "literally": 4534,
      "conflict": 4535,
      "repeatedly": 4536,
      "traffic": 4537,
      "portrait": 4538,
      "english": 4539,
      "taco": 4540,
      "charlottesville": 4541,
      "conspiracy": 4542,
      "streng": 4543,
      "egypt": 4544,
      "arizona": 4545,
      "detroit": 4546,
      "athe": 4547,
      "boun": 4548,
      "bang": 4549,
      "cot": 4550,
      "ded": 4551,
      "fle": 4552,
      "fol": 4553,
      "fame": 4554,
      "gil": 4555,
      "gum": 4556,
      "gain": 4557,
      "gross": 4558,
      "iels": 4559,
      "kend": 4560,
      "lers": 4561,
      "nun": 4562,
      "pip": 4563,
      "punch": 4564,
      "rit": 4565,
      "rachel": 4566,
      "sending": 4567,
      "saves": 4568,
      "tag": 4569,
      "tenn": 4570,
      "ube": 4571,
      "wise": 4572,
      "zone": 4573,
      "inte": 4574,
      "anthem": 4575,
      "stad": 4576,
      "stands": 4577,
      "steven": 4578,
      "atl": 4579,
      "eda": 4580,
      "iled": 4581,
      "illy": 4582,
      "chat": 4583,
      "amber": 4584,
      "seth": 4585,
      "forts": 4586,
      "trag": 4587,
      "anderson": 4588,
      "neil": 4589,
      "shell": 4590,
      "became": 4591,
      "whis": 4592,
      "umes": 4593,
      "terms": 4594,
      "loser": 4595,
      "frantically": 4596,
      "mob": 4597,
      "mothers": 4598,
      "applic": 4599,
      "ational": 4600,
      "allowing": 4601,
      "upon": 4602,
      "heim": 4603,
      "comment": 4604,
      "utter": 4605,
      "utions": 4606,
      "endanger": 4607,
      "expl": 4608,
      "roof": 4609,
      "emmy": 4610,
      "cris": 4611,
      "ivid": 4612,
      "ustin": 4613,
      "aint": 4614,
      "grown": 4615,
      "tea": 4616,
      "brace": 4617,
      "spar": 4618,
      "spread": 4619,
      "sue": 4620,
      "code": 4621,
      "iana": 4622,
      "flavor": 4623,
      "pathetic": 4624,
      "coll": 4625,
      "pleas": 4626,
      "friendship": 4627,
      "interior": 4628,
      "makeup": 4629,
      "moments": 4630,
      "voted": 4631,
      "visible": 4632,
      "elections": 4633,
      "cheer": 4634,
      "cheap": 4635,
      "checks": 4636,
      "miller": 4637,
      "tooth": 4638,
      "posts": 4639,
      "clock": 4640,
      "contact": 4641,
      "ologist": 4642,
      "dads": 4643,
      "aims": 4644,
      "setting": 4645,
      "consin": 4646,
      "addiction": 4647,
      "started": 4648,
      "affle": 4649,
      "ketch": 4650,
      "harder": 4651,
      "expand": 4652,
      "summit": 4653,
      "searching": 4654,
      "honored": 4655,
      "swim": 4656,
      "heroin": 4657,
      "sleeping": 4658,
      "laden": 4659,
      "situ": 4660,
      "younger": 4661,
      "touching": 4662,
      "davis": 4663,
      "bringing": 4664,
      "protecting": 4665,
      "penis": 4666,
      "ridicul": 4667,
      "expected": 4668,
      "vania": 4669,
      "enjoys": 4670,
      "basket": 4671,
      "mistakes": 4672,
      "mistaken": 4673,
      "british": 4674,
      "comedian": 4675,
      "victor": 4676,
      "habit": 4677,
      "soldier": 4678,
      "unemp": 4679,
      "dumb": 4680,
      "trouble": 4681,
      "remaining": 4682,
      "wisconsin": 4683,
      "sources": 4684,
      "practice": 4685,
      "agrees": 4686,
      "therapy": 4687,
      "title": 4688,
      "langu": 4689,
      "responsible": 4690,
      "original": 4691,
      "false": 4692,
      "thomas": 4693,
      "bodies": 4694,
      "taste": 4695,
      "panicked": 4696,
      "pledges": 4697,
      "cosby": 4698,
      "delicious": 4699,
      "pennsyl": 4700,
      "tattoo": 4701,
      "unexpect": 4702,
      "toilet": 4703,
      "opportunity": 4704,
      "saturday": 4705,
      "dakota": 4706,
      "available": 4707,
      "unemploy": 4708,
      "37": 4709,
      "aides": 4710,
      "bald": 4711,
      "bors": 4712,
      "bible": 4713,
      "cers": 4714,
      "cure": 4715,
      "cens": 4716,
      "eve": 4717,
      "fred": 4718,
      "flee": 4719,
      "fighter": 4720,
      "ga": 4721,
      "hates": 4722,
      "jess": 4723,
      "kh": 4724,
      "lena": 4725,
      "mand": 4726,
      "mun": 4727,
      "map": 4728,
      "mine": 4729,
      "pes": 4730,
      "pover": 4731,
      "rig": 4732,
      "rab": 4733,
      "rips": 4734,
      "sac": 4735,
      "sod": 4736,
      "vation": 4737,
      "wards": 4738,
      "yan": 4739,
      "inner": 4740,
      "renew": 4741,
      "reaction": 4742,
      "ande": 4743,
      "anonym": 4744,
      "sts": 4745,
      "stance": 4746,
      "stree": 4747,
      "ordin": 4748,
      "alive": 4749,
      "alert": 4750,
      "outraged": 4751,
      "asp": 4752,
      "ami": 4753,
      "ambass": 4754,
      "seven": 4755,
      "eline": 4756,
      "entrepre": 4757,
      "shame": 4758,
      "umn": 4759,
      "oppon": 4760,
      "outbreak": 4761,
      "fruit": 4762,
      "confeder": 4763,
      "mana": 4764,
      "ups": 4765,
      "newborn": 4766,
      "istry": 4767,
      "agno": 4768,
      "plot": 4769,
      "exc": 4770,
      "except": 4771,
      "cra": 4772,
      "essential": 4773,
      "doors": 4774,
      "cler": 4775,
      "bright": 4776,
      "brought": 4777,
      "posing": 4778,
      "mentally": 4779,
      "sues": 4780,
      "olds": 4781,
      "prec": 4782,
      "guess": 4783,
      "phr": 4784,
      "phia": 4785,
      "buys": 4786,
      "flash": 4787,
      "carter": 4788,
      "anyway": 4789,
      "monster": 4790,
      "ission": 4791,
      "empt": 4792,
      "empower": 4793,
      "rather": 4794,
      "knowing": 4795,
      "ios": 4796,
      "reduce": 4797,
      "ancient": 4798,
      "smell": 4799,
      "burns": 4800,
      "stein": 4801,
      "moral": 4802,
      "views": 4803,
      "broke": 4804,
      "nightm": 4805,
      "controll": 4806,
      "passion": 4807,
      "passenger": 4808,
      "shootings": 4809,
      "ological": 4810,
      "cycle": 4811,
      "collection": 4812,
      "babies": 4813,
      "walks": 4814,
      "cruise": 4815,
      "laur": 4816,
      "patients": 4817,
      "expert": 4818,
      "wednes": 4819,
      "valley": 4820,
      "heartbreaking": 4821,
      "returning": 4822,
      "pulling": 4823,
      "records": 4824,
      "engagement": 4825,
      "believes": 4826,
      "heroes": 4827,
      "hunger": 4828,
      "simpson": 4829,
      "daughters": 4830,
      "larry": 4831,
      "shopping": 4832,
      "execution": 4833,
      "globes": 4834,
      "traveling": 4835,
      "wildlife": 4836,
      "sentenced": 4837,
      "survive": 4838,
      "daniels": 4839,
      "confidence": 4840,
      "torn": 4841,
      "iraqi": 4842,
      "afraid": 4843,
      "gorge": 4844,
      "jerry": 4845,
      "britney": 4846,
      "knife": 4847,
      "relief": 4848,
      "directly": 4849,
      "definitely": 4850,
      "professor": 4851,
      "distur": 4852,
      "nursing": 4853,
      "constitution": 4854,
      "annoying": 4855,
      "anchor": 4856,
      "bottom": 4857,
      "medicine": 4858,
      "politicians": 4859,
      "japanese": 4860,
      "duty": 4861,
      "barely": 4862,
      "puppy": 4863,
      "dolph": 4864,
      "routine": 4865,
      "considering": 4866,
      "abandoned": 4867,
      "ursday": 4868,
      "gaza": 4869,
      "correct": 4870,
      "entertainment": 4871,
      "rudy": 4872,
      "founder": 4873,
      "ukraine": 4874,
      "bottle": 4875,
      "pentagon": 4876,
      "homosexual": 4877,
      "amendment": 4878,
      "betsy": 4879,
      "policies": 4880,
      "youtube": 4881,
      "perspective": 4882,
      "strength": 4883,
      "integr": 4884,
      "pennsylvania": 4885,
      "poverty": 4886,
      "streets": 4887,
      "ambassador": 4888,
      "entrepreneur": 4889,
      "27": 4890,
      "32": 4891,
      "bast": 4892,
      "bash": 4893,
      "cum": 4894,
      "fc": 4895,
      "fw": 4896,
      "fier": 4897,
      "fuel": 4898,
      "hin": 4899,
      "jokes": 4900,
      "kir": 4901,
      "kaine": 4902,
      "lone": 4903,
      "mes": 4904,
      "mug": 4905,
      "narr": 4906,
      "occ": 4907,
      "pill": 4908,
      "rie": 4909,
      "rav": 4910,
      "taught": 4911,
      "tiger": 4912,
      "uitt": 4913,
      "vul": 4914,
      "wrest": 4915,
      "income": 4916,
      "recall": 4917,
      "recru": 4918,
      "thursday": 4919,
      "ories": 4920,
      "toss": 4921,
      "toll": 4922,
      "arily": 4923,
      "icts": 4924,
      "icult": 4925,
      "chest": 4926,
      "ament": 4927,
      "acade": 4928,
      "olo": 4929,
      "oles": 4930,
      "tray": 4931,
      "nest": 4932,
      "beating": 4933,
      "veget": 4934,
      "irs": 4935,
      "ables": 4936,
      "illness": 4937,
      "pruitt": 4938,
      "loose": 4939,
      "liest": 4940,
      "convin": 4941,
      "usa": 4942,
      "upset": 4943,
      "comic": 4944,
      "complic": 4945,
      "western": 4946,
      "cture": 4947,
      "plat": 4948,
      "plun": 4949,
      "plus": 4950,
      "plants": 4951,
      "roc": 4952,
      "embrac": 4953,
      "kept": 4954,
      "crying": 4955,
      "grant": 4956,
      "astr": 4957,
      "blows": 4958,
      "individ": 4959,
      "bruce": 4960,
      "mention": 4961,
      "meals": 4962,
      "meghan": 4963,
      "awaren": 4964,
      "drum": 4965,
      "drama": 4966,
      "foc": 4967,
      "nostal": 4968,
      "maria": 4969,
      "epic": 4970,
      "willing": 4971,
      "guit": 4972,
      "estate": 4973,
      "phones": 4974,
      "kings": 4975,
      "anny": 4976,
      "buil": 4977,
      "buzz": 4978,
      "presents": 4979,
      "pressure": 4980,
      "carto": 4981,
      "maher": 4982,
      "everywhere": 4983,
      "minimum": 4984,
      "breath": 4985,
      "showing": 4986,
      "thrown": 4987,
      "throwing": 4988,
      "issa": 4989,
      "intern": 4990,
      "starbucks": 4991,
      "knowledge": 4992,
      "butt": 4993,
      "letting": 4994,
      "elected": 4995,
      "maybe": 4996,
      "fundra": 4997,
      "coverage": 4998,
      "headed": 4999,
      "genius": 5000,
      "count": 5001,
      "deaths": 5002,
      "wonders": 5003,
      "transportation": 5004,
      "winners": 5005,
      "contract": 5006,
      "intended": 5007,
      "conditions": 5008,
      "cruel": 5009,
      "patrick": 5010,
      "treats": 5011,
      "candy": 5012,
      "teaches": 5013,
      "solve": 5014,
      "teenage": 5015,
      "hammer": 5016,
      "nuts": 5017,
      "popul": 5018,
      "fallon": 5019,
      "suspic": 5020,
      "jordan": 5021,
      "vices": 5022,
      "production": 5023,
      "communities": 5024,
      "spray": 5025,
      "painful": 5026,
      "dipl": 5027,
      "diagno": 5028,
      "receive": 5029,
      "neighbors": 5030,
      "impact": 5031,
      "approval": 5032,
      "philadel": 5033,
      "surprising": 5034,
      "jersey": 5035,
      "status": 5036,
      "religion": 5037,
      "miracle": 5038,
      "graduates": 5039,
      "deserve": 5040,
      "provides": 5041,
      "iconic": 5042,
      "wilson": 5043,
      "dollar": 5044,
      "source": 5045,
      "suspended": 5046,
      "migrants": 5047,
      "austral": 5048,
      "australia": 5049,
      "ethics": 5050,
      "environment": 5051,
      "rebels": 5052,
      "shift": 5053,
      "difficult": 5054,
      "exercise": 5055,
      "gaga": 5056,
      "tillerson": 5057,
      "thoughts": 5058,
      "slightly": 5059,
      "qaeda": 5060,
      "necessary": 5061,
      "surgery": 5062,
      "stadium": 5063,
      "jessica": 5064,
      "confederate": 5065,
      "manafort": 5066,
      "craig": 5067,
      "wednesday": 5068,
      "disturbing": 5069,
      "awareness": 5070,
      "300": 5071,
      "98": 5072,
      "99": 5073,
      "aide": 5074,
      "athing": 5075,
      "cait": 5076,
      "dent": 5077,
      "dall": 5078,
      "gies": 5079,
      "gang": 5080,
      "golf": 5081,
      "hires": 5082,
      "hiring": 5083,
      "jason": 5084,
      "kas": 5085,
      "oved": 5086,
      "pse": 5087,
      "pak": 5088,
      "pine": 5089,
      "rates": 5090,
      "som": 5091,
      "tum": 5092,
      "ufact": 5093,
      "vom": 5094,
      "erup": 5095,
      "reven": 5096,
      "thy": 5097,
      "stol": 5098,
      "stays": 5099,
      "atory": 5100,
      "itude": 5101,
      "league": 5102,
      "defeat": 5103,
      "acu": 5104,
      "ading": 5105,
      "advent": 5106,
      "neu": 5107,
      "shed": 5108,
      "beef": 5109,
      "unte": 5110,
      "whel": 5111,
      "iding": 5112,
      "iron": 5113,
      "abo": 5114,
      "illa": 5115,
      "illusion": 5116,
      "lov": 5117,
      "aker": 5118,
      "lied": 5119,
      "liby": 5120,
      "libr": 5121,
      "cease": 5122,
      "ceiling": 5123,
      "mobil": 5124,
      "conce": 5125,
      "concept": 5126,
      "construction": 5127,
      "usal": 5128,
      "manufact": 5129,
      "hey": 5130,
      "ateful": 5131,
      "utional": 5132,
      "wears": 5133,
      "agan": 5134,
      "agents": 5135,
      "pledge": 5136,
      "grill": 5137,
      "grace": 5138,
      "grams": 5139,
      "grateful": 5140,
      "overweight": 5141,
      "boo": 5142,
      "bride": 5143,
      "gov": 5144,
      "quake": 5145,
      "spell": 5146,
      "spider": 5147,
      "iper": 5148,
      "ipping": 5149,
      "owns": 5150,
      "actions": 5151,
      "whose": 5152,
      "strange": 5153,
      "strangers": 5154,
      "prepar": 5155,
      "attle": 5156,
      "attende": 5157,
      "ails": 5158,
      "estab": 5159,
      "identity": 5160,
      "firm": 5161,
      "prescription": 5162,
      "colleg": 5163,
      "backs": 5164,
      "backed": 5165,
      "minnes": 5166,
      "grey": 5167,
      "childhood": 5168,
      "oregon": 5169,
      "syn": 5170,
      "parody": 5171,
      "shoes": 5172,
      "shocking": 5173,
      "describ": 5174,
      "hook": 5175,
      "button": 5176,
      "funds": 5177,
      "charles": 5178,
      "smiling": 5179,
      "understand": 5180,
      "counsel": 5181,
      "micros": 5182,
      "burn": 5183,
      "mort": 5184,
      "transition": 5185,
      "beloved": 5186,
      "gunman": 5187,
      "capito": 5188,
      "archae": 5189,
      "passed": 5190,
      "personality": 5191,
      "tower": 5192,
      "condition": 5193,
      "decided": 5194,
      "sett": 5195,
      "blog": 5196,
      "goddamn": 5197,
      "testing": 5198,
      "copy": 5199,
      "affair": 5200,
      "nutr": 5201,
      "suspects": 5202,
      "snack": 5203,
      "waitress": 5204,
      "panel": 5205,
      "sweep": 5206,
      "taxes": 5207,
      "productive": 5208,
      "shitty": 5209,
      "threatening": 5210,
      "shots": 5211,
      "potter": 5212,
      "volunte": 5213,
      "hosts": 5214,
      "inspiring": 5215,
      "terrorist": 5216,
      "confident": 5217,
      "confused": 5218,
      "bond": 5219,
      "hopeful": 5220,
      "approach": 5221,
      "draws": 5222,
      "drawing": 5223,
      "gorsuch": 5224,
      "riding": 5225,
      "pictures": 5226,
      "scram": 5227,
      "cleaning": 5228,
      "importance": 5229,
      "enjoying": 5230,
      "cooking": 5231,
      "nobel": 5232,
      "krist": 5233,
      "mirror": 5234,
      "divorced": 5235,
      "feld": 5236,
      "habits": 5237,
      "hackers": 5238,
      "survivor": 5239,
      "organization": 5240,
      "challenges": 5241,
      "shelter": 5242,
      "proposal": 5243,
      "kini": 5244,
      "regrets": 5245,
      "feminist": 5246,
      "prayers": 5247,
      "environmental": 5248,
      "grammys": 5249,
      "evolution": 5250,
      "dunham": 5251,
      "december": 5252,
      "updates": 5253,
      "chemical": 5254,
      "shadow": 5255,
      "latinos": 5256,
      "achieve": 5257,
      "frozen": 5258,
      "determined": 5259,
      "central": 5260,
      "heimer": 5261,
      "basketball": 5262,
      "gorgeous": 5263,
      "academy": 5264,
      "philadelphia": 5265,
      "dallas": 5266,
      "pakistan": 5267,
      "stolen": 5268,
      "minnesota": 5269,
      "capitol": 5270,
      "34": 5271,
      "89": 5272,
      "dv": 5273,
      "dangers": 5274,
      "eats": 5275,
      "fu": 5276,
      "fas": 5277,
      "fab": 5278,
      "fcc": 5279,
      "gage": 5280,
      "hou": 5281,
      "lion": 5282,
      "lum": 5283,
      "lash": 5284,
      "pom": 5285,
      "pard": 5286,
      "rif": 5287,
      "rice": 5288,
      "rough": 5289,
      "slide": 5290,
      "wy": 5291,
      "wit": 5292,
      "wound": 5293,
      "wakes": 5294,
      "yl": 5295,
      "yo": 5296,
      "zika": 5297,
      "zheimer": 5298,
      "inate": 5299,
      "reun": 5300,
      "reunion": 5301,
      "removes": 5302,
      "reilly": 5303,
      "thum": 5304,
      "stab": 5305,
      "stall": 5306,
      "stares": 5307,
      "alzheimer": 5308,
      "arctic": 5309,
      "isf": 5310,
      "iser": 5311,
      "icing": 5312,
      "omo": 5313,
      "aser": 5314,
      "aside": 5315,
      "chant": 5316,
      "aca": 5317,
      "sept": 5318,
      "seattle": 5319,
      "oliver": 5320,
      "ented": 5321,
      "neg": 5322,
      "bean": 5323,
      "unless": 5324,
      "images": 5325,
      "irts": 5326,
      "opio": 5327,
      "loe": 5328,
      "wire": 5329,
      "conc": 5330,
      "usive": 5331,
      "feud": 5332,
      "keys": 5333,
      "craft": 5334,
      "cling": 5335,
      "overwhel": 5336,
      "assass": 5337,
      "brill": 5338,
      "gore": 5339,
      "goals": 5340,
      "qual": 5341,
      "quite": 5342,
      "oklah": 5343,
      "meyers": 5344,
      "canada": 5345,
      "drake": 5346,
      "notice": 5347,
      "izer": 5348,
      "disorder": 5349,
      "reported": 5350,
      "programs": 5351,
      "preser": 5352,
      "colin": 5353,
      "warming": 5354,
      "background": 5355,
      "2020": 5356,
      "insane": 5357,
      "iban": 5358,
      "max": 5359,
      "evacu": 5360,
      "spears": 5361,
      "corruption": 5362,
      "sexy": 5363,
      "workout": 5364,
      "workplace": 5365,
      "finale": 5366,
      "sons": 5367,
      "taliban": 5368,
      "surround": 5369,
      "watched": 5370,
      "raising": 5371,
      "glimp": 5372,
      "accur": 5373,
      "jection": 5374,
      "commission": 5375,
      "singing": 5376,
      "chef": 5377,
      "redu": 5378,
      "highly": 5379,
      "ictions": 5380,
      "goodbye": 5381,
      "version": 5382,
      "relax": 5383,
      "genet": 5384,
      "photographer": 5385,
      "captain": 5386,
      "files": 5387,
      "couch": 5388,
      "lesbian": 5389,
      "tops": 5390,
      "miami": 5391,
      "secretly": 5392,
      "feelings": 5393,
      "bloom": 5394,
      "blocks": 5395,
      "grandfather": 5396,
      "bikini": 5397,
      "supporting": 5398,
      "solid": 5399,
      "catches": 5400,
      "valu": 5401,
      "italy": 5402,
      "italian": 5403,
      "voices": 5404,
      "entirely": 5405,
      "sniper": 5406,
      "increases": 5407,
      "pulled": 5408,
      "products": 5409,
      "palin": 5410,
      "schol": 5411,
      "horrifying": 5412,
      "causing": 5413,
      "roller": 5414,
      "destro": 5415,
      "damage": 5416,
      "difference": 5417,
      "bolton": 5418,
      "robot": 5419,
      "painting": 5420,
      "satisf": 5421,
      "relationships": 5422,
      "nato": 5423,
      "constantly": 5424,
      "completes": 5425,
      "troops": 5426,
      "revealed": 5427,
      "committed": 5428,
      "seaworld": 5429,
      "fitness": 5430,
      "announcement": 5431,
      "teeth": 5432,
      "cracks": 5433,
      "clude": 5434,
      "staying": 5435,
      "deeply": 5436,
      "casual": 5437,
      "purchases": 5438,
      "samanth": 5439,
      "liberty": 5440,
      "nurse": 5441,
      "greece": 5442,
      "circle": 5443,
      "attractive": 5444,
      "adviser": 5445,
      "thankful": 5446,
      "embarrassing": 5447,
      "punish": 5448,
      "freshman": 5449,
      "therapist": 5450,
      "lawmaker": 5451,
      "affordable": 5452,
      "effective": 5453,
      "podcast": 5454,
      "resistance": 5455,
      "surgeon": 5456,
      "navy": 5457,
      "trend": 5458,
      "arabia": 5459,
      "carrying": 5460,
      "millennials": 5461,
      "extremely": 5462,
      "rescued": 5463,
      "pissed": 5464,
      "bachelor": 5465,
      "options": 5466,
      "andrew": 5467,
      "discrimination": 5468,
      "hypocris": 5469,
      "method": 5470,
      "endangered": 5471,
      "situation": 5472,
      "unexpected": 5473,
      "baldwin": 5474,
      "soda": 5475,
      "phrase": 5476,
      "cartoon": 5477,
      "australian": 5478,
      "colleges": 5479,
      "microsoft": 5480,
      "opioid": 5481,
      "oklahoma": 5482,
      "glimpse": 5483,
      "samantha": 5484,
      "26": 5485,
      "85": 5486,
      "87": 5487,
      "aar": 5488,
      "apr": 5489,
      "bump": 5490,
      "bia": 5491,
      "bble": 5492,
      "dave": 5493,
      "gul": 5494,
      "gian": 5495,
      "hs": 5496,
      "hut": 5497,
      "hart": 5498,
      "hud": 5499,
      "iar": 5500,
      "kent": 5501,
      "kne": 5502,
      "kfc": 5503,
      "lic": 5504,
      "lazy": 5505,
      "ml": 5506,
      "mish": 5507,
      "nab": 5508,
      "nity": 5509,
      "nancy": 5510,
      "phas": 5511,
      "rams": 5512,
      "sab": 5513,
      "sau": 5514,
      "twist": 5515,
      "vit": 5516,
      "wave": 5517,
      "zy": 5518,
      "inals": 5519,
      "inmate": 5520,
      "erie": 5521,
      "stan": 5522,
      "stit": 5523,
      "stere": 5524,
      "orange": 5525,
      "alo": 5526,
      "tomor": 5527,
      "argu": 5528,
      "isan": 5529,
      "itors": 5530,
      "theme": 5531,
      "iles": 5532,
      "ilton": 5533,
      "asion": 5534,
      "chan": 5535,
      "dee": 5536,
      "dele": 5537,
      "seed": 5538,
      "elon": 5539,
      "negot": 5540,
      "sharing": 5541,
      "impe": 5542,
      "imony": 5543,
      "impossible": 5544,
      "abc": 5545,
      "abor": 5546,
      "oph": 5547,
      "illance": 5548,
      "print": 5549,
      "princ": 5550,
      "lift": 5551,
      "mood": 5552,
      "conven": 5553,
      "approp": 5554,
      "hest": 5555,
      "heat": 5556,
      "febr": 5557,
      "wet": 5558,
      "agu": 5559,
      "agend": 5560,
      "plum": 5561,
      "exit": 5562,
      "rog": 5563,
      "essay": 5564,
      "grie": 5565,
      "boom": 5566,
      "assad": 5567,
      "assure": 5568,
      "brag": 5569,
      "awn": 5570,
      "awful": 5571,
      "cannot": 5572,
      "spill": 5573,
      "ippi": 5574,
      "drivers": 5575,
      "owned": 5576,
      "howard": 5577,
      "timore": 5578,
      "marry": 5579,
      "discovers": 5580,
      "provide": 5581,
      "pure": 5582,
      "anna": 5583,
      "firing": 5584,
      "buf": 5585,
      "bug": 5586,
      "flat": 5587,
      "plea": 5588,
      "mini": 5589,
      "bread": 5590,
      "athers": 5591,
      "issippi": 5592,
      "serving": 5593,
      "oret": 5594,
      "viet": 5595,
      "parts": 5596,
      "clevel": 5597,
      "calm": 5598,
      "nsfw": 5599,
      "commence": 5600,
      "muham": 5601,
      "mississippi": 5602,
      "seeks": 5603,
      "hometown": 5604,
      "holo": 5605,
      "holy": 5606,
      "rooms": 5607,
      "burg": 5608,
      "musk": 5609,
      "closet": 5610,
      "closed": 5611,
      "adele": 5612,
      "longtime": 5613,
      "links": 5614,
      "cyrus": 5615,
      "nedy": 5616,
      "cuomo": 5617,
      "consumer": 5618,
      "effects": 5619,
      "tests": 5620,
      "testimony": 5621,
      "solution": 5622,
      "matic": 5623,
      "hamilton": 5624,
      "mask": 5625,
      "dreamers": 5626,
      "snap": 5627,
      "expensive": 5628,
      "bleed": 5629,
      "baltimore": 5630,
      "markle": 5631,
      "regul": 5632,
      "bullying": 5633,
      "writers": 5634,
      "lots": 5635,
      "lottery": 5636,
      "caused": 5637,
      "rolling": 5638,
      "ordered": 5639,
      "gingrich": 5640,
      "ixon": 5641,
      "iranian": 5642,
      "bedroom": 5643,
      "kennedy": 5644,
      "ification": 5645,
      "bomber": 5646,
      "documents": 5647,
      "lamar": 5648,
      "placed": 5649,
      "pushes": 5650,
      "daniel": 5651,
      "confess": 5652,
      "billionaire": 5653,
      "nature": 5654,
      "pieces": 5655,
      "crashes": 5656,
      "delivery": 5657,
      "scrip": 5658,
      "parkland": 5659,
      "remembering": 5660,
      "radical": 5661,
      "angeles": 5662,
      "squad": 5663,
      "square": 5664,
      "fills": 5665,
      "luther": 5666,
      "miranda": 5667,
      "smooth": 5668,
      "britain": 5669,
      "cashier": 5670,
      "allowed": 5671,
      "sixth": 5672,
      "commercials": 5673,
      "connection": 5674,
      "developing": 5675,
      "furious": 5676,
      "gala": 5677,
      "galax": 5678,
      "veterans": 5679,
      "proposed": 5680,
      "previous": 5681,
      "benefit": 5682,
      "80s": 5683,
      "imagin": 5684,
      "imagine": 5685,
      "billy": 5686,
      "multi": 5687,
      "multip": 5688,
      "praise": 5689,
      "obsessed": 5690,
      "hannity": 5691,
      "minority": 5692,
      "regularly": 5693,
      "forgotten": 5694,
      "shaped": 5695,
      "endorsement": 5696,
      "independent": 5697,
      "independence": 5698,
      "recovery": 5699,
      "prosecutor": 5700,
      "narrow": 5701,
      "memoir": 5702,
      "brooklyn": 5703,
      "wreck": 5704,
      "disabled": 5705,
      "scores": 5706,
      "assistant": 5707,
      "brutal": 5708,
      "garden": 5709,
      "supremac": 5710,
      "bacon": 5711,
      "haunted": 5712,
      "particip": 5713,
      "alternative": 5714,
      "surveillance": 5715,
      "gilmore": 5716,
      "pipeline": 5717,
      "language": 5718,
      "unemployed": 5719,
      "anonymous": 5720,
      "nightmare": 5721,
      "hints": 5722,
      "platform": 5723,
      "guitar": 5724,
      "diplom": 5725,
      "caitlyn": 5726,
      "neutr": 5727,
      "establish": 5728,
      "dvd": 5729,
      "hypocrisy": 5730,
      "april": 5731,
      "kentucky": 5732,
      "tomorrow": 5733,
      "appropri": 5734,
      "february": 5735,
      "cleveland": 5736,
      "'-": 5737,
      "'?": 5738,
      "38": 5739,
      "43": 5740,
      "600": 5741,
      "83": 5742,
      "bish": 5743,
      "cats": 5744,
      "cbs": 5745,
      "dia": 5746,
      "eco": 5747,
      "fate": 5748,
      "fights": 5749,
      "gig": 5750,
      "hbo": 5751,
      "iating": 5752,
      "iors": 5753,
      "jake": 5754,
      "junk": 5755,
      "jazz": 5756,
      "kit": 5757,
      "lun": 5758,
      "lane": 5759,
      "pd": 5760,
      "pist": 5761,
      "pant": 5762,
      "pace": 5763,
      "pills": 5764,
      "rh": 5765,
      "range": 5766,
      "vp": 5767,
      "vince": 5768,
      "za": 5769,
      "zo": 5770,
      "iner": 5771,
      "inct": 5772,
      "informs": 5773,
      "remark": 5774,
      "reagan": 5775,
      "thro": 5776,
      "stom": 5777,
      "stret": 5778,
      "alask": 5779,
      "toys": 5780,
      "arl": 5781,
      "escal": 5782,
      "outr": 5783,
      "assem": 5784,
      "chase": 5785,
      "decor": 5786,
      "determ": 5787,
      "destruction": 5788,
      "acre": 5789,
      "trum": 5790,
      "elim": 5791,
      "bears": 5792,
      "unin": 5793,
      "uncle": 5794,
      "univers": 5795,
      "vember": 5796,
      "whale": 5797,
      "gear": 5798,
      "impro": 5799,
      "idly": 5800,
      "option": 5801,
      "illion": 5802,
      "verse": 5803,
      "apt": 5804,
      "aller": 5805,
      "pets": 5806,
      "weir": 5807,
      "odd": 5808,
      "endy": 5809,
      "enders": 5810,
      "endorses": 5811,
      "roast": 5812,
      "worn": 5813,
      "uster": 5814,
      "grab": 5815,
      "indicted": 5816,
      "boot": 5817,
      "brian": 5818,
      "poison": 5819,
      "goer": 5820,
      "goal": 5821,
      "quin": 5822,
      "quotes": 5823,
      "canad": 5824,
      "spiel": 5825,
      "driven": 5826,
      "draft": 5827,
      "scot": 5828,
      "scout": 5829,
      "timber": 5830,
      "nose": 5831,
      "november": 5832,
      "donors": 5833,
      "coat": 5834,
      "coal": 5835,
      "polling": 5836,
      "string": 5837,
      "auth": 5838,
      "reporters": 5839,
      "attan": 5840,
      "nationwide": 5841,
      "buff": 5842,
      "flint": 5843,
      "supporter": 5844,
      "colate": 5845,
      "collabor": 5846,
      "backyard": 5847,
      "backlash": 5848,
      "carbon": 5849,
      "athlet": 5850,
      "choose": 5851,
      "chocolate": 5852,
      "somewhere": 5853,
      "interrup": 5854,
      "worldwide": 5855,
      "services": 5856,
      "forest": 5857,
      "finished": 5858,
      "greg": 5859,
      "airline": 5860,
      "billions": 5861,
      "parks": 5862,
      "watches": 5863,
      "cert": 5864,
      "lawrence": 5865,
      "mostly": 5866,
      "vised": 5867,
      "courage": 5868,
      "bigger": 5869,
      "curry": 5870,
      "lesson": 5871,
      "azed": 5872,
      "harm": 5873,
      "harris": 5874,
      "seeking": 5875,
      "county": 5876,
      "morris": 5877,
      "johnny": 5878,
      "viewer": 5879,
      "photograph": 5880,
      "ahl": 5881,
      "demographic": 5882,
      "daddy": 5883,
      "sterling": 5884,
      "birds": 5885,
      "evening": 5886,
      "refusing": 5887,
      "compares": 5888,
      "ballot": 5889,
      "defiant": 5890,
      "celebrating": 5891,
      "grandson": 5892,
      "nypd": 5893,
      "bike": 5894,
      "solo": 5895,
      "rises": 5896,
      "freaking": 5897,
      "limit": 5898,
      "homeland": 5899,
      "virus": 5900,
      "twins": 5901,
      "scientist": 5902,
      "scientific": 5903,
      "retired": 5904,
      "producers": 5905,
      "facing": 5906,
      "register": 5907,
      "july": 5908,
      "pede": 5909,
      "communic": 5910,
      "caust": 5911,
      "executives": 5912,
      "stormy": 5913,
      "sites": 5914,
      "earthquake": 5915,
      "dropping": 5916,
      "targets": 5917,
      "exciting": 5918,
      "mindful": 5919,
      "tourist": 5920,
      "terrorists": 5921,
      "install": 5922,
      "pushed": 5923,
      "francisco": 5924,
      "drawer": 5925,
      "struggles": 5926,
      "welcomes": 5927,
      "bags": 5928,
      "expecting": 5929,
      "tracks": 5930,
      "hearts": 5931,
      "motiv": 5932,
      "generations": 5933,
      "emerges": 5934,
      "crackdown": 5935,
      "criticized": 5936,
      "ticket": 5937,
      "rapper": 5938,
      "maker": 5939,
      "basic": 5940,
      "smoking": 5941,
      "prepare": 5942,
      "desperately": 5943,
      "briefly": 5944,
      "capture": 5945,
      "captures": 5946,
      "devast": 5947,
      "stuffed": 5948,
      "location": 5949,
      "levels": 5950,
      "drinks": 5951,
      "liberal": 5952,
      "professional": 5953,
      "hatch": 5954,
      "disgusted": 5955,
      "traditional": 5956,
      "franken": 5957,
      "growth": 5958,
      "considered": 5959,
      "acquires": 5960,
      "ruined": 5961,
      "district": 5962,
      "recently": 5963,
      "influence": 5964,
      "encouraging": 5965,
      "feeding": 5966,
      "politician": 5967,
      "accepts": 5968,
      "tragedy": 5969,
      "eggs": 5970,
      "dishes": 5971,
      "detective": 5972,
      "easier": 5973,
      "hidden": 5974,
      "consumers": 5975,
      "champion": 5976,
      "quarter": 5977,
      "explosion": 5978,
      "advocates": 5979,
      "astronomers": 5980,
      "tools": 5981,
      "affected": 5982,
      "cousin": 5983,
      "deputy": 5984,
      "exhibit": 5985,
      "affleck": 5986,
      "census": 5987,
      "vulner": 5988,
      "nostalgic": 5989,
      "built": 5990,
      "fundraising": 5991,
      "suspicious": 5992,
      "kasich": 5993,
      "archaeologists": 5994,
      "witness": 5995,
      "agenda": 5996,
      "vietnam": 5997,
      "commencement": 5998,
      "muhammad": 5999,
      "galaxy": 6000,
      "determine": 6001,
      "150": 6002,
      "75": 6003,
      "ais": 6004,
      "aul": 6005,
      "avery": 6006,
      "bly": 6007,
      "bitch": 6008,
      "cind": 6009,
      "cass": 6010,
      "dur": 6011,
      "dro": 6012,
      "ee": 6013,
      "eag": 6014,
      "fold": 6015,
      "gent": 6016,
      "gins": 6017,
      "horses": 6018,
      "iat": 6019,
      "ibe": 6020,
      "iate": 6021,
      "jill": 6022,
      "ka": 6023,
      "kins": 6024,
      "kish": 6025,
      "kris": 6026,
      "mers": 6027,
      "mck": 6028,
      "mouse": 6029,
      "pens": 6030,
      "pitt": 6031,
      "padd": 6032,
      "rin": 6033,
      "rivers": 6034,
      "sul": 6035,
      "sant": 6036,
      "slip": 6037,
      "ti": 6038,
      "tick": 6039,
      "tied": 6040,
      "wore": 6041,
      "xon": 6042,
      "xit": 6043,
      "yer": 6044,
      "infr": 6045,
      "initi": 6046,
      "ont": 6047,
      "oner": 6048,
      "tha": 6049,
      "thal": 6050,
      "stunt": 6051,
      "atar": 6052,
      "alle": 6053,
      "alien": 6054,
      "tout": 6055,
      "esp": 6056,
      "isa": 6057,
      "isions": 6058,
      "ita": 6059,
      "leon": 6060,
      "leans": 6061,
      "leep": 6062,
      "leton": 6063,
      "leaked": 6064,
      "lebron": 6065,
      "theat": 6066,
      "chess": 6067,
      "aming": 6068,
      "ambit": 6069,
      "deals": 6070,
      "aced": 6071,
      "trop": 6072,
      "ignation": 6073,
      "shy": 6074,
      "shred": 6075,
      "shuts": 6076,
      "shirts": 6077,
      "oty": 6078,
      "beats": 6079,
      "unarmed": 6080,
      "uncomfortable": 6081,
      "whit": 6082,
      "immer": 6083,
      "iders": 6084,
      "urine": 6085,
      "urged": 6086,
      "oped": 6087,
      "optim": 6088,
      "loon": 6089,
      "lived": 6090,
      "constru": 6091,
      "consequ": 6092,
      "newest": 6093,
      "isters": 6094,
      "agency": 6095,
      "plate": 6096,
      "plug": 6097,
      "rober": 6098,
      "rocks": 6099,
      "roots": 6100,
      "ived": 6101,
      "ivia": 6102,
      "dole": 6103,
      "ounce": 6104,
      "gray": 6105,
      "grim": 6106,
      "grass": 6107,
      "grief": 6108,
      "blan": 6109,
      "blings": 6110,
      "bother": 6111,
      "meant": 6112,
      "awak": 6113,
      "suck": 6114,
      "sured": 6115,
      "dram": 6116,
      "drives": 6117,
      "score": 6118,
      "ella": 6119,
      "donation": 6120,
      "polar": 6121,
      "prefer": 6122,
      "phy": 6123,
      "joan": 6124,
      "jose": 6125,
      "flames": 6126,
      "supposed": 6127,
      "warner": 6128,
      "carn": 6129,
      "carly": 6130,
      "everybody": 6131,
      "evil": 6132,
      "monument": 6133,
      "wayne": 6134,
      "spect": 6135,
      "turkish": 6136,
      "cambridge": 6137,
      "reads": 6138,
      "ogy": 6139,
      "selfie": 6140,
      "staring": 6141,
      "ugly": 6142,
      "uggl": 6143,
      "raised": 6144,
      "remote": 6145,
      "glor": 6146,
      "bars": 6147,
      "kidn": 6148,
      "curb": 6149,
      "smash": 6150,
      "smile": 6151,
      "highlights": 6152,
      "underwear": 6153,
      "gentr": 6154,
      "lasting": 6155,
      "counts": 6156,
      "banana": 6157,
      "videos": 6158,
      "burned": 6159,
      "stealing": 6160,
      "osi": 6161,
      "closing": 6162,
      "contains": 6163,
      "ruins": 6164,
      "contrib": 6165,
      "debates": 6166,
      "breakup": 6167,
      "menu": 6168,
      "patron": 6169,
      "grandpa": 6170,
      "grandparents": 6171,
      "openly": 6172,
      "startup": 6173,
      "classified": 6174,
      "delight": 6175,
      "claiming": 6176,
      "massacre": 6177,
      "foods": 6178,
      "twice": 6179,
      "balloon": 6180,
      "woods": 6181,
      "complex": 6182,
      "salad": 6183,
      "swimm": 6184,
      "audio": 6185,
      "unveil": 6186,
      "faced": 6187,
      "registry": 6188,
      "discovery": 6189,
      "discovering": 6190,
      "streep": 6191,
      "silent": 6192,
      "heroic": 6193,
      "washed": 6194,
      "prisoners": 6195,
      "wheels": 6196,
      "repeat": 6197,
      "wildfire": 6198,
      "apologize": 6199,
      "touts": 6200,
      "robin": 6201,
      "smaller": 6202,
      "paint": 6203,
      "melt": 6204,
      "worthy": 6205,
      "murdered": 6206,
      "windows": 6207,
      "doubt": 6208,
      "depressing": 6209,
      "flynn": 6210,
      "surprises": 6211,
      "sadly": 6212,
      "specif": 6213,
      "suspected": 6214,
      "injury": 6215,
      "impressive": 6216,
      "bankrupt": 6217,
      "honoring": 6218,
      "wasted": 6219,
      "nominations": 6220,
      "civilians": 6221,
      "casually": 6222,
      "briefing": 6223,
      "laptop": 6224,
      "funded": 6225,
      "answers": 6226,
      "models": 6227,
      "deserves": 6228,
      "predict": 6229,
      "90s": 6230,
      "january": 6231,
      "koch": 6232,
      "shrimp": 6233,
      "feminism": 6234,
      "agreement": 6235,
      "existence": 6236,
      "pathy": 6237,
      "acceptance": 6238,
      "palestinians": 6239,
      "21st": 6240,
      "migrant": 6241,
      "praises": 6242,
      "destroyed": 6243,
      "innocent": 6244,
      "encourages": 6245,
      "resolution": 6246,
      "requires": 6247,
      "nervously": 6248,
      "nails": 6249,
      "dorm": 6250,
      "miley": 6251,
      "tempor": 6252,
      "ignore": 6253,
      "clarifies": 6254,
      "tesla": 6255,
      "anthony": 6256,
      "bieber": 6257,
      "grocer": 6258,
      "yellow": 6259,
      "masturbating": 6260,
      "pepper": 6261,
      "housing": 6262,
      "nasty": 6263,
      "pelosi": 6264,
      "chaos": 6265,
      "pilot": 6266,
      "lindsey": 6267,
      "ophobia": 6268,
      "settlement": 6269,
      "fellow": 6270,
      "montana": 6271,
      "sustainable": 6272,
      "nazi": 6273,
      "sheriff": 6274,
      "obviously": 6275,
      "powers": 6276,
      "kendrick": 6277,
      "atlanta": 6278,
      "ordinary": 6279,
      "clerk": 6280,
      "laura": 6281,
      "above": 6282,
      "houston": 6283,
      "negative": 6284,
      "brilliant": 6285,
      "valuable": 6286,
      "stereoty": 6287,
      "grieving": 6288,
      "holocaust": 6289,
      "multiple": 6290,
      "outrage": 6291,
      "canadian": 6292,
      "spielberg": 6293,
      "timberlake": 6294,
      "roberts": 6295,
      ".,": 6296,
      "28": 6297,
      "47": 6298,
      "65": 6299,
      "72": 6300,
      "93": 6301,
      "bip": 6302,
      "bage": 6303,
      "bacter": 6304,
      "caf": 6305,
      "cart": 6306,
      "cere": 6307,
      "cope": 6308,
      "caut": 6309,
      "dil": 6310,
      "dow": 6311,
      "dare": 6312,
      "dip": 6313,
      "eight": 6314,
      "gab": 6315,
      "hm": 6316,
      "hay": 6317,
      "holl": 6318,
      "hale": 6319,
      "ipe": 6320,
      "kur": 6321,
      "lit": 6322,
      "mol": 6323,
      "mum": 6324,
      "mount": 6325,
      "nate": 6326,
      "none": 6327,
      "native": 6328,
      "oke": 6329,
      "oath": 6330,
      "patt": 6331,
      "rio": 6332,
      "rings": 6333,
      "rons": 6334,
      "sport": 6335,
      "sketch": 6336,
      "tt": 6337,
      "tens": 6338,
      "var": 6339,
      "vag": 6340,
      "wings": 6341,
      "infant": 6342,
      "inclus": 6343,
      "include": 6344,
      "rein": 6345,
      "reid": 6346,
      "recess": 6347,
      "anal": 6348,
      "anmar": 6349,
      "onic": 6350,
      "onna": 6351,
      "thus": 6352,
      "orph": 6353,
      "orina": 6354,
      "orleans": 6355,
      "atom": 6356,
      "encing": 6357,
      "ales": 6358,
      "alike": 6359,
      "toe": 6360,
      "esa": 6361,
      "esh": 6362,
      "icit": 6363,
      "asio": 6364,
      "asleep": 6365,
      "chi": 6366,
      "chel": 6367,
      "chart": 6368,
      "chamber": 6369,
      "det": 6370,
      "decre": 6371,
      "deleg": 6372,
      "debut": 6373,
      "accompl": 6374,
      "adding": 6375,
      "shared": 6376,
      "shiel": 6377,
      "undocument": 6378,
      "irma": 6379,
      "abused": 6380,
      "abrams": 6381,
      "opard": 6382,
      "opher": 6383,
      "opposition": 6384,
      "prank": 6385,
      "fran": 6386,
      "wik": 6387,
      "lier": 6388,
      "consecut": 6389,
      "usual": 6390,
      "appoint": 6391,
      "mann": 6392,
      "hew": 6393,
      "pee": 6394,
      "pean": 6395,
      "compete": 6396,
      "aggress": 6397,
      "agues": 6398,
      "exxon": 6399,
      "rocket": 6400,
      "rohing": 6401,
      "emma": 6402,
      "affl": 6403,
      "affer": 6404,
      "obese": 6405,
      "objects": 6406,
      "teor": 6407,
      "clad": 6408,
      "blown": 6409,
      "blake": 6410,
      "blowing": 6411,
      "udes": 6412,
      "pocket": 6413,
      "quiz": 6414,
      "oking": 6415,
      "meteor": 6416,
      "cannon": 6417,
      "herit": 6418,
      "spain": 6419,
      "spice": 6420,
      "sued": 6421,
      "drain": 6422,
      "scary": 6423,
      "scouts": 6424,
      "acted": 6425,
      "core": 6426,
      "bery": 6427,
      "berry": 6428,
      "marath": 6429,
      "display": 6430,
      "strapped": 6431,
      "preh": 6432,
      "preced": 6433,
      "proced": 6434,
      "phar": 6435,
      "myanmar": 6436,
      "josh": 6437,
      "flaw": 6438,
      "coln": 6439,
      "pleads": 6440,
      "ishes": 6441,
      "carl": 6442,
      "events": 6443,
      "evangel": 6444,
      "ette": 6445,
      "sometimes": 6446,
      "tural": 6447,
      "sexism": 6448,
      "meryl": 6449,
      "airplane": 6450,
      "makeover": 6451,
      "bills": 6452,
      "billboard": 6453,
      "realized": 6454,
      "realistic": 6455,
      "empire": 6456,
      "sheer": 6457,
      "desc": 6458,
      "nsa": 6459,
      "accus": 6460,
      "accuses": 6461,
      "letters": 6462,
      "elect": 6463,
      "eleph": 6464,
      "barbar": 6465,
      "wrote": 6466,
      "germany": 6467,
      "northern": 6468,
      "rell": 6469,
      "restore": 6470,
      "steen": 6471,
      "steal": 6472,
      "steak": 6473,
      "osaur": 6474,
      "closes": 6475,
      "firefighter": 6476,
      "happening": 6477,
      "stopped": 6478,
      "belief": 6479,
      "lincoln": 6480,
      "towards": 6481,
      "balls": 6482,
      "decade": 6483,
      "midnight": 6484,
      "patrons": 6485,
      "define": 6486,
      "treme": 6487,
      "fighters": 6488,
      "teaching": 6489,
      "skip": 6490,
      "added": 6491,
      "opened": 6492,
      "efforts": 6493,
      "tested": 6494,
      "classmate": 6495,
      "delays": 6496,
      "autism": 6497,
      "values": 6498,
      "promised": 6499,
      "fallen": 6500,
      "voy": 6501,
      "snake": 6502,
      "fiorina": 6503,
      "swears": 6504,
      "venez": 6505,
      "castle": 6506,
      "recording": 6507,
      "bully": 6508,
      "engaged": 6509,
      "exec": 6510,
      "critical": 6511,
      "appeal": 6512,
      "potato": 6513,
      "riot": 6514,
      "investigating": 6515,
      "ladies": 6516,
      "spots": 6517,
      "spotlight": 6518,
      "inspir": 6519,
      "label": 6520,
      "stole": 6521,
      "tourists": 6522,
      "garner": 6523,
      "garbage": 6524,
      "custody": 6525,
      "concerns": 6526,
      "successfully": 6527,
      "arrives": 6528,
      "satell": 6529,
      "aids": 6530,
      "revealing": 6531,
      "privacy": 6532,
      "jerusal": 6533,
      "interesting": 6534,
      "tickets": 6535,
      "reviews": 6536,
      "emotion": 6537,
      "mistake": 6538,
      "hilariously": 6539,
      "fantas": 6540,
      "devil": 6541,
      "blasted": 6542,
      "stressed": 6543,
      "uela": 6544,
      "louisiana": 6545,
      "soldiers": 6546,
      "graduation": 6547,
      "constitu": 6548,
      "troubling": 6549,
      "jumps": 6550,
      "farmers": 6551,
      "pacific": 6552,
      "tradition": 6553,
      "attendant": 6554,
      "legislat": 6555,
      "smartphone": 6556,
      "confirmation": 6557,
      "floods": 6558,
      "maintain": 6559,
      "responsibility": 6560,
      "jailed": 6561,
      "tampon": 6562,
      "origin": 6563,
      "resolutions": 6564,
      "indiana": 6565,
      "european": 6566,
      "mourns": 6567,
      "aliens": 6568,
      "suffering": 6569,
      "involved": 6570,
      "physical": 6571,
      "nelson": 6572,
      "katy": 6573,
      "tearful": 6574,
      "compliment": 6575,
      "weighs": 6576,
      "canceled": 6577,
      "village": 6578,
      "maryland": 6579,
      "disabilities": 6580,
      "spanish": 6581,
      "houses": 6582,
      "detained": 6583,
      "siblings": 6584,
      "vaccine": 6585,
      "collapse": 6586,
      "experiences": 6587,
      "wheelchair": 6588,
      "cigarette": 6589,
      "cigarettes": 6590,
      "widow": 6591,
      "association": 6592,
      "material": 6593,
      "tragic": 6594,
      "whispers": 6595,
      "exploring": 6596,
      "sparks": 6597,
      "khloe": 6598,
      "excuse": 6599,
      "bastard": 6600,
      "populace": 6601,
      "library": 6602,
      "attendees": 6603,
      "scrambling": 6604,
      "phase": 6605,
      "sauce": 6606,
      "buffet": 6607,
      "neutrality": 6608,
      "throat": 6609,
      "stomach": 6610,
      "initiative": 6611,
      "grocery": 6612,
      "undocumented": 6613,
      "consecutive": 6614,
      "rohingya": 6615,
      "venezuela": 6616,
      "jerusalem": 6617,
      ".-": 6618,
      "800": 6619,
      "911": 6620,
      "aer": 6621,
      "austin": 6622,
      "bone": 6623,
      "bite": 6624,
      "bought": 6625,
      "cob": 6626,
      "cable": 6627,
      "clist": 6628,
      "dod": 6629,
      "dial": 6630,
      "dame": 6631,
      "dough": 6632,
      "dict": 6633,
      "dreading": 6634,
      "daca": 6635,
      "ets": 6636,
      "emo": 6637,
      "eath": 6638,
      "fence": 6639,
      "fits": 6640,
      "fiction": 6641,
      "gill": 6642,
      "gary": 6643,
      "gina": 6644,
      "hire": 6645,
      "ij": 6646,
      "iac": 6647,
      "ipl": 6648,
      "kae": 6649,
      "lays": 6650,
      "lame": 6651,
      "luc": 6652,
      "npr": 6653,
      "nik": 6654,
      "oval": 6655,
      "pto": 6656,
      "pals": 6657,
      "panda": 6658,
      "rou": 6659,
      "rage": 6660,
      "rowing": 6661,
      "rallies": 6662,
      "sis": 6663,
      "sigh": 6664,
      "scan": 6665,
      "sach": 6666,
      "sail": 6667,
      "sits": 6668,
      "soft": 6669,
      "tz": 6670,
      "tie": 6671,
      "tight": 6672,
      "vow": 6673,
      "vine": 6674,
      "wer": 6675,
      "wick": 6676,
      "wendy": 6677,
      "zing": 6678,
      "inf": 6679,
      "inch": 6680,
      "inated": 6681,
      "reck": 6682,
      "remake": 6683,
      "revel": 6684,
      "rehab": 6685,
      "rejects": 6686,
      "repair": 6687,
      "anist": 6688,
      "anthr": 6689,
      "stum": 6690,
      "stamp": 6691,
      "staffer": 6692,
      "orn": 6693,
      "orous": 6694,
      "entry": 6695,
      "enforce": 6696,
      "enthus": 6697,
      "alarm": 6698,
      "esity": 6699,
      "oul": 6700,
      "edi": 6701,
      "itim": 6702,
      "itating": 6703,
      "leak": 6704,
      "leather": 6705,
      "leston": 6706,
      "icop": 6707,
      "often": 6708,
      "thew": 6709,
      "asia": 6710,
      "aman": 6711,
      "deem": 6712,
      "dems": 6713,
      "depot": 6714,
      "deportation": 6715,
      "seats": 6716,
      "olit": 6717,
      "forcing": 6718,
      "trillion": 6719,
      "aying": 6720,
      "elabor": 6721,
      "enty": 6722,
      "andering": 6723,
      "neo": 6724,
      "neth": 6725,
      "negle": 6726,
      "shor": 6727,
      "shing": 6728,
      "shout": 6729,
      "beck": 6730,
      "beard": 6731,
      "und": 6732,
      "unclear": 6733,
      "uries": 6734,
      "irish": 6735,
      "abroad": 6736,
      "abusive": 6737,
      "prie": 6738,
      "prices": 6739,
      "loan": 6740,
      "loom": 6741,
      "lover": 6742,
      "wiz": 6743,
      "wiel": 6744,
      "liv": 6745,
      "lips": 6746,
      "liament": 6747,
      "mock": 6748,
      "mosqu": 6749,
      "mocking": 6750,
      "convict": 6751,
      "reser": 6752,
      "resort": 6753,
      "apo": 6754,
      "hem": 6755,
      "heck": 6756,
      "healing": 6757,
      "ula": 6758,
      "ulate": 6759,
      "ulting": 6760,
      "ultra": 6761,
      "compreh": 6762,
      "uters": 6763,
      "agen": 6764,
      "agger": 6765,
      "pless": 6766,
      "excell": 6767,
      "extreme": 6768,
      "acknow": 6769,
      "rover": 6770,
      "crown": 6771,
      "porno": 6772,
      "artisan": 6773,
      "doj": 6774,
      "ounts": 6775,
      "object": 6776,
      "obesity": 6777,
      "astru": 6778,
      "anton": 6779,
      "inder": 6780,
      "indic": 6781,
      "bris": 6782,
      "brow": 6783,
      "haven": 6784,
      "quir": 6785,
      "quits": 6786,
      "mentions": 6787,
      "canc": 6788,
      "spy": 6789,
      "spouse": 6790,
      "ouri": 6791,
      "notes": 6792,
      "aved": 6793,
      "scared": 6794,
      "pernick": 6795,
      "coin": 6796,
      "marsh": 6797,
      "creation": 6798,
      "hash": 6799,
      "ause": 6800,
      "guant": 6801,
      "icking": 6802,
      "nations": 6803,
      "supp": 6804,
      "colom": 6805,
      "column": 6806,
      "sells": 6807,
      "pleased": 6808,
      "caring": 6809,
      "waters": 6810,
      "breathing": 6811,
      "brexit": 6812,
      "monitor": 6813,
      "serena": 6814,
      "merger": 6815,
      "merkel": 6816,
      "camps": 6817,
      "reader": 6818,
      "readers": 6819,
      "helicop": 6820,
      "seniors": 6821,
      "surface": 6822,
      "parliament": 6823,
      "starving": 6824,
      "caly": 6825,
      "shoe": 6826,
      "slain": 6827,
      "jewel": 6828,
      "jews": 6829,
      "elev": 6830,
      "2012": 6831,
      "wrapped": 6832,
      "curious": 6833,
      "curtain": 6834,
      "charlot": 6835,
      "charlie": 6836,
      "charleston": 6837,
      "anced": 6838,
      "carey": 6839,
      "carefully": 6840,
      "heading": 6841,
      "headline": 6842,
      "missouri": 6843,
      "relations": 6844,
      "cutting": 6845,
      "gene": 6846,
      "genoc": 6847,
      "weekly": 6848,
      "morgan": 6849,
      "transforms": 6850,
      "christopher": 6851,
      "clooney": 6852,
      "closure": 6853,
      "pony": 6854,
      "rub": 6855,
      "deny": 6856,
      "breakthrough": 6857,
      "colleagues": 6858,
      "attacking": 6859,
      "democrat": 6860,
      "powered": 6861,
      "hugh": 6862,
      "midterms": 6863,
      "patrol": 6864,
      "cuff": 6865,
      "treated": 6866,
      "ski": 6867,
      "russians": 6868,
      "risks": 6869,
      "limits": 6870,
      "standard": 6871,
      "signing": 6872,
      "businessman": 6873,
      "posit": 6874,
      "beneath": 6875,
      "expans": 6876,
      "balance": 6877,
      "filming": 6878,
      "greater": 6879,
      "swing": 6880,
      "nonsense": 6881,
      "bullet": 6882,
      "dinosaur": 6883,
      "june": 6884,
      "appeals": 6885,
      "writes": 6886,
      "costumes": 6887,
      "rihann": 6888,
      "sched": 6889,
      "kinder": 6890,
      "horrific": 6891,
      "subject": 6892,
      "damon": 6893,
      "rupaul": 6894,
      "halfway": 6895,
      "wildly": 6896,
      "garage": 6897,
      "ception": 6898,
      "sunglasses": 6899,
      "pushing": 6900,
      "systems": 6901,
      "nament": 6902,
      "diam": 6903,
      "turnout": 6904,
      "triple": 6905,
      "approved": 6906,
      "bites": 6907,
      "penal": 6908,
      "conversations": 6909,
      "constant": 6910,
      "designed": 6911,
      "arrests": 6912,
      "drunken": 6913,
      "spokes": 6914,
      "expectations": 6915,
      "lonely": 6916,
      "cooler": 6917,
      "2008": 6918,
      "interested": 6919,
      "invited": 6920,
      "beyonce": 6921,
      "rapidly": 6922,
      "makers": 6923,
      "stunned": 6924,
      "eaten": 6925,
      "lobster": 6926,
      "conservation": 6927,
      "cups": 6928,
      "fatal": 6929,
      "nominated": 6930,
      "kellyanne": 6931,
      "crossing": 6932,
      "itos": 6933,
      "memories": 6934,
      "salesman": 6935,
      "heavy": 6936,
      "shelf": 6937,
      "corporation": 6938,
      "graduate": 6939,
      "cript": 6940,
      "greek": 6941,
      "incredibly": 6942,
      "constitutional": 6943,
      "hobby": 6944,
      "weapon": 6945,
      "mixed": 6946,
      "symbol": 6947,
      "absence": 6948,
      "sandwiches": 6949,
      "awkwardly": 6950,
      "hanging": 6951,
      "streaming": 6952,
      "obsession": 6953,
      "cludes": 6954,
      "revival": 6955,
      "laser": 6956,
      "require": 6957,
      "accepting": 6958,
      "competent": 6959,
      "brady": 6960,
      "involves": 6961,
      "thompson": 6962,
      "temper": 6963,
      "ignores": 6964,
      "cdc": 6965,
      "performing": 6966,
      "hiding": 6967,
      "instructor": 6968,
      "updated": 6969,
      "bacheloret": 6970,
      "farewell": 6971,
      "restrictions": 6972,
      "separate": 6973,
      "pumpkin": 6974,
      "demonstr": 6975,
      "includes": 6976,
      "replacement": 6977,
      "sneak": 6978,
      "treasury": 6979,
      "folks": 6980,
      "tennis": 6981,
      "ridiculous": 6982,
      "occup": 6983,
      "convinced": 6984,
      "complicated": 6985,
      "individual": 6986,
      "revenge": 6987,
      "preparing": 6988,
      "mortgage": 6989,
      "nutrition": 6990,
      "kristen": 6991,
      "scholar": 6992,
      "alaska": 6993,
      "certific": 6994,
      "vulnerable": 6995,
      "aisle": 6996,
      "infrastru": 6997,
      "swimming": 6998,
      "specifically": 6999,
      "bacteria": 7000,
      "café": 7001,
      "chelsea": 7002,
      "accusations": 7003,
      "kaepernick": 7004,
      "enthusi": 7005,
      "helicopter": 7006,
      "charlotte": 7007,
      "rihanna": 7008,
      "bachelorette": 7009,
      "infrastructure": 7010,
      "31": 7011,
      "4th": 7012,
      "96": 7013,
      "bb": 7014,
      "bach": 7015,
      "bure": 7016,
      "bands": 7017,
      "bitter": 7018,
      "cz": 7019,
      "cate": 7020,
      "cage": 7021,
      "cave": 7022,
      "cult": 7023,
      "ckey": 7024,
      "dess": 7025,
      "dive": 7026,
      "dates": 7027,
      "dale": 7028,
      "danny": 7029,
      "fto": 7030,
      "faster": 7031,
      "fond": 7032,
      "gart": 7033,
      "gger": 7034,
      "gains": 7035,
      "ghaz": 7036,
      "hb": 7037,
      "hl": 7038,
      "hr": 7039,
      "honey": 7040,
      "iqu": 7041,
      "iated": 7042,
      "jac": 7043,
      "jane": 7044,
      "jedi": 7045,
      "kits": 7046,
      "kicks": 7047,
      "lago": 7048,
      "lisa": 7049,
      "mn": 7050,
      "mud": 7051,
      "maps": 7052,
      "maine": 7053,
      "nd": 7054,
      "nis": 7055,
      "nown": 7056,
      "nixon": 7057,
      "och": 7058,
      "pam": 7059,
      "pts": 7060,
      "pud": 7061,
      "pier": 7062,
      "pink": 7063,
      "rhe": 7064,
      "rail": 7065,
      "rib": 7066,
      "rics": 7067,
      "rural": 7068,
      "sno": 7069,
      "tel": 7070,
      "twin": 7071,
      "uals": 7072,
      "vy": 7073,
      "vlad": 7074,
      "vandal": 7075,
      "vada": 7076,
      "wwi": 7077,
      "wack": 7078,
      "waving": 7079,
      "xx": 7080,
      "yel": 7081,
      "zos": 7082,
      "info": 7083,
      "intim": 7084,
      "reward": 7085,
      "reunited": 7086,
      "removed": 7087,
      "reboot": 7088,
      "anes": 7089,
      "oning": 7090,
      "stev": 7091,
      "ora": 7092,
      "oral": 7093,
      "ingred": 7094,
      "eness": 7095,
      "enroll": 7096,
      "alp": 7097,
      "alt": 7098,
      "alter": 7099,
      "alous": 7100,
      "algor": 7101,
      "edwards": 7102,
      "itarian": 7103,
      "lem": 7104,
      "lean": 7105,
      "lemon": 7106,
      "lefto": 7107,
      "ician": 7108,
      "chim": 7109,
      "chop": 7110,
      "chili": 7111,
      "defe": 7112,
      "declin": 7113,
      "device": 7114,
      "aces": 7115,
      "semit": 7116,
      "oldest": 7117,
      "forgive": 7118,
      "trig": 7119,
      "entering": 7120,
      "andy": 7121,
      "adjust": 7122,
      "nevada": 7123,
      "lyrics": 7124,
      "shakes": 7125,
      "shore": 7126,
      "otle": 7127,
      "betray": 7128,
      "bezos": 7129,
      "uncertain": 7130,
      "veh": 7131,
      "whist": 7132,
      "whites": 7133,
      "geo": 7134,
      "geting": 7135,
      "imir": 7136,
      "umed": 7137,
      "illustr": 7138,
      "logo": 7139,
      "locks": 7140,
      "liqu": 7141,
      "liance": 7142,
      "libert": 7143,
      "conway": 7144,
      "confront": 7145,
      "convince": 7146,
      "concludes": 7147,
      "resignation": 7148,
      "management": 7149,
      "heal": 7150,
      "hears": 7151,
      "newt": 7152,
      "uls": 7153,
      "feared": 7154,
      "comb": 7155,
      "commo": 7156,
      "comics": 7157,
      "combat": 7158,
      "utes": 7159,
      "agers": 7160,
      "agric": 7161,
      "extr": 7162,
      "exposes": 7163,
      "emor": 7164,
      "embrace": 7165,
      "ivals": 7166,
      "ounces": 7167,
      "obit": 7168,
      "grif": 7169,
      "graff": 7170,
      "grotes": 7171,
      "teases": 7172,
      "clue": 7173,
      "overcome": 7174,
      "booth": 7175,
      "asser": 7176,
      "assed": 7177,
      "poet": 7178,
      "offs": 7179,
      "afterno": 7180,
      "spark": 7181,
      "spills": 7182,
      "sures": 7183,
      "suff": 7184,
      "subur": 7185,
      "owning": 7186,
      "notre": 7187,
      "scul": 7188,
      "elling": 7189,
      "donates": 7190,
      "donated": 7191,
      "donuts": 7192,
      "permission": 7193,
      "mario": 7194,
      "disput": 7195,
      "displays": 7196,
      "crete": 7197,
      "creators": 7198,
      "strang": 7199,
      "struck": 7200,
      "iano": 7201,
      "prejud": 7202,
      "guin": 7203,
      "soap": 7204,
      "bucket": 7205,
      "flower": 7206,
      "flights": 7207,
      "supports": 7208,
      "colog": 7209,
      "seless": 7210,
      "selena": 7211,
      "inson": 7212,
      "everyday": 7213,
      "brett": 7214,
      "lifestyle": 7215,
      "anywhere": 7216,
      "apps": 7217,
      "mons": 7218,
      "medica": 7219,
      "turing": 7220,
      "cory": 7221,
      "corpse": 7222,
      "legitim": 7223,
      "presidents": 7224,
      "cleans": 7225,
      "rais": 7226,
      "publicist": 7227,
      "slavery": 7228,
      "accusers": 7229,
      "accounts": 7230,
      "booker": 7231,
      "jealous": 7232,
      "woody": 7233,
      "lett": 7234,
      "element": 7235,
      "elector": 7236,
      "commemor": 7237,
      "barrel": 7238,
      "checked": 7239,
      "cheaper": 7240,
      "statements": 7241,
      "lessly": 7242,
      "harsh": 7243,
      "missions": 7244,
      "10th": 7245,
      "microw": 7246,
      "burton": 7247,
      "buried": 7248,
      "burden": 7249,
      "bursts": 7250,
      "oses": 7251,
      "clothing": 7252,
      "ships": 7253,
      "ption": 7254,
      "listing": 7255,
      "cyn": 7256,
      "cites": 7257,
      "leslie": 7258,
      "walmart": 7259,
      "compared": 7260,
      "fucked": 7261,
      "treating": 7262,
      "skull": 7263,
      "bias": 7264,
      "hotels": 7265,
      "superhero": 7266,
      "delta": 7267,
      "direction": 7268,
      "holder": 7269,
      "protesting": 7270,
      "standards": 7271,
      "promote": 7272,
      "signature": 7273,
      "seasons": 7274,
      "pretend": 7275,
      "soup": 7276,
      "southern": 7277,
      "benghaz": 7278,
      "virt": 7279,
      "increased": 7280,
      "sums": 7281,
      "judges": 7282,
      "panics": 7283,
      "unknown": 7284,
      "salt": 7285,
      "salmon": 7286,
      "slept": 7287,
      "murray": 7288,
      "murphy": 7289,
      "sweating": 7290,
      "pulitzer": 7291,
      "produce": 7292,
      "producer": 7293,
      "feds": 7294,
      "nonprofit": 7295,
      "region": 7296,
      "fortune": 7297,
      "believ": 7298,
      "silicon": 7299,
      "styles": 7300,
      "visitors": 7301,
      "floating": 7302,
      "investigate": 7303,
      "larger": 7304,
      "sitcom": 7305,
      "globe": 7306,
      "inspire": 7307,
      "prisoner": 7308,
      "goldman": 7309,
      "ikh": 7310,
      "explaining": 7311,
      "minded": 7312,
      "obamas": 7313,
      "divided": 7314,
      "possess": 7315,
      "possibly": 7316,
      "concern": 7317,
      "dude": 7318,
      "dresses": 7319,
      "flies": 7320,
      "historians": 7321,
      "activity": 7322,
      "madness": 7323,
      "roads": 7324,
      "bowie": 7325,
      "binge": 7326,
      "checking": 7327,
      "ithm": 7328,
      "sanct": 7329,
      "traits": 7330,
      "surprisingly": 7331,
      "package": 7332,
      "picked": 7333,
      "scrat": 7334,
      "welfare": 7335,
      "privile": 7336,
      "battles": 7337,
      "motion": 7338,
      "interests": 7339,
      "addresses": 7340,
      "emerge": 7341,
      "luke": 7342,
      "cookie": 7343,
      "prepared": 7344,
      "purpose": 7345,
      "shirtless": 7346,
      "casino": 7347,
      "fishing": 7348,
      "captured": 7349,
      "springsteen": 7350,
      "purchasing": 7351,
      "connect": 7352,
      "directors": 7353,
      "development": 7354,
      "iii": 7355,
      "lynch": 7356,
      "kicked": 7357,
      "definition": 7358,
      "liberals": 7359,
      "distance": 7360,
      "attraction": 7361,
      "predator": 7362,
      "broadcast": 7363,
      "troubled": 7364,
      "strongly": 7365,
      "rushes": 7366,
      "wisdom": 7367,
      "lifts": 7368,
      "lifting": 7369,
      "ruining": 7370,
      "flooding": 7371,
      "mainstream": 7372,
      "highest": 7373,
      "opinions": 7374,
      "competition": 7375,
      "legendary": 7376,
      "measure": 7377,
      "crushing": 7378,
      "trends": 7379,
      "editorial": 7380,
      "recovering": 7381,
      "sequel": 7382,
      "panicking": 7383,
      "easily": 7384,
      "deceased": 7385,
      "considers": 7386,
      "spiritual": 7387,
      "pipe": 7388,
      "requests": 7389,
      "attered": 7390,
      "russell": 7391,
      "wealthy": 7392,
      "supremacy": 7393,
      "ratings": 7394,
      "skeleton": 7395,
      "ophobic": 7396,
      "collapses": 7397,
      "hinged": 7398,
      "gratitude": 7399,
      "humiliating": 7400,
      "promotion": 7401,
      "cameron": 7402,
      "citizenship": 7403,
      "chipotle": 7404,
      "crawling": 7405,
      "myths": 7406,
      "swimsuit": 7407,
      "opponent": 7408,
      "tornado": 7409,
      "dolphins": 7410,
      "erupts": 7411,
      "libya": 7412,
      "volunteer": 7413,
      "pompe": 7414,
      "genetic": 7415,
      "punishment": 7416,
      "mlb": 7417,
      "nabis": 7418,
      "impeach": 7419,
      "bleeding": 7420,
      "script": 7421,
      "narrowly": 7422,
      "bishop": 7423,
      "rhino": 7424,
      "athletes": 7425,
      "interrupted": 7426,
      "espn": 7427,
      "accomplish": 7428,
      "appointment": 7429,
      "procedure": 7430,
      "barbara": 7431,
      "aniston": 7432,
      "deemed": 7433,
      "priebus": 7434,
      "cancels": 7435,
      "hashtag": 7436,
      "genocide": 7437,
      "kindergart": 7438,
      "vladimir": 7439,
      "algorithm": 7440,
      "whistle": 7441,
      "agriculture": 7442,
      "afternoon": 7443,
      "medicaid": 7444,
      "benghazi": 7445,
      "250": 7446,
      "33": 7447,
      "36": 7448,
      "76": 7449,
      "92": 7450,
      "95": 7451,
      "bail": 7452,
      "cant": 7453,
      "cott": 7454,
      "dj": 7455,
      "dit": 7456,
      "dign": 7457,
      "daring": 7458,
      "dica": 7459,
      "dirt": 7460,
      "dustin": 7461,
      "dhs": 7462,
      "fum": 7463,
      "file": 7464,
      "fizer": 7465,
      "gm": 7466,
      "gel": 7467,
      "gad": 7468,
      "gut": 7469,
      "gob": 7470,
      "gav": 7471,
      "gently": 7472,
      "hul": 7473,
      "hound": 7474,
      "hitch": 7475,
      "hired": 7476,
      "hedge": 7477,
      "jar": 7478,
      "jur": 7479,
      "kour": 7480,
      "kong": 7481,
      "kara": 7482,
      "len": 7483,
      "lough": 7484,
      "mama": 7485,
      "mtv": 7486,
      "ni": 7487,
      "nine": 7488,
      "nash": 7489,
      "ov": 7490,
      "ores": 7491,
      "pp": 7492,
      "pir": 7493,
      "paw": 7494,
      "panc": 7495,
      "pfizer": 7496,
      "qatar": 7497,
      "rd": 7498,
      "rack": 7499,
      "rated": 7500,
      "rug": 7501,
      "sx": 7502,
      "sir": 7503,
      "slo": 7504,
      "swed": 7505,
      "sides": 7506,
      "sided": 7507,
      "sfeld": 7508,
      "sisters": 7509,
      "sikh": 7510,
      "tts": 7511,
      "tina": 7512,
      "tai": 7513,
      "taps": 7514,
      "tension": 7515,
      "ub": 7516,
      "unear": 7517,
      "vig": 7518,
      "wan": 7519,
      "wen": 7520,
      "witch": 7521,
      "xbox": 7522,
      "zin": 7523,
      "inse": 7524,
      "infl": 7525,
      "infin": 7526,
      "refr": 7527,
      "react": 7528,
      "recap": 7529,
      "reput": 7530,
      "redem": 7531,
      "retro": 7532,
      "removing": 7533,
      "reforms": 7534,
      "ante": 7535,
      "thur": 7536,
      "stack": 7537,
      "stro": 7538,
      "stairs": 7539,
      "atures": 7540,
      "ene": 7541,
      "encounter": 7542,
      "ala": 7543,
      "alep": 7544,
      "alton": 7545,
      "toast": 7546,
      "arity": 7547,
      "arpa": 7548,
      "arna": 7549,
      "essee": 7550,
      "eddie": 7551,
      "edited": 7552,
      "item": 7553,
      "lewis": 7554,
      "chanc": 7555,
      "amo": 7556,
      "deer": 7557,
      "dean": 7558,
      "deck": 7559,
      "dept": 7560,
      "degree": 7561,
      "acp": 7562,
      "aclu": 7563,
      "sein": 7564,
      "sears": 7565,
      "trap": 7566,
      "trips": 7567,
      "tricks": 7568,
      "ental": 7569,
      "adults": 7570,
      "nep": 7571,
      "shi": 7572,
      "shak": 7573,
      "shits": 7574,
      "shaken": 7575,
      "behold": 7576,
      "unle": 7577,
      "unite": 7578,
      "unions": 7579,
      "uncover": 7580,
      "unpopular": 7581,
      "unhinged": 7582,
      "vet": 7583,
      "veto": 7584,
      "imper": 7585,
      "imperson": 7586,
      "impul": 7587,
      "idge": 7588,
      "iro": 7589,
      "tering": 7590,
      "opolit": 7591,
      "verted": 7592,
      "prio": 7593,
      "prior": 7594,
      "tsarna": 7595,
      "loop": 7596,
      "loans": 7597,
      "frag": 7598,
      "frog": 7599,
      "frost": 7600,
      "liver": 7601,
      "mocks": 7602,
      "mocked": 7603,
      "mosque": 7604,
      "conan": 7605,
      "concrete": 7606,
      "resur": 7607,
      "resour": 7608,
      "ussy": 7609,
      "usda": 7610,
      "hems": 7611,
      "umption": 7612,
      "peers": 7613,
      "fema": 7614,
      "expo": 7615,
      "rook": 7616,
      "ember": 7617,
      "craf": 7618,
      "cries": 7619,
      "crunch": 7620,
      "cribe": 7621,
      "portraits": 7622,
      "ained": 7623,
      "ansari": 7624,
      "theresa": 7625,
      "groping": 7626,
      "grande": 7627,
      "teaser": 7628,
      "cla": 7629,
      "clam": 7630,
      "clown": 7631,
      "blues": 7632,
      "industr": 7633,
      "boomers": 7634,
      "assured": 7635,
      "poon": 7636,
      "ardino": 7637,
      "offended": 7638,
      "aftermath": 7639,
      "metoo": 7640,
      "cano": 7641,
      "hern": 7642,
      "suits": 7643,
      "sugar": 7644,
      "drilling": 7645,
      "foss": 7646,
      "foster": 7647,
      "izers": 7648,
      "scare": 7649,
      "scape": 7650,
      "actic": 7651,
      "ellor": 7652,
      "donut": 7653,
      "coc": 7654,
      "cole": 7655,
      "cosm": 7656,
      "coaster": 7657,
      "justices": 7658,
      "justify": 7659,
      "disclose": 7660,
      "whatso": 7661,
      "stron": 7662,
      "achuse": 7663,
      "reporting": 7664,
      "attending": 7665,
      "attached": 7666,
      "pros": 7667,
      "estim": 7668,
      "puzz": 7669,
      "myself": 7670,
      "kingdom": 7671,
      "annually": 7672,
      "ignoring": 7673,
      "bubble": 7674,
      "joint": 7675,
      "types": 7676,
      "studies": 7677,
      "backpack": 7678,
      "carr": 7679,
      "eva": 7680,
      "breach": 7681,
      "breathe": 7682,
      "monop": 7683,
      "monolo": 7684,
      "medal": 7685,
      "showed": 7686,
      "turtle": 7687,
      "cord": 7688,
      "serve": 7689,
      "finance": 7690,
      "sony": 7691,
      "greens": 7692,
      "talent": 7693,
      "published": 7694,
      "paraly": 7695,
      "clever": 7696,
      "killings": 7697,
      "rae": 7698,
      "raham": 7699,
      "shock": 7700,
      "otherwise": 7701,
      "glam": 7702,
      "accuser": 7703,
      "visual": 7704,
      "jeopard": 7705,
      "baron": 7706,
      "bigot": 7707,
      "chew": 7708,
      "planes": 7709,
      "highlight": 7710,
      "aziz": 7711,
      "harrowing": 7712,
      "beings": 7713,
      "roommates": 7714,
      "mortal": 7715,
      "fireworks": 7716,
      "firefighters": 7717,
      "contem": 7718,
      "broker": 7719,
      "ruth": 7720,
      "earn": 7721,
      "earlier": 7722,
      "denny": 7723,
      "filib": 7724,
      "intend": 7725,
      "intense": 7726,
      "borne": 7727,
      "archy": 7728,
      "archite": 7729,
      "passage": 7730,
      "landing": 7731,
      "cyclist": 7732,
      "citing": 7733,
      "wallet": 7734,
      "walgreens": 7735,
      "powerball": 7736,
      "decisions": 7737,
      "crude": 7738,
      "fucker": 7739,
      "laun": 7740,
      "sandy": 7741,
      "patch": 7742,
      "deficit": 7743,
      "cuban": 7744,
      "gyn": 7745,
      "trees": 7746,
      "blocking": 7747,
      "consult": 7748,
      "addict": 7749,
      "badass": 7750,
      "pollution": 7751,
      "testify": 7752,
      "sexuality": 7753,
      "classmates": 7754,
      "dell": 7755,
      "matthew": 7756,
      "hamas": 7757,
      "protester": 7758,
      "limb": 7759,
      "limited": 7760,
      "threw": 7761,
      "learns": 7762,
      "massachuse": 7763,
      "heartwarming": 7764,
      "souls": 7765,
      "yorkers": 7766,
      "bench": 7767,
      "snaps": 7768,
      "criminals": 7769,
      "investment": 7770,
      "caucus": 7771,
      "panther": 7772,
      "wooden": 7773,
      "returned": 7774,
      "sweater": 7775,
      "aneously": 7776,
      "profits": 7777,
      "races": 7778,
      "boarding": 7779,
      "castro": 7780,
      "juice": 7781,
      "julian": 7782,
      "wells": 7783,
      "boxes": 7784,
      "pastor": 7785,
      "hung": 7786,
      "hunter": 7787,
      "rito": 7788,
      "arkansas": 7789,
      "romantic": 7790,
      "rowling": 7791,
      "shopper": 7792,
      "rocky": 7793,
      "diesel": 7794,
      "huffington": 7795,
      "targeting": 7796,
      "excitedly": 7797,
      "protection": 7798,
      "wildfires": 7799,
      "tournament": 7800,
      "garland": 7801,
      "martial": 7802,
      "kenya": 7803,
      "survival": 7804,
      "militants": 7805,
      "builds": 7806,
      "naacp": 7807,
      "sidewalk": 7808,
      "extended": 7809,
      "hairstyle": 7810,
      "restaurants": 7811,
      "jacket": 7812,
      "melissa": 7813,
      "fewer": 7814,
      "dynam": 7815,
      "madonna": 7816,
      "cardboard": 7817,
      "receiving": 7818,
      "satan": 7819,
      "toric": 7820,
      "interviews": 7821,
      "occur": 7822,
      "sanctions": 7823,
      "packed": 7824,
      "equally": 7825,
      "operator": 7826,
      "angela": 7827,
      "squir": 7828,
      "usher": 7829,
      "greenspan": 7830,
      "filling": 7831,
      "lux": 7832,
      "mattress": 7833,
      "injuries": 7834,
      "deplo": 7835,
      "barrier": 7836,
      "smoke": 7837,
      "stuns": 7838,
      "presentation": 7839,
      "batman": 7840,
      "wasting": 7841,
      "scenes": 7842,
      "savings": 7843,
      "machines": 7844,
      "moderator": 7845,
      "banning": 7846,
      "toddlers": 7847,
      "ariana": 7848,
      "decline": 7849,
      "proudly": 7850,
      "bobby": 7851,
      "hacks": 7852,
      "connected": 7853,
      "saudis": 7854,
      "develops": 7855,
      "locates": 7856,
      "shelves": 7857,
      "corporations": 7858,
      "distant": 7859,
      "august": 7860,
      "hanks": 7861,
      "offered": 7862,
      "flags": 7863,
      "anxious": 7864,
      "joined": 7865,
      "acquaint": 7866,
      "prayer": 7867,
      "nominees": 7868,
      "accountable": 7869,
      "gymnast": 7870,
      "solutions": 7871,
      "rainbow": 7872,
      "innov": 7873,
      "solemn": 7874,
      "cultural": 7875,
      "accepted": 7876,
      "explore": 7877,
      "podium": 7878,
      "anticip": 7879,
      "measles": 7880,
      "container": 7881,
      "doritos": 7882,
      "rumors": 7883,
      "rumsfeld": 7884,
      "shifts": 7885,
      "millennial": 7886,
      "knock": 7887,
      "braces": 7888,
      "kissing": 7889,
      "advertis": 7890,
      "loaded": 7891,
      "gallery": 7892,
      "referred": 7893,
      "motorcycle": 7894,
      "alcoholic": 7895,
      "rodrig": 7896,
      "astronaut": 7897,
      "safely": 7898,
      "advant": 7899,
      "advance": 7900,
      "faa": 7901,
      "fault": 7902,
      "waits": 7903,
      "molest": 7904,
      "sneaks": 7905,
      "stamps": 7906,
      "selection": 7907,
      "obvious": 7908,
      "bernardino": 7909,
      "bartender": 7910,
      "cliff": 7911,
      "properly": 7912,
      "loyalty": 7913,
      "egyptian": 7914,
      "nunes": 7915,
      "ritual": 7916,
      "tennessee": 7917,
      "mobile": 7918,
      "emmys": 7919,
      "victoria": 7920,
      "seventh": 7921,
      "opponents": 7922,
      "precious": 7923,
      "dolphin": 7924,
      "homosexuality": 7925,
      "wrestling": 7926,
      "chester": 7927,
      "embracing": 7928,
      "focused": 7929,
      "mariah": 7930,
      "ceasefire": 7931,
      "manufactur": 7932,
      "settling": 7933,
      "pardon": 7934,
      "wounded": 7935,
      "stabbing": 7936,
      "overwhelming": 7937,
      "preserve": 7938,
      "accurate": 7939,
      "bloomberg": 7940,
      "solidarity": 7941,
      "aaron": 7942,
      "hudson": 7943,
      "knee": 7944,
      "sabot": 7945,
      "stitute": 7946,
      "princip": 7947,
      "supremacist": 7948,
      "establishment": 7949,
      "appropriate": 7950,
      "diabet": 7951,
      "mindfulness": 7952,
      "paddle": 7953,
      "consequences": 7954,
      "dramatic": 7955,
      "gentrification": 7956,
      "bipartisan": 7957,
      "hollow": 7958,
      "tensions": 7959,
      "vagina": 7960,
      "heritage": 7961,
      "marathon": 7962,
      "evangelical": 7963,
      "satellite": 7964,
      "dialo": 7965,
      "sachs": 7966,
      "anthrop": 7967,
      "enforcement": 7968,
      "elaborate": 7969,
      "wielding": 7970,
      "scholarship": 7971,
      "bureau": 7972,
      "rhetoric": 7973,
      "alpha": 7974,
      "obituary": 7975,
      "graffiti": 7976,
      "grotesque": 7977,
      "sanctuary": 7978,
      "pompeo": 7979,
      "dicaprio": 7980,
      "karaoke": 7981,
      "sxsw": 7982,
      "reputation": 7983,
      "redemption": 7984,
      "aleppo": 7985,
      "arpaio": 7986,
      "chancellor": 7987,
      "tsarnaev": 7988,
      "hemsworth": 7989,
      "whatsoever": 7990,
      "jeopardy": 7991,
      "massachusetts": 7992,
      "29": 7993,
      "2000": 7994,
      "49": 7995,
      "5th": 7996,
      "78": 7997,
      "aol": 7998,
      "bis": 7999,
      "bts": 8000,
      "bak": 8001,
      "bies": 8002,
      "bins": 8003,
      "cies": 8004,
      "coff": 8005,
      "cade": 8006,
      "cular": 8007,
      "cvs": 8008,
      "dul": 8009,
      "dust": 8010,
      "dug": 8011,
      "diver": 8012,
      "dunk": 8013,
      "dna": 8014,
      "ec": 8015,
      "fk": 8016,
      "fathers": 8017,
      "gays": 8018,
      "gown": 8019,
      "gome": 8020,
      "gory": 8021,
      "gwy": 8022,
      "hp": 8023,
      "hast": 8024,
      "hoff": 8025,
      "hong": 8026,
      "hens": 8027,
      "hint": 8028,
      "hicks": 8029,
      "iary": 8030,
      "iform": 8031,
      "iator": 8032,
      "jol": 8033,
      "jad": 8034,
      "jab": 8035,
      "jaw": 8036,
      "ku": 8037,
      "ked": 8038,
      "kam": 8039,
      "kers": 8040,
      "knight": 8041,
      "lope": 8042,
      "lung": 8043,
      "mta": 8044,
      "nod": 8045,
      "nass": 8046,
      "nca": 8047,
      "oon": 8048,
      "pbs": 8049,
      "pix": 8050,
      "rof": 8051,
      "sof": 8052,
      "sack": 8053,
      "sake": 8054,
      "sams": 8055,
      "sink": 8056,
      "tent": 8057,
      "temp": 8058,
      "tney": 8059,
      "tica": 8060,
      "uto": 8061,
      "vast": 8062,
      "via": 8063,
      "wow": 8064,
      "xious": 8065,
      "yach": 8066,
      "zes": 8067,
      "zimmer": 8068,
      "ée": 8069,
      "ini": 8070,
      "incar": 8071,
      "inating": 8072,
      "inction": 8073,
      "infect": 8074,
      "inches": 8075,
      "intimate": 8076,
      "informed": 8077,
      "injection": 8078,
      "reese": 8079,
      "revers": 8080,
      "reince": 8081,
      "retain": 8082,
      "reference": 8083,
      "reconc": 8084,
      "reception": 8085,
      "ano": 8086,
      "thai": 8087,
      "stig": 8088,
      "stap": 8089,
      "stones": 8090,
      "orum": 8091,
      "orius": 8092,
      "inge": 8093,
      "ench": 8094,
      "encer": 8095,
      "alliance": 8096,
      "tomat": 8097,
      "toler": 8098,
      "ardo": 8099,
      "arby": 8100,
      "edict": 8101,
      "editors": 8102,
      "isol": 8103,
      "itals": 8104,
      "lew": 8105,
      "lethal": 8106,
      "icting": 8107,
      "icals": 8108,
      "icles": 8109,
      "theor": 8110,
      "asha": 8111,
      "chips": 8112,
      "chilling": 8113,
      "ione": 8114,
      "degre": 8115,
      "dela": 8116,
      "destru": 8117,
      "devin": 8118,
      "accommo": 8119,
      "seize": 8120,
      "forgets": 8121,
      "forbid": 8122,
      "forgiven": 8123,
      "trow": 8124,
      "traced": 8125,
      "elf": 8126,
      "ader": 8127,
      "adise": 8128,
      "neither": 8129,
      "shave": 8130,
      "shouts": 8131,
      "shades": 8132,
      "oting": 8133,
      "beast": 8134,
      "becue": 8135,
      "beij": 8136,
      "unic": 8137,
      "unts": 8138,
      "unner": 8139,
      "unique": 8140,
      "undecided": 8141,
      "uniform": 8142,
      "whip": 8143,
      "whales": 8144,
      "ime": 8145,
      "iments": 8146,
      "oppose": 8147,
      "verizon": 8148,
      "lovers": 8149,
      "logy": 8150,
      "areas": 8151,
      "outfit": 8152,
      "outfits": 8153,
      "frat": 8154,
      "fright": 8155,
      "fries": 8156,
      "frame": 8157,
      "lib": 8158,
      "liar": 8159,
      "lizz": 8160,
      "lifel": 8161,
      "mode": 8162,
      "cony": 8163,
      "convic": 8164,
      "confron": 8165,
      "result": 8166,
      "apol": 8167,
      "appl": 8168,
      "mant": 8169,
      "manning": 8170,
      "mandela": 8171,
      "upper": 8172,
      "upside": 8173,
      "heed": 8174,
      "height": 8175,
      "peps": 8176,
      "pearl": 8177,
      "ighth": 8178,
      "trumpcare": 8179,
      "comforts": 8180,
      "utah": 8181,
      "odes": 8182,
      "odle": 8183,
      "pler": 8184,
      "explic": 8185,
      "roe": 8186,
      "emy": 8187,
      "embass": 8188,
      "crop": 8189,
      "crap": 8190,
      "ivory": 8191,
      "gras": 8192,
      "grants": 8193,
      "teams": 8194,
      "clap": 8195,
      "click": 8196,
      "bler": 8197,
      "bless": 8198,
      "bliss": 8199,
      "blaz": 8200,
      "blaming": 8201,
      "overnight": 8202,
      "antib": 8203,
      "indu": 8204,
      "assange": 8205,
      "assume": 8206,
      "udge": 8207,
      "brick": 8208,
      "bryan": 8209,
      "pole": 8210,
      "poem": 8211,
      "mets": 8212,
      "megyn": 8213,
      "awake": 8214,
      "await": 8215,
      "spons": 8216,
      "suing": 8217,
      "noticed": 8218,
      "ava": 8219,
      "aven": 8220,
      "sci": 8221,
      "scale": 8222,
      "noxious": 8223,
      "erick": 8224,
      "perman": 8225,
      "coon": 8226,
      "berlin": 8227,
      "marg": 8228,
      "kson": 8229,
      "disastr": 8230,
      "disillusion": 8231,
      "strom": 8232,
      "strict": 8233,
      "iance": 8234,
      "preview": 8235,
      "ache": 8236,
      "hispanic": 8237,
      "auction": 8238,
      "autop": 8239,
      "everest": 8240,
      "ailes": 8241,
      "este": 8242,
      "flop": 8243,
      "supply": 8244,
      "preschool": 8245,
      "ashley": 8246,
      "colon": 8247,
      "colum": 8248,
      "enses": 8249,
      "backing": 8250,
      "carrie": 8251,
      "carcass": 8252,
      "apply": 8253,
      "choices": 8254,
      "chooses": 8255,
      "fried": 8256,
      "household": 8257,
      "interrog": 8258,
      "corps": 8259,
      "correspond": 8260,
      "served": 8261,
      "helpless": 8262,
      "surfer": 8263,
      "paradise": 8264,
      "sheet": 8265,
      "clears": 8266,
      "desire": 8267,
      "hoo": 8268,
      "slur": 8269,
      "slave": 8270,
      "slope": 8271,
      "glowing": 8272,
      "jew": 8273,
      "jean": 8274,
      "jeans": 8275,
      "blacks": 8276,
      "barber": 8277,
      "barbecue": 8278,
      "courts": 8279,
      "wrap": 8280,
      "cheering": 8281,
      "covering": 8282,
      "curios": 8283,
      "charter": 8284,
      "cares": 8285,
      "undercover": 8286,
      "headphones": 8287,
      "alec": 8288,
      "relat": 8289,
      "reluct": 8290,
      "cutest": 8291,
      "genu": 8292,
      "holes": 8293,
      "holmes": 8294,
      "ysis": 8295,
      "runway": 8296,
      "burgl": 8297,
      "bursting": 8298,
      "burgers": 8299,
      "burrito": 8300,
      "steel": 8301,
      "humor": 8302,
      "moron": 8303,
      "posting": 8304,
      "christine": 8305,
      "christians": 8306,
      "happiest": 8307,
      "contempt": 8308,
      "bros": 8309,
      "campaigns": 8310,
      "nightclub": 8311,
      "earliest": 8312,
      "denying": 8313,
      "filter": 8314,
      "filmed": 8315,
      "intact": 8316,
      "borrow": 8317,
      "liner": 8318,
      "forming": 8319,
      "formal": 8320,
      "gotten": 8321,
      "breakdown": 8322,
      "babys": 8323,
      "refers": 8324,
      "celebs": 8325,
      "releasing": 8326,
      "cruc": 8327,
      "pater": 8328,
      "celebration": 8329,
      "cub": 8330,
      "trek": 8331,
      "bloody": 8332,
      "consist": 8333,
      "consumption": 8334,
      "skate": 8335,
      "additional": 8336,
      "motherhood": 8337,
      "hotline": 8338,
      "hottest": 8339,
      "demol": 8340,
      "milo": 8341,
      "solit": 8342,
      "solved": 8343,
      "catching": 8344,
      "mature": 8345,
      "directions": 8346,
      "violations": 8347,
      "heartfelt": 8348,
      "homicide": 8349,
      "susan": 8350,
      "yorker": 8351,
      "humane": 8352,
      "dreaming": 8353,
      "entirety": 8354,
      "petition": 8355,
      "payment": 8356,
      "introduce": 8357,
      "paula": 8358,
      "dealing": 8359,
      "balcony": 8360,
      "halt": 8361,
      "salv": 8362,
      "taxpay": 8363,
      "retires": 8364,
      "swiss": 8365,
      "casting": 8366,
      "dining": 8367,
      "juli": 8368,
      "threaten": 8369,
      "coward": 8370,
      "boxing": 8371,
      "paltrow": 8372,
      "hungry": 8373,
      "simply": 8374,
      "shops": 8375,
      "graders": 8376,
      "ruled": 8377,
      "executed": 8378,
      "storms": 8379,
      "hostage": 8380,
      "traveler": 8381,
      "misleading": 8382,
      "tara": 8383,
      "differences": 8384,
      "explained": 8385,
      "minds": 8386,
      "stores": 8387,
      "divide": 8388,
      "surviving": 8389,
      "bombs": 8390,
      "touched": 8391,
      "planner": 8392,
      "ramid": 8393,
      "bathing": 8394,
      "instant": 8395,
      "extends": 8396,
      "haircut": 8397,
      "dub": 8398,
      "dressing": 8399,
      "jackpot": 8400,
      "inky": 8401,
      "fastest": 8402,
      "activism": 8403,
      "asylum": 8404,
      "meetings": 8405,
      "confusing": 8406,
      "marching": 8407,
      "arriving": 8408,
      "approve": 8409,
      "biting": 8410,
      "conversion": 8411,
      "philly": 8412,
      "journalism": 8413,
      "drawn": 8414,
      "figured": 8415,
      "abortions": 8416,
      "gordon": 8417,
      "spoil": 8418,
      "session": 8419,
      "closest": 8420,
      "addressing": 8421,
      "wonderful": 8422,
      "criticizes": 8423,
      "invites": 8424,
      "invitation": 8425,
      "cookies": 8426,
      "currency": 8427,
      "recipe": 8428,
      "spirits": 8429,
      "chairman": 8430,
      "fatally": 8431,
      "psychic": 8432,
      "sudan": 8433,
      "arianna": 8434,
      "jefferson": 8435,
      "connectic": 8436,
      "crowded": 8437,
      "islamophobia": 8438,
      "nickname": 8439,
      "pyramid": 8440,
      "located": 8441,
      "locations": 8442,
      "familiar": 8443,
      "discipl": 8444,
      "professors": 8445,
      "haters": 8446,
      "proposes": 8447,
      "fingers": 8448,
      "trading": 8449,
      "imagines": 8450,
      "prints": 8451,
      "disappointing": 8452,
      "dollars": 8453,
      "franklin": 8454,
      "fetus": 8455,
      "fetish": 8456,
      "joining": 8457,
      "praying": 8458,
      "argent": 8459,
      "innovation": 8460,
      "culin": 8461,
      "alexand": 8462,
      "bradley": 8463,
      "explores": 8464,
      "involve": 8465,
      "loudly": 8466,
      "pitbull": 8467,
      "ignored": 8468,
      "answered": 8469,
      "cinem": 8470,
      "navig": 8471,
      "taped": 8472,
      "sharp": 8473,
      "reflects": 8474,
      "katie": 8475,
      "knocked": 8476,
      "knocking": 8477,
      "representative": 8478,
      "tearfully": 8479,
      "extremists": 8480,
      "yelling": 8481,
      "advertising": 8482,
      "weighing": 8483,
      "brooks": 8484,
      "gallup": 8485,
      "ripping": 8486,
      "villain": 8487,
      "tub": 8488,
      "chapter": 8489,
      "hazing": 8490,
      "rankings": 8491,
      "warehouse": 8492,
      "locker": 8493,
      "shameless": 8494,
      "pige": 8495,
      "safer": 8496,
      "tunnel": 8497,
      "tackling": 8498,
      "analyst": 8499,
      "analytica": 8500,
      "jihad": 8501,
      "lauer": 8502,
      "molestation": 8503,
      "nazis": 8504,
      "rejected": 8505,
      "stampede": 8506,
      "triump": 8507,
      "cameras": 8508,
      "patriot": 8509,
      "engineer": 8510,
      "sober": 8511,
      "keeper": 8512,
      "continuing": 8513,
      "cotton": 8514,
      "dedic": 8515,
      "tragically": 8516,
      "explor": 8517,
      "pleasure": 8518,
      "ketchup": 8519,
      "expanding": 8520,
      "mandatory": 8521,
      "guesses": 8522,
      "correctly": 8523,
      "kirk": 8524,
      "kirst": 8525,
      "narrative": 8526,
      "recruit": 8527,
      "vegetarian": 8528,
      "rockets": 8529,
      "diagnosed": 8530,
      "diagnosis": 8531,
      "dental": 8532,
      "tumor": 8533,
      "vomit": 8534,
      "fasc": 8535,
      "chanting": 8536,
      "september": 8537,
      "destroying": 8538,
      "destroys": 8539,
      "paintings": 8540,
      "satisfying": 8541,
      "giants": 8542,
      "argues": 8543,
      "regulations": 8544,
      "pistorius": 8545,
      "uninsured": 8546,
      "weirdo": 8547,
      "scotland": 8548,
      "devastating": 8549,
      "santorum": 8550,
      "leonardo": 8551,
      "awakens": 8552,
      "glorious": 8553,
      "stereotypes": 8554,
      "gabri": 8555,
      "haley": 8556,
      "analysis": 8557,
      "detention": 8558,
      "shield": 8559,
      "inspiration": 8560,
      "emotionally": 8561,
      "nikki": 8562,
      "weren": 8563,
      "stumbles": 8564,
      "apocaly": 8565,
      "elevator": 8566,
      "expansion": 8567,
      "penalty": 8568,
      "yelp": 8569,
      "electoral": 8570,
      "microwave": 8571,
      "impeachment": 8572,
      "kourtney": 8573,
      "unearth": 8574,
      "nephew": 8575,
      "exposure": 8576,
      "monopoly": 8577,
      "monologue": 8578,
      "filibuster": 8579,
      "innovative": 8580,
      "dialogue": 8581,
      "gomez": 8582,
      "gwyneth": 8583,
      "lopez": 8584,
      "nassar": 8585,
      "ncaa": 8586,
      "samsung": 8587,
      "yacht": 8588,
      "zimmerman": 8589,
      "tomato": 8590,
      "degrees": 8591,
      "beijing": 8592,
      "embassy": 8593,
      "curiosity": 8594,
      "connecticut": 8595,
      ",\"": 8596,
      "41": 8597,
      "58": 8598,
      "69": 8599,
      "84": 8600,
      "86": 8601,
      "88": 8602,
      "8th": 8603,
      "97": 8604,
      "awe": 8605,
      "athan": 8606,
      "aquar": 8607,
      "bile": 8608,
      "bale": 8609,
      "bats": 8610,
      "busted": 8611,
      "bapt": 8612,
      "baffl": 8613,
      "blizz": 8614,
      "cack": 8615,
      "cially": 8616,
      "croc": 8617,
      "dian": 8618,
      "dated": 8619,
      "dling": 8620,
      "diana": 8621,
      "dawn": 8622,
      "ees": 8623,
      "echo": 8624,
      "eff": 8625,
      "ears": 8626,
      "eclip": 8627,
      "emanuel": 8628,
      "eighth": 8629,
      "fers": 8630,
      "gans": 8631,
      "gment": 8632,
      "gaps": 8633,
      "glee": 8634,
      "hes": 8635,
      "hag": 8636,
      "hdad": 8637,
      "hunk": 8638,
      "hattan": 8639,
      "ihop": 8640,
      "jum": 8641,
      "juggl": 8642,
      "kl": 8643,
      "kem": 8644,
      "khas": 8645,
      "kath": 8646,
      "kitt": 8647,
      "kah": 8648,
      "kitten": 8649,
      "lur": 8650,
      "lter": 8651,
      "lance": 8652,
      "leng": 8653,
      "mul": 8654,
      "mite": 8655,
      "mash": 8656,
      "madd": 8657,
      "macy": 8658,
      "nt": 8659,
      "nit": 8660,
      "nip": 8661,
      "nug": 8662,
      "nhl": 8663,
      "oy": 8664,
      "oam": 8665,
      "ostr": 8666,
      "osing": 8667,
      "pm": 8668,
      "pies": 8669,
      "punk": 8670,
      "piling": 8671,
      "piano": 8672,
      "pussy": 8673,
      "rome": 8674,
      "ranger": 8675,
      "rane": 8676,
      "rival": 8677,
      "sme": 8678,
      "slist": 8679,
      "sadd": 8680,
      "sworn": 8681,
      "sasha": 8682,
      "til": 8683,
      "tide": 8684,
      "tire": 8685,
      "tuck": 8686,
      "tense": 8687,
      "tucker": 8688,
      "tinder": 8689,
      "ule": 8690,
      "ufo": 8691,
      "wol": 8692,
      "wren": 8693,
      "wax": 8694,
      "waves": 8695,
      "yton": 8696,
      "yose": 8697,
      "yiel": 8698,
      "zed": 8699,
      "zam": 8700,
      "zip": 8701,
      "inde": 8702,
      "inher": 8703,
      "invisible": 8704,
      "incompetent": 8705,
      "erable": 8706,
      "error": 8707,
      "reed": 8708,
      "retr": 8709,
      "reel": 8710,
      "revis": 8711,
      "recy": 8712,
      "recalled": 8713,
      "reopens": 8714,
      "remarks": 8715,
      "reinvent": 8716,
      "reverse": 8717,
      "anamo": 8718,
      "oni": 8719,
      "ongoing": 8720,
      "thir": 8721,
      "thwart": 8722,
      "stable": 8723,
      "sticks": 8724,
      "stirs": 8725,
      "orca": 8726,
      "enh": 8727,
      "enr": 8728,
      "enact": 8729,
      "envel": 8730,
      "ensure": 8731,
      "aled": 8732,
      "aros": 8733,
      "arming": 8734,
      "espe": 8735,
      "escor": 8736,
      "escope": 8737,
      "isk": 8738,
      "islands": 8739,
      "itates": 8740,
      "itbart": 8741,
      "lever": 8742,
      "leaf": 8743,
      "icial": 8744,
      "assh": 8745,
      "asians": 8746,
      "chasing": 8747,
      "deaf": 8748,
      "deport": 8749,
      "deple": 8750,
      "acres": 8751,
      "acular": 8752,
      "seas": 8753,
      "seated": 8754,
      "secure": 8755,
      "owers": 8756,
      "forgetting": 8757,
      "trace": 8758,
      "elite": 8759,
      "anded": 8760,
      "andals": 8761,
      "aded": 8762,
      "adams": 8763,
      "adapt": 8764,
      "sha": 8765,
      "shre": 8766,
      "shack": 8767,
      "shaking": 8768,
      "shade": 8769,
      "otics": 8770,
      "beware": 8771,
      "unfort": 8772,
      "unhealthy": 8773,
      "unlikely": 8774,
      "unfair": 8775,
      "unusual": 8776,
      "unbeliev": 8777,
      "implants": 8778,
      "uma": 8779,
      "urging": 8780,
      "absor": 8781,
      "abilities": 8782,
      "terte": 8783,
      "opera": 8784,
      "ophil": 8785,
      "opposing": 8786,
      "verge": 8787,
      "verbal": 8788,
      "pron": 8789,
      "tsa": 8790,
      "lod": 8791,
      "looms": 8792,
      "akers": 8793,
      "fridge": 8794,
      "wives": 8795,
      "liars": 8796,
      "moham": 8797,
      "conced": 8798,
      "resil": 8799,
      "rescind": 8800,
      "apes": 8801,
      "apers": 8802,
      "apore": 8803,
      "apprec": 8804,
      "mans": 8805,
      "manage": 8806,
      "managing": 8807,
      "manhattan": 8808,
      "ista": 8809,
      "peas": 8810,
      "peak": 8811,
      "peyton": 8812,
      "fection": 8813,
      "feinstein": 8814,
      "compar": 8815,
      "combin": 8816,
      "uted": 8817,
      "weary": 8818,
      "pling": 8819,
      "endless": 8820,
      "explan": 8821,
      "expects": 8822,
      "robe": 8823,
      "embar": 8824,
      "affects": 8825,
      "keley": 8826,
      "keith": 8827,
      "cran": 8828,
      "crum": 8829,
      "crazed": 8830,
      "worship": 8831,
      "gris": 8832,
      "grid": 8833,
      "grav": 8834,
      "grows": 8835,
      "grizz": 8836,
      "grills": 8837,
      "cles": 8838,
      "clark": 8839,
      "blase": 8840,
      "blamed": 8841,
      "blitzer": 8842,
      "blaze": 8843,
      "blasio": 8844,
      "overdo": 8845,
      "overturn": 8846,
      "antide": 8847,
      "boards": 8848,
      "asso": 8849,
      "assign": 8850,
      "brands": 8851,
      "brows": 8852,
      "haul": 8853,
      "poc": 8854,
      "poe": 8855,
      "portland": 8856,
      "goo": 8857,
      "gos": 8858,
      "goth": 8859,
      "goof": 8860,
      "goose": 8861,
      "iceberg": 8862,
      "mentor": 8863,
      "meg": 8864,
      "metal": 8865,
      "mega": 8866,
      "idel": 8867,
      "canv": 8868,
      "canon": 8869,
      "cancell": 8870,
      "cannes": 8871,
      "spicy": 8872,
      "spike": 8873,
      "drome": 8874,
      "drought": 8875,
      "avoc": 8876,
      "avengers": 8877,
      "scor": 8878,
      "scam": 8879,
      "donate": 8880,
      "donations": 8881,
      "berkeley": 8882,
      "martha": 8883,
      "nowhere": 8884,
      "disick": 8885,
      "disappear": 8886,
      "dismember": 8887,
      "disability": 8888,
      "creek": 8889,
      "stray": 8890,
      "straw": 8891,
      "tongue": 8892,
      "autom": 8893,
      "guided": 8894,
      "prospe": 8895,
      "proving": 8896,
      "proved": 8897,
      "proclaims": 8898,
      "pug": 8899,
      "phob": 8900,
      "pharm": 8901,
      "ignant": 8902,
      "identified": 8903,
      "identify": 8904,
      "flake": 8905,
      "presence": 8906,
      "collar": 8907,
      "tyson": 8908,
      "tyler": 8909,
      "backup": 8910,
      "parties": 8911,
      "insist": 8912,
      "inspect": 8913,
      "insider": 8914,
      "carries": 8915,
      "carthy": 8916,
      "anged": 8917,
      "angling": 8918,
      "eval": 8919,
      "rented": 8920,
      "mint": 8921,
      "breed": 8922,
      "breitbart": 8923,
      "monsan": 8924,
      "frito": 8925,
      "mediter": 8926,
      "corte": 8927,
      "serves": 8928,
      "sexiest": 8929,
      "merrick": 8930,
      "sonian": 8931,
      "camping": 8932,
      "tales": 8933,
      "syrup": 8934,
      "legs": 8935,
      "helmet": 8936,
      "publishes": 8937,
      "surf": 8938,
      "clinic": 8939,
      "paramount": 8940,
      "paralle": 8941,
      "starter": 8942,
      "rahm": 8943,
      "calcul": 8944,
      "hockey": 8945,
      "reef": 8946,
      "schoolers": 8947,
      "fert": 8948,
      "parency": 8949,
      "slaugh": 8950,
      "slaying": 8951,
      "glac": 8952,
      "glenn": 8953,
      "accent": 8954,
      "accuse": 8955,
      "bookstore": 8956,
      "visa": 8957,
      "woes": 8958,
      "whenever": 8959,
      "mayo": 8960,
      "uez": 8961,
      "fundam": 8962,
      "healthier": 8963,
      "singapore": 8964,
      "chee": 8965,
      "cheat": 8966,
      "curse": 8967,
      "mush": 8968,
      "ancing": 8969,
      "smug": 8970,
      "shoulder": 8971,
      "understanding": 8972,
      "harper": 8973,
      "goods": 8974,
      "playlist": 8975,
      "playstation": 8976,
      "versus": 8977,
      "comeback": 8978,
      "deadline": 8979,
      "bury": 8980,
      "steam": 8981,
      "steals": 8982,
      "morbid": 8983,
      "pressing": 8984,
      "pressed": 8985,
      "transphob": 8986,
      "transparency": 8987,
      "phoen": 8988,
      "context": 8989,
      "adequ": 8990,
      "below": 8991,
      "owski": 8992,
      "contrad": 8993,
      "ahmad": 8994,
      "denver": 8995,
      "denied": 8996,
      "intent": 8997,
      "ptic": 8998,
      "borders": 8999,
      "password": 9000,
      "coup": 9001,
      "coulter": 9002,
      "landmark": 9003,
      "collect": 9004,
      "attacked": 9005,
      "takeout": 9006,
      "condu": 9007,
      "refre": 9008,
      "refuse": 9009,
      "cci": 9010,
      "crucial": 9011,
      "midterm": 9012,
      "defending": 9013,
      "horn": 9014,
      "boycott": 9015,
      "biologists": 9016,
      "superman": 9017,
      "badly": 9018,
      "classroom": 9019,
      "employ": 9020,
      "employers": 9021,
      "teenager": 9022,
      "teenagers": 9023,
      "stepping": 9024,
      "weds": 9025,
      "copies": 9026,
      "monthly": 9027,
      "standoff": 9028,
      "promising": 9029,
      "signed": 9030,
      "signific": 9031,
      "handed": 9032,
      "handling": 9033,
      "nukes": 9034,
      "vocal": 9035,
      "founded": 9036,
      "pretending": 9037,
      "homem": 9038,
      "benedict": 9039,
      "keystone": 9040,
      "reasonable": 9041,
      "completed": 9042,
      "murders": 9043,
      "fargo": 9044,
      "diego": 9045,
      "marked": 9046,
      "watermel": 9047,
      "facial": 9048,
      "middleton": 9049,
      "hyp": 9050,
      "hydra": 9051,
      "hurting": 9052,
      "hurry": 9053,
      "venus": 9054,
      "bulls": 9055,
      "bullets": 9056,
      "diners": 9057,
      "engul": 9058,
      "mccarthy": 9059,
      "weddings": 9060,
      "appearing": 9061,
      "silently": 9062,
      "palm": 9063,
      "stylish": 9064,
      "styrof": 9065,
      "hunts": 9066,
      "schem": 9067,
      "horrors": 9068,
      "sleeps": 9069,
      "cafe": 9070,
      "simon": 9071,
      "investigator": 9072,
      "washing": 9073,
      "pointing": 9074,
      "eyel": 9075,
      "storage": 9076,
      "damaging": 9077,
      "messages": 9078,
      "speakers": 9079,
      "musicians": 9080,
      "hitler": 9081,
      "wheat": 9082,
      "travelers": 9083,
      "misogy": 9084,
      "miserable": 9085,
      "stood": 9086,
      "malley": 9087,
      "possibility": 9088,
      "fani": 9089,
      "robots": 9090,
      "robbery": 9091,
      "extinct": 9092,
      "duke": 9093,
      "duff": 9094,
      "duterte": 9095,
      "liked": 9096,
      "murdering": 9097,
      "primaries": 9098,
      "bowling": 9099,
      "legalize": 9100,
      "legalization": 9101,
      "hilary": 9102,
      "bonus": 9103,
      "received": 9104,
      "arrive": 9105,
      "arrival": 9106,
      "shuttle": 9107,
      "doug": 9108,
      "octo": 9109,
      "protected": 9110,
      "protections": 9111,
      "bitcoin": 9112,
      "crashing": 9113,
      "screw": 9114,
      "designers": 9115,
      "authority": 9116,
      "packing": 9117,
      "budd": 9118,
      "buddy": 9119,
      "hateful": 9120,
      "remembered": 9121,
      "baghdad": 9122,
      "spook": 9123,
      "angelina": 9124,
      "cleaner": 9125,
      "princeton": 9126,
      "scottish": 9127,
      "tracking": 9128,
      "2009": 9129,
      "statist": 9130,
      "generous": 9131,
      "invasion": 9132,
      "raped": 9133,
      "rapist": 9134,
      "reached": 9135,
      "churches": 9136,
      "avoiding": 9137,
      "shortage": 9138,
      "smoker": 9139,
      "purple": 9140,
      "baton": 9141,
      "knicks": 9142,
      "comedians": 9143,
      "harassed": 9144,
      "captiv": 9145,
      "captivity": 9146,
      "demanding": 9147,
      "banner": 9148,
      "banned": 9149,
      "fantastic": 9150,
      "purchased": 9151,
      "appoints": 9152,
      "performs": 9153,
      "vacationing": 9154,
      "hacking": 9155,
      "technique": 9156,
      "darkness": 9157,
      "organic": 9158,
      "organizing": 9159,
      "dangerously": 9160,
      "furlough": 9161,
      "repealed": 9162,
      "galactic": 9163,
      "heavily": 9164,
      "dragged": 9165,
      "dragging": 9166,
      "truths": 9167,
      "awarded": 9168,
      "markets": 9169,
      "strategies": 9170,
      "hatred": 9171,
      "circum": 9172,
      "cabin": 9173,
      "paperwork": 9174,
      "attract": 9175,
      "jenna": 9176,
      "lobbyist": 9177,
      "janitor": 9178,
      "channels": 9179,
      "lifted": 9180,
      "smithsonian": 9181,
      "jonas": 9182,
      "jonathan": 9183,
      "ceremon": 9184,
      "yahoo": 9185,
      "practicing": 9186,
      "existing": 9187,
      "suspends": 9188,
      "suspension": 9189,
      "recipients": 9190,
      "titan": 9191,
      "creeped": 9192,
      "sympathy": 9193,
      "laying": 9194,
      "layoffs": 9195,
      "lacks": 9196,
      "arguments": 9197,
      "idiots": 9198,
      "discusses": 9199,
      "darren": 9200,
      "macar": 9201,
      "rainforest": 9202,
      "influenced": 9203,
      "ethical": 9204,
      "ethnic": 9205,
      "hippo": 9206,
      "hangs": 9207,
      "sinks": 9208,
      "obsessive": 9209,
      "stripper": 9210,
      "medicare": 9211,
      "patiently": 9212,
      "psychiat": 9213,
      "euthan": 9214,
      "severe": 9215,
      "targeted": 9216,
      "bombings": 9217,
      "condemn": 9218,
      "premier": 9219,
      "finishes": 9220,
      "explode": 9221,
      "igerator": 9222,
      "complains": 9223,
      "complaints": 9224,
      "physic": 9225,
      "physically": 9226,
      "shaping": 9227,
      "conflicts": 9228,
      "cocktail": 9229,
      "prosecutors": 9230,
      "bullshit": 9231,
      "consuming": 9232,
      "gonna": 9233,
      "hoggi": 9234,
      "sensitive": 9235,
      "instructions": 9236,
      "motorist": 9237,
      "recognize": 9238,
      "chapl": 9239,
      "scoot": 9240,
      "raids": 9241,
      "contestants": 9242,
      "hunters": 9243,
      "worrying": 9244,
      "busters": 9245,
      "tackle": 9246,
      "experiencing": 9247,
      "oxford": 9248,
      "waist": 9249,
      "including": 9250,
      "replaced": 9251,
      "subsid": 9252,
      "humiliated": 9253,
      "promoting": 9254,
      "philippine": 9255,
      "ducks": 9256,
      "fisherman": 9257,
      "adopts": 9258,
      "adopted": 9259,
      "associated": 9260,
      "particular": 9261,
      "thriller": 9262,
      "thrilled": 9263,
      "functional": 9264,
      "institute": 9265,
      "randomly": 9266,
      "yemeni": 9267,
      "jungle": 9268,
      "pours": 9269,
      "gaining": 9270,
      "kendall": 9271,
      "atlantic": 9272,
      "application": 9273,
      "toothbrush": 9274,
      "mistakenly": 9275,
      "rabbit": 9276,
      "sacrif": 9277,
      "andez": 9278,
      "essentials": 9279,
      "controlling": 9280,
      "convincing": 9281,
      "plunge": 9282,
      "plunges": 9283,
      "granted": 9284,
      "craigslist": 9285,
      "adventures": 9286,
      "lovely": 9287,
      "syndrome": 9288,
      "describes": 9289,
      "counselor": 9290,
      "achievement": 9291,
      "pakistani": 9292,
      "fuels": 9293,
      "fascin": 9294,
      "reunite": 9295,
      "reunites": 9296,
      "assassination": 9297,
      "qualified": 9298,
      "license": 9299,
      "arguing": 9300,
      "assembly": 9301,
      "improving": 9302,
      "improved": 9303,
      "authent": 9304,
      "photographs": 9305,
      "communications": 9306,
      "eagles": 9307,
      "gentle": 9308,
      "mckin": 9309,
      "theaters": 9310,
      "ambitious": 9311,
      "trophy": 9312,
      "grassley": 9313,
      "spectacular": 9314,
      "temporarily": 9315,
      "yellowstone": 9316,
      "cereal": 9317,
      "inclusion": 9318,
      "recession": 9319,
      "aggressive": 9320,
      "exxonmobil": 9321,
      "elephant": 9322,
      "constituents": 9323,
[...]
