{
  "version": "1.0",
  "truncation": null,
  "padding": null,
  "added_tokens": [
    {
      "id": 0,
      "content": "[PAD]",
      "single_word": false,
      "lstrip": false,
      "rstrip": false,
      "normalized": false,
      "special": true
    },
    {
      "id": 1,
      "content": "[UNK]",
      "single_word": false,
      "lstrip": false,
      "rstrip": false,
      "normalized": false,
      "special": true
    },
    {
      "id": 2,
      "content": "[CLS]",
      "single_word": false,
      "lstrip": false,
      "rstrip": false,
      "normalized": false,
      "special": true
    },
    {
      "id": 3,
      "content": "[SEP]",
      "single_word": false,
      "lstrip": false,
      "rstrip": false,
      "normalized": false,
      "special": true
    },
    {
      "id": 4,
      "content": "[MASK]",
      "single_word": false,
      "lstrip": false,
      "rstrip": false,
      "normalized": false,
      "special": true
    }
  ],
  "normalizer": null,
  "pre_tokenizer": {
    "type": "Metaspace",
    "replacement": "▁",
    "prepend_scheme": "always",
    "split": true
  },
  "post_processor": null,
  "decoder": null,
  "model": {
    "type": "Unigram",
    "unk_id": 1,
    "vocab": [
      [
        "[PAD]",
        0.0
      ],
      [
        "[UNK]",
        0.0
      ],
      [
        "[CLS]",
        0.0
      ],
      [
        "[SEP]",
        0.0
      ],
      [
        "[MASK]",
        0.0
      ],
      [
        "s",
        -2.9388473777901822
      ],
      [
        "▁to",
        -3.7684117571820863
      ],
      [
        "ing",
        -4.033488120656473
      ],
      [
        "▁of",
        -4.161819013370396
      ],
      [
        "▁the",
        -4.315713770294288
      ],
      [
        "▁",
        -4.405502788430617
      ],
      [
        "▁in",
        -4.412702370899076
      ],
      [
        "'",
        -4.52603657124941
      ],
      [
        ",",
        -4.64771161390067
      ],
      [
        "ed",
        -4.6499383404544545
      ],
      [
        "'s",
        -4.6624625915659
      ],
      [
        "▁a",
        -4.665440378934232
      ],
      [
        "▁for",
        -4.6844382138823
      ],
      [
        "▁on",
        -5.002887126317528
      ],
      [
        ":",
        -5.023347795229201
      ],
      [
        "d",
        -5.046784559184937
      ],
      [
        "y",
        -5.1068440089837965
      ],
      [
        "e",
        -5.196548490417363
      ],
      [
        "ly",
        -5.219587847812184
      ],
      [
        "▁with",
        -5.258619726141534
      ],
      [
        "▁and",
        -5.311825422472457
      ],
      [
        "▁new",
        -5.416101882602622
      ],
      [
        "-",
        -5.459599961423128
      ],
      [
        "▁is",
        -5.46946651292802
      ],
      [
        "▁'",
        -5.471767515269284
      ],
      [
        "▁man",
        -5.513778452420137
      ],
      [
        "▁trump",
        -5.657232146776029
      ],
      [
        "▁at",
        -5.702309000670404
      ],
      [
        "▁from",
        -5.719331126806045
      ],
      [
        "er",
        -5.723528647345436
      ],
      [
        "r",
        -5.764215449799775
      ],
      [
        "▁it",
        -5.824350237924805
      ],
      [
        "n",
        -5.845835708541204
      ],
      [
        "▁be",
        -5.870600413678758
      ],
      [
        "▁about",
        -5.879431252503595
      ],
      [
        "▁you",
        -5.900906398396473
      ],
      [
        "▁by",
        -5.952850349280775
      ],
      [
        "▁after",
        -5.974068145459876
      ],
      [
        "t",
        -6.000981020313852
      ],
      [
        "▁out",
        -6.010658581404011
      ],
      [
        "▁this",
        -6.044542422520149
      ],
      [
        "▁up",
        -6.05948208095128
      ],
      [
        "a",
        -6.077444001557201
      ],
      [
        "▁he",
        -6.077493183052067
      ],
      [
        "▁that",
        -6.082863282348197
      ],
      [
        "▁how",
        -6.161482373635979
      ],
      [
        "▁not",
        -6.190446617389712
      ],
      [
        "o",
        -6.2359733349087785
      ],
      [
        "▁as",
        -6.243993826510116
      ],
      [
        "?",
        -6.2518390624576785
      ],
      [
        "es",
        -6.269503617161236
      ],
      [
        "▁who",
        -6.3352069369477375
      ],
      [
        "▁just",
        -6.34161738638006
      ],
      [
        ".",
        -6.36832081683813
      ],
      [
        "p",
        -6.369059662642029
      ],
      [
        "▁are",
        -6.382134860768801
      ],
      [
        "▁has",
        -6.3831155782866125
      ],
      [
        "▁his",
        -6.386159916364659
      ],
      [
        "l",
        -6.400464317203767
      ],
      [
        "▁what",
        -6.405501080474885
      ],
      [
        "▁your",
        -6.405770962768891
      ],
      [
        "al",
        -6.418302664648485
      ],
      [
        "▁report",
        -6.420205261279906
      ],
      [
        "▁all",
        -6.424783044237624
      ],
      [
        "i",
        -6.428416445099969
      ],
      [
        "▁over",
        -6.454794347220802
      ],
      [
        "▁will",
        -6.456832201601467
      ],
      [
        "st",
        -6.466043141306761
      ],
      [
        "▁into",
        -6.532149167361494
      ],
      [
        "▁more",
        -6.53868800859209
      ],
      [
        "▁one",
        -6.562604286578195
      ],
      [
        "▁have",
        -6.5778670017974425
      ],
      [
        "on",
        -6.587734460833156
      ],
      [
        "▁woman",
        -6.605695045000779
      ],
      [
        "▁can",
        -6.626277556762393
      ],
      [
        "▁day",
        -6.65483332224472
      ],
      [
        "▁like",
        -6.658564182914561
      ],
      [
        "▁i",
        -6.669637044848977
      ],
      [
        "▁why",
        -6.675781506077967
      ],
      [
        "m",
        -6.69000554983276
      ],
      [
        "▁area",
        -6.6925709656928625
      ],
      [
        "▁time",
        -6.7050188456112005
      ],
      [
        "c",
        -6.70896359119908
      ],
      [
        "▁an",
        -6.714845601546671
      ],
      [
        "b",
        -6.71723872199025
      ],
      [
        "▁no",
        -6.7202940197366
      ],
      [
        "▁her",
        -6.721183202449477
      ],
      [
        "▁donald",
        -6.746748654714999
      ],
      [
        "▁says",
        -6.752124215692144
      ],
      [
        "en",
        -6.7684251418768495
      ],
      [
        "▁u.s.",
        -6.77021364733731
      ],
      [
        "▁first",
        -6.772373026380678
      ],
      [
        "▁get",
        -6.782004383211605
      ],
      [
        "g",
        -6.800107835558943
      ],
      [
        "▁un",
        -6.81969744170022
      ],
      [
        "in",
        -6.8361644360331155
      ],
      [
        "h",
        -6.859260044456923
      ],
      [
        "▁people",
        -6.860561797079942
      ],
      [
        "▁house",
        -6.875617304484426
      ],
      [
        "▁back",
        -6.888897719326607
      ],
      [
        "▁women",
        -6.889290595993033
      ],
      [
        "▁life",
        -6.90964017578028
      ],
      [
        "ic",
        -6.913342307537609
      ],
      [
        "▁show",
        -6.914188704235467
      ],
      [
        "▁off",
        -6.918151598550105
      ],
      [
        "▁now",
        -6.924515829736897
      ],
      [
        "▁make",
        -6.932456264472743
      ],
      [
        "▁trump's",
        -6.946998044338611
      ],
      [
        "▁white",
        -6.954752484449582
      ],
      [
        "▁was",
        -6.961262537306506
      ],
      [
        "▁obama",
        -6.973251384560532
      ],
      [
        "▁we",
        -6.973476965747948
      ],
      [
        "▁do",
        -6.974232599243053
      ],
      [
        "▁again",
        -6.985948393930112
      ],
      [
        "▁still",
        -6.994055993541033
      ],
      [
        "▁him",
        -7.021388907210988
      ],
      [
        "▁want",
        -7.024265257542511
      ],
      [
        "or",
        -7.02446056504122
      ],
      [
        "▁down",
        -7.039944671535901
      ],
      [
        "▁than",
        -7.051330522090025
      ],
      [
        "▁clinton",
        -7.069769086172712
      ],
      [
        "n't",
        -7.08946316544778
      ],
      [
        "▁if",
        -7.091902808952956
      ],
      [
        "▁so",
        -7.091942673921224
      ],
      [
        "▁they",
        -7.097498924145388
      ],
      [
        "▁she",
        -7.108222935596404
      ],
      [
        "u",
        -7.112672527554303
      ],
      [
        "re",
        -7.1259081111366855
      ],
      [
        "▁nation",
        -7.126877518665951
      ],
      [
        "k",
        -7.1340229932296655
      ],
      [
        "▁my",
        -7.134026241957527
      ],
      [
        "▁5",
        -7.1377660623407975
      ],
      [
        "▁when",
        -7.139607027084993
      ],
      [
        "f",
        -7.145337272258877
      ],
      [
        "▁could",
        -7.15703143004548
      ],
      [
        "▁way",
        -7.15978369384388
      ],
      [
        "▁world",
        -7.17726538818142
      ],
      [
        "▁re",
        -7.181613081984191
      ],
      [
        "▁family",
        -7.193483192283293
      ],
      [
        "▁their",
        -7.1968891065830265
      ],
      [
        "le",
        -7.199883477469271
      ],
      [
        "v",
        -7.200626416942766
      ],
      [
        "th",
        -7.204156839584095
      ],
      [
        "▁does",
        -7.206166775898193
      ],
      [
        "▁before",
        -7.210096755027338
      ],
      [
        "▁black",
        -7.2238117855121615
      ],
      [
        "▁should",
        -7.233824639351142
      ],
      [
        "▁bill",
        -7.235656474806477
      ],
      [
        "ity",
        -7.241945765748195
      ],
      [
        "w",
        -7.252359026645583
      ],
      [
        "▁know",
        -7.252885289235219
      ],
      [
        "ion",
        -7.265692437037863
      ],
      [
        "▁year",
        -7.269388646497518
      ],
      [
        "▁most",
        -7.276514249764416
      ],
      [
        "▁americans",
        -7.278578391015387
      ],
      [
        "▁would",
        -7.278596278316764
      ],
      [
        "▁home",
        -7.280076415064679
      ],
      [
        "▁watch",
        -7.280163725037611
      ],
      [
        "▁school",
        -7.280867565601225
      ],
      [
        "▁gop",
        -7.281097261550737
      ],
      [
        "▁study",
        -7.2866541796840965
      ],
      [
        "ers",
        -7.286790015676015
      ],
      [
        "te",
        -7.290787254910441
      ],
      [
        "able",
        -7.292652718747964
      ],
      [
        "it",
        -7.29967726190836
      ],
      [
        "▁3",
        -7.311940924182094
      ],
      [
        "▁or",
        -7.320469539478268
      ],
      [
        "an",
        -7.333507363100852
      ],
      [
        "▁take",
        -7.336100369432355
      ],
      [
        "out",
        -7.336714973125081
      ],
      [
        "▁state",
        -7.3388769399126215
      ],
      [
        "▁president",
        -7.342315841613133
      ],
      [
        "▁some",
        -7.343537648187364
      ],
      [
        "man",
        -7.343970026532741
      ],
      [
        "▁last",
        -7.34732770250261
      ],
      [
        "▁give",
        -7.358157829511673
      ],
      [
        "▁good",
        -7.361782671598043
      ],
      [
        "▁mom",
        -7.368584943327023
      ],
      [
        "▁only",
        -7.376555361812256
      ],
      [
        "ll",
        -7.387503088660033
      ],
      [
        "▁help",
        -7.389445116978913
      ],
      [
        "▁years",
        -7.392999006469655
      ],
      [
        "▁best",
        -7.394451742554311
      ],
      [
        "▁but",
        -7.395688555494087
      ],
      [
        "▁really",
        -7.397854333715481
      ],
      [
        "▁police",
        -7.40150925063963
      ],
      [
        "▁death",
        -7.401597061209985
      ],
      [
        "▁being",
        -7.402406782756763
      ],
      [
        "▁dur",
        -7.406411213953675
      ],
      [
        "▁finds",
        -7.407477356410024
      ],
      [
        "▁see",
        -7.41028778882233
      ],
      [
        "▁us",
        -7.419457062871191
      ],
      [
        "▁can't",
        -7.426359914274675
      ],
      [
        "▁dead",
        -7.426384084945907
      ],
      [
        "▁american",
        -7.427021012505645
      ],
      [
        "▁child",
        -7.430696751521997
      ],
      [
        "▁say",
        -7.4362371837142485
      ],
      [
        "▁may",
        -7.4445367420380055
      ],
      [
        "▁b",
        -7.444697301998276
      ],
      [
        "▁go",
        -7.444774113453785
      ],
      [
        "▁love",
        -7.447412147691543
      ],
      [
        "▁work",
        -7.447871768753623
      ],
      [
        "▁every",
        -7.4507381429934645
      ],
      [
        "▁going",
        -7.456669592044409
      ],
      [
        "▁under",
        -7.463667498647251
      ],
      [
        "▁campaign",
        -7.46436678533982
      ],
      [
        "▁me",
        -7.467690200356497
      ],
      [
        "▁'the",
        -7.468347895796729
      ],
      [
        "ation",
        -7.479287564295449
      ],
      [
        "▁announce",
        -7.481718414406631
      ],
      [
        "▁10",
        -7.487914565116835
      ],
      [
        "est",
        -7.490044692448339
      ],
      [
        "▁think",
        -7.490854809460225
      ],
      [
        "▁car",
        -7.500605722871445
      ],
      [
        "▁health",
        -7.502430131260073
      ],
      [
        "▁g",
        -7.505048795032845
      ],
      [
        "▁change",
        -7.507732473507448
      ],
      [
        "▁need",
        -7.510258028947598
      ],
      [
        "ar",
        -7.510698103760493
      ],
      [
        "▁war",
        -7.520226730140493
      ],
      [
        "▁2",
        -7.520695006761624
      ],
      [
        "▁big",
        -7.524613627644231
      ],
      [
        "▁through",
        -7.526665403027426
      ],
      [
        "▁video",
        -7.528244945893742
      ],
      [
        "▁tell",
        -7.531890642464059
      ],
      [
        "ment",
        -7.532867188723097
      ],
      [
        "▁things",
        -7.538095361115666
      ],
      [
        "▁parents",
        -7.54398676262098
      ],
      [
        "▁look",
        -7.544510690363763
      ],
      [
        "▁right",
        -7.5448795975007314
      ],
      [
        ")",
        -7.549922222986097
      ],
      [
        "▁hillary",
        -7.554664483044368
      ],
      [
        "ch",
        -7.561893316595831
      ],
      [
        "ry",
        -7.565069662673047
      ],
      [
        "while",
        -7.569853717791485
      ],
      [
        "▁court",
        -7.574279516905969
      ],
      [
        "▁p",
        -7.581600573342023
      ],
      [
        "▁too",
        -7.5821231724056455
      ],
      [
        "▁john",
        -7.583618369443218
      ],
      [
        "▁own",
        -7.594161596894848
      ],
      [
        "▁stop",
        -7.595353459828991
      ],
      [
        "▁there",
        -7.60026238281703
      ],
      [
        "▁america",
        -7.600615053011248
      ],
      [
        "▁gett",
        -7.6007491589525475
      ],
      [
        "▁party",
        -7.603131527617634
      ],
      [
        "▁where",
        -7.609951491959428
      ],
      [
        "▁star",
        -7.611179411174457
      ],
      [
        "▁de",
        -7.6146355822425535
      ],
      [
        "▁come",
        -7.617137293487931
      ],
      [
        "▁kids",
        -7.621461850902554
      ],
      [
        "▁other",
        -7.630491334016103
      ],
      [
        "▁gun",
        -7.638478688186365
      ],
      [
        "▁little",
        -7.6387948255877625
      ],
      [
        "▁week",
        -7.642377849343277
      ],
      [
        "▁dad",
        -7.645401878252717
      ],
      [
        "▁never",
        -7.654161852081796
      ],
      [
        "▁congress",
        -7.658559256064247
      ],
      [
        "▁open",
        -7.667811317369125
      ],
      [
        "▁fight",
        -7.669805657033082
      ],
      [
        "ie",
        -7.681567910201688
      ],
      [
        "less",
        -7.683130951882804
      ],
      [
        "▁call",
        -7.685517951881371
      ],
      [
        "▁turn",
        -7.686087329782914
      ],
      [
        "▁start",
        -7.686488435681941
      ],
      [
        "▁real",
        -7.687960885734587
      ],
      [
        "▁keep",
        -7.6912164462283865
      ],
      [
        "▁try",
        -7.692170075758943
      ],
      [
        "▁fuck",
        -7.693549907782053
      ],
      [
        "ra",
        -7.697064770686056
      ],
      [
        "▁end",
        -7.698806860274511
      ],
      [
        "▁(",
        -7.702216088500272
      ],
      [
        "▁dog",
        -7.702257001499289
      ],
      [
        "'re",
        -7.7041359140509655
      ],
      [
        "▁4",
        -7.704335007004099
      ],
      [
        "▁these",
        -7.705317026008178
      ],
      [
        "▁election",
        -7.708582715341234
      ],
      [
        "▁guy",
        -7.716527645821706
      ],
      [
        "!",
        -7.718817403638998
      ],
      [
        "▁let",
        -7.719608383760956
      ],
      [
        "▁even",
        -7.7243733829170615
      ],
      [
        "▁6",
        -7.72542045633147
      ],
      [
        "▁gets",
        -7.731290245865068
      ],
      [
        "ur",
        -7.731521008478485
      ],
      [
        "▁local",
        -7.735543617256775
      ],
      [
        "▁bush",
        -7.753102677748531
      ],
      [
        "▁baby",
        -7.75332248624305
      ],
      [
        "▁plan",
        -7.753789431294711
      ],
      [
        "▁7",
        -7.757621999276959
      ],
      [
        "▁next",
        -7.758466697050618
      ],
      [
        "▁college",
        -7.758576979665104
      ],
      [
        "▁our",
        -7.760692767633641
      ],
      [
        "▁don't",
        -7.7610119710615635
      ],
      [
        "age",
        -7.76517173917164
      ],
      [
        "▁night",
        -7.765594514800711
      ],
      [
        "▁calls",
        -7.769161684583246
      ],
      [
        "▁son",
        -7.7692100531851205
      ],
      [
        "▁gay",
        -7.771164060243127
      ],
      [
        "▁million",
        -7.775910785381493
      ],
      [
        "▁play",
        -7.775972984150025
      ],
      [
        "%",
        -7.776010756985716
      ],
      [
        "▁around",
        -7.782189219604427
      ],
      [
        "▁live",
        -7.782702183716627
      ],
      [
        "▁makes",
        -7.787098192557779
      ],
      [
        "ve",
        -7.791092773075842
      ],
      [
        "ro",
        -7.793200365912297
      ],
      [
        "▁office",
        -7.796817288211386
      ],
      [
        "▁high",
        -7.800442036530715
      ],
      [
        "▁couple",
        -7.813076822154464
      ],
      [
        "▁job",
        -7.814000401999077
      ],
      [
        "▁care",
        -7.816644962684395
      ],
      [
        "▁debate",
        -7.824630926570076
      ],
      [
        "▁got",
        -7.830449454994019
      ],
      [
        "▁20",
        -7.830915119156225
      ],
      [
        "▁them",
        -7.832417308761932
      ],
      [
        "el",
        -7.833980177011225
      ],
      [
        "▁thing",
        -7.834375379436536
      ],
      [
        "▁read",
        -7.834390225944283
      ],
      [
        "ist",
        -7.8358652606019135
      ],
      [
        "▁another",
        -7.8431111193115655
      ],
      [
        "▁use",
        -7.845485324787963
      ],
      [
        "ia",
        -7.845617652352579
      ],
      [
        "▁great",
        -7.848745002615135
      ],
      [
        "▁north",
        -7.849672653931293
      ],
      [
        "▁mother",
        -7.850068710679314
      ],
      [
        "▁sex",
        -7.855403779851544
      ],
      [
        "▁friend",
        -7.860401914774208
      ],
      [
        "▁made",
        -7.864649902146709
      ],
      [
        "▁bad",
        -7.865970107365889
      ],
      [
        "▁takes",
        -7.8683760330025665
      ],
      [
        "▁release",
        -7.876782030678747
      ],
      [
        "ish",
        -7.8836036378110546
      ],
      [
        "▁attack",
        -7.888139402637401
      ],
      [
        "▁learn",
        -7.88827931109499
      ],
      [
        "▁finally",
        -7.890367120766695
      ],
      [
        "▁here'",
        -7.893591476752953
      ],
      [
        "▁season",
        -7.895312173013783
      ],
      [
        "--",
        -7.89924975154692
      ],
      [
        "▁men",
        -7.900951337275322
      ],
      [
        "▁much",
        -7.901700084753738
      ],
      [
        "▁deal",
        -7.903755920447397
      ],
      [
        "lo",
        -7.909863457747034
      ],
      [
        "▁run",
        -7.9102017005178675
      ],
      [
        "ting",
        -7.910287763544955
      ],
      [
        "▁v",
        -7.911685823258524
      ],
      [
        "▁ever",
        -7.912803983631838
      ],
      [
        "▁con",
        -7.916609350086378
      ],
      [
        "▁been",
        -7.917984324341892
      ],
      [
        "▁face",
        -7.925291482374809
      ],
      [
        "ive",
        -7.926312425863979
      ],
      [
        "▁j",
        -7.926443073411029
      ],
      [
        "▁put",
        -7.927296900266907
      ],
      [
        "▁food",
        -7.929333481320921
      ],
      [
        "▁actually",
        -7.929533127397538
      ],
      [
        "▁spend",
        -7.9300729829704215
      ],
      [
        "is",
        -7.930245329948821
      ],
      [
        "▁8",
        -7.930341790350249
      ],
      [
        "▁game",
        -7.9311012035362705
      ],
      [
        "z",
        -7.934435124107852
      ],
      [
        "▁c",
        -7.939182812251372
      ],
      [
        "▁line",
        -7.942424031546571
      ],
      [
        "▁found",
        -7.9448673758714685
      ],
      [
        "▁two",
        -7.946744542766625
      ],
      [
        "▁shooting",
        -7.948200013132399
      ],
      [
        "▁had",
        -7.951606631544083
      ],
      [
        "▁film",
        -7.951637874686657
      ],
      [
        "na",
        -7.955934911890175
      ],
      [
        "▁name",
        -7.9560349083522794
      ],
      [
        "▁leave",
        -7.956333947971844
      ],
      [
        "ta",
        -7.957814099290938
      ],
      [
        "▁teen",
        -7.95940169085016
      ],
      [
        "il",
        -7.959924247474598
      ],
      [
        "et",
        -7.9599366114828225
      ],
      [
        "▁national",
        -7.96010101524487
      ],
      [
        "▁senate",
        -7.963691542291083
      ],
      [
        "▁money",
        -7.963758991729963
      ],
      [
        "▁paul",
        -7.963992948485585
      ],
      [
        "▁reveals",
        -7.9658700338210515
      ],
      [
        "▁fire",
        -7.970343401621627
      ],
      [
        "▁support",
        -7.973916127711139
      ],
      [
        "ne",
        -7.975257963702651
      ],
      [
        "▁long",
        -7.977074341180773
      ],
      [
        "▁entire",
        -7.977688175256012
      ],
      [
        "▁everyone",
        -7.97827857961923
      ],
      [
        "▁god",
        -7.979061216539662
      ],
      [
        "ce",
        -7.9793701080821275
      ],
      [
        "▁sexual",
        -7.981019342267994
      ],
      [
        "▁st",
        -7.98308496031638
      ],
      [
        "x",
        -7.986562051429868
      ],
      [
        "▁power",
        -7.989380580365067
      ],
      [
        "▁york",
        -7.989792577936271
      ],
      [
        "▁pay",
        -7.994241320315451
      ],
      [
        "ton",
        -7.996366478647302
      ],
      [
        "▁better",
        -8.000129119137197
      ],
      [
        "▁late",
        -8.006972455300241
      ],
      [
        "▁facebook",
        -8.007371244540852
      ],
      [
        "▁introduce",
        -8.007532487909128
      ],
      [
        "us",
        -8.008168561426167
      ],
      [
        "▁media",
        -8.009491028319214
      ],
      [
        "-year-old",
        -8.010435460261753
      ],
      [
        "▁kill",
        -8.013363144069562
      ],
      [
        "▁movie",
        -8.013900806053536
      ],
      [
        "won't",
        -8.014335263498484
      ],
      [
        "▁climate",
        -8.014779733709997
      ],
      [
        "▁vote",
        -8.0180204025701
      ],
      [
        "id",
        -8.018879849114459
      ],
      [
        "▁business",
        -8.020569914990851
      ],
      [
        "▁return",
        -8.022280123082076
      ],
      [
        "▁father",
        -8.022348373412395
      ],
      [
        "▁super",
        -8.023246622801429
      ],
      [
        "▁top",
        -8.024970489035129
      ],
      [
        "▁feel",
        -8.02739178685815
      ],
      [
        "ant",
        -8.02798046903846
      ],
      [
        "▁old",
        -8.030275089160163
      ],
      [
        "▁city",
        -8.030694165190246
      ],
      [
        "▁free",
        -8.030937011369414
      ],
      [
        "▁second",
        -8.031141509854415
      ],
      [
        "▁part",
        -8.033093537737965
      ],
      [
        "▁away",
        -8.036238060653657
      ],
      [
        "ent",
        -8.037171568094239
      ],
      [
        "▁enough",
        -8.037489488987845
      ],
      [
        "▁break",
        -8.042332478925376
      ],
      [
        "ma",
        -8.04256984832594
      ],
      [
        "▁story",
        -8.04561450658361
      ],
      [
        "▁pope",
        -8.047000755617422
      ],
      [
        "▁bar",
        -8.059115592234702
      ],
      [
        "▁group",
        -8.061090786819515
      ],
      [
        "▁perfect",
        -8.061580512145756
      ],
      [
        "▁self",
        -8.066845892790905
      ],
      [
        "▁k",
        -8.066966120454651
      ],
      [
        "▁government",
        -8.068771052663243
      ],
      [
        "▁law",
        -8.069409999235233
      ],
      [
        "▁book",
        -8.070020206680319
      ],
      [
        "▁body",
        -8.070188171640527
      ],
      [
        "▁any",
        -8.073888210368562
      ],
      [
        "▁children",
        -8.074788033254842
      ],
      [
        "ies",
        -8.075566260943283
      ],
      [
        "▁public",
        -8.075882802949941
      ],
      [
        "▁unveil",
        -8.076557258516415
      ],
      [
        "▁sanders",
        -8.076792430432771
      ],
      [
        "▁ban",
        -8.083181776742277
      ],
      [
        "▁bet",
        -8.084426210793303
      ],
      [
        "▁company",
        -8.084557893612715
      ],
      [
        "▁secret",
        -8.087354142392078
      ],
      [
        "▁'i",
        -8.087927030466716
      ],
      [
        "ness",
        -8.090498651576198
      ],
      [
        "am",
        -8.090818106443432
      ],
      [
        "▁history",
        -8.092625401231581
      ],
      [
        "▁girl",
        -8.09818224129161
      ],
      [
        "▁students",
        -8.099102407472857
      ],
      [
        "▁suprem",
        -8.100749357748171
      ],
      [
        "▁bring",
        -8.100862417616952
      ],
      [
        "▁question",
        -8.10092133874764
      ],
      [
        "▁order",
        -8.101318872153403
      ],
      [
        "▁move",
        -8.101855244961836
      ],
      [
        "▁head",
        -8.10237632164478
      ],
      [
        "ian",
        -8.103110130022863
      ],
      [
        "▁find",
        -8.103576094234585
      ],
      [
        "▁single",
        -8.108461392280237
      ],
      [
        "▁tv",
        -8.109641783777194
      ],
      [
        "to",
        -8.10986096342405
      ],
      [
        "▁speech",
        -8.117212520964348
      ],
      [
        "▁poll",
        -8.117708076215068
      ],
      [
        "▁human",
        -8.121442331351936
      ],
      [
        "▁set",
        -8.123419171192452
      ],
      [
        "▁making",
        -8.1271278655653
      ],
      [
        "&",
        -8.13393981703959
      ],
      [
        "▁already",
        -8.13394920755389
      ],
      [
        "▁heart",
        -8.13874474535172
      ],
      [
        "la",
        -8.140799369969844
      ],
      [
        "▁ad",
        -8.141920521408158
      ],
      [
        "ally",
        -8.14758736881689
      ],
      [
        "▁win",
        -8.149283393671354
      ],
      [
        "▁al",
        -8.15138321842437
      ],
      [
        "co",
        -8.154905746307437
      ],
      [
        "▁case",
        -8.157178583754032
      ],
      [
        "▁buy",
        -8.160400576831286
      ],
      [
        "▁same",
        -8.160609937324606
      ],
      [
        "ca",
        -8.1648344737992
      ],
      [
        "▁talk",
        -8.167965250694659
      ],
      [
        "▁wedding",
        -8.168290619331597
      ],
      [
        "▁social",
        -8.168364747368514
      ],
      [
        "▁friends",
        -8.170591218494259
      ],
      [
        "▁hold",
        -8.17193070152717
      ],
      [
        "▁m",
        -8.172425680738268
      ],
      [
        "▁post",
        -8.177583926355194
      ],
      [
        "▁must",
        -8.178607354591435
      ],
      [
        "▁prett",
        -8.181801601655263
      ],
      [
        "ck",
        -8.183221825343432
      ],
      [
        "▁major",
        -8.18590877843209
      ],
      [
        "▁hav",
        -8.18846281888083
      ],
      [
        "▁room",
        -8.18852550837302
      ],
      [
        "▁hot",
        -8.189060297741278
      ],
      [
        "ol",
        -8.190365381956637
      ],
      [
        "go",
        -8.191970588615034
      ],
      [
        "▁red",
        -8.192052732638771
      ],
      [
        "▁f",
        -8.196428995073784
      ],
      [
        "▁former",
        -8.199402069067107
      ],
      [
        "▁rock",
        -8.201826437721978
      ],
      [
        "▁team",
        -8.204101003863132
      ],
      [
        "▁country",
        -8.204140550070544
      ],
      [
        "▁place",
        -8.206164870158197
      ],
      [
        "▁nation'",
        -8.2063186237939
      ],
      [
        "ance",
        -8.208415472188593
      ],
      [
        "▁ways",
        -8.210360499766157
      ],
      [
        "▁am",
        -8.211983438358786
      ],
      [
        "ty",
        -8.21209600374216
      ],
      [
        "▁complete",
        -8.212940157444596
      ],
      [
        "▁ceo",
        -8.212982951706154
      ],
      [
        "▁republican",
        -8.214776376757658
      ],
      [
        "▁student",
        -8.21478507138205
      ],
      [
        "land",
        -8.217788392228062
      ],
      [
        "▁cat",
        -8.218024882053317
      ],
      [
        "um",
        -8.21877236881681
      ],
      [
        "▁cover",
        -8.220864262426215
      ],
      [
        "▁throw",
        -8.222113795483807
      ],
      [
        "▁race",
        -8.222299613202942
      ],
      [
        "▁future",
        -8.222346178498533
      ],
      [
        "▁presidential",
        -8.22256312822832
      ],
      [
        "▁he'",
        -8.223261931367926
      ],
      [
        "▁boy",
        -8.229720003546404
      ],
      [
        "▁didn't",
        -8.232019140413549
      ],
      [
        "▁record",
        -8.232959706739532
      ],
      [
        "▁behind",
        -8.240716595275288
      ],
      [
        "▁celebrate",
        -8.24071711824745
      ],
      [
        "▁korea",
        -8.240734431327487
      ],
      [
        "mo",
        -8.241315631630254
      ],
      [
        "▁mo",
        -8.24170705285983
      ],
      [
        "up",
        -8.244395518045826
      ],
      [
        "ul",
        -8.245698204423338
      ],
      [
        "▁tax",
        -8.249006278221145
      ],
      [
        "▁water",
        -8.252387725801954
      ],
      [
        "▁co",
        -8.256772231561307
      ],
      [
        "▁w",
        -8.258350793207535
      ],
      [
        "▁its",
        -8.258374436545068
      ],
      [
        "▁stand",
        -8.262039839908736
      ],
      [
        "▁coming",
        -8.262174794116294
      ],
      [
        "each",
        -8.269667594461307
      ],
      [
        "▁james",
        -8.269717846721964
      ],
      [
        "▁save",
        -8.272708912627794
      ],
      [
        "▁email",
        -8.273246075862609
      ],
      [
        "▁teacher",
        -8.274975807155933
      ],
      [
        "▁news",
        -8.276740633553903
      ],
      [
        "▁hard",
        -8.278766506111904
      ],
      [
        "▁christmas",
        -8.27918928725173
      ],
      [
        "▁la",
        -8.279543389100134
      ],
      [
        "ween",
        -8.27955359636212
      ],
      [
        "▁clear",
        -8.27957809331544
      ],
      [
        "▁something",
        -8.280071101704081
      ],
      [
        "ous",
        -8.281557341626513
      ],
      [
        "▁9",
        -8.283455239978853
      ],
      [
        "▁scientists",
        -8.286414593007162
      ],
      [
        "▁demand",
        -8.288811031322844
      ],
      [
        "▁might",
        -8.288880326378738
      ],
      [
        "▁judge",
        -8.288880525203641
      ],
      [
        "pe",
        -8.289903830768795
      ],
      [
        "▁personal",
        -8.29327482759005
      ],
      [
        "▁fans",
        -8.29664298325465
      ],
      [
        "▁t",
        -8.297546350356608
      ],
      [
        "▁security",
        -8.29938941499999
      ],
      [
        "▁add",
        -8.300156773036328
      ],
      [
        "▁offer",
        -8.301549492168707
      ],
      [
        "▁art",
        -8.30374647829759
      ],
      [
        "▁believe",
        -8.308016846107055
      ],
      [
        "▁senator",
        -8.308728559774606
      ],
      [
        "▁morning",
        -8.309020021044809
      ],
      [
        "▁visit",
        -8.31434575942253
      ],
      [
        "▁pu",
        -8.315010769102557
      ],
      [
        "▁list",
        -8.315022644337931
      ],
      [
        "▁air",
        -8.315713977719227
      ],
      [
        "▁voters",
        -8.315738487174801
      ],
      [
        "▁doing",
        -8.316240997376175
      ],
      [
        "▁follow",
        -8.318804339369244
      ],
      [
        "▁marriage",
        -8.318811991491813
      ],
      [
        "▁ryan",
        -8.318825186914584
      ],
      [
        "▁thought",
        -8.318935008774666
      ],
      [
        "▁d",
        -8.325471494013055
      ],
      [
        "▁dream",
        -8.32608947126892
      ],
      [
        "ter",
        -8.328139304922349
      ],
      [
        "▁once",
        -8.328589051111521
      ],
      [
        "▁surprise",
        -8.329008378613393
      ],
      [
        "▁michael",
        -8.329008389448731
      ],
      [
        "▁past",
        -8.329153668461647
      ],
      [
        "▁here",
        -8.335791748947997
      ],
      [
        "▁person",
        -8.336688503919373
      ],
      [
        "▁music",
        -8.337940915213618
      ],
      [
        "▁pro",
        -8.338652710416167
      ],
      [
        "▁2016",
        -8.339317706987352
      ],
      [
        "▁service",
        -8.339644091422151
      ],
      [
        "▁sure",
        -8.34006988820236
      ],
      [
        "▁goes",
        -8.344727844167027
      ],
      [
        "▁forced",
        -8.34523331982271
      ],
      [
        "▁asks",
        -8.345698951158635
      ],
      [
        "▁claims",
        -8.346227593053186
      ],
      [
        "▁idea",
        -8.348700100500182
      ],
      [
        "▁violence",
        -8.349734331232321
      ],
      [
        "▁wife",
        -8.34973679354448
      ],
      [
        "▁photos",
        -8.349746343882885
      ],
      [
        "▁wall",
        -8.350031087339575
      ],
      [
        "▁pull",
        -8.350419022234679
      ],
      [
        "'m",
        -8.351667212750725
      ],
      [
        "▁admits",
        -8.354254971500328
      ],
      [
        "▁control",
        -8.356442899537956
      ],
      [
        "▁republicans",
        -8.358193061081678
      ],
      [
        "▁runn",
        -8.358234594460523
      ],
      [
        "4",
        -8.360046059505459
      ],
      [
        "▁photo",
        -8.360075490049457
      ],
      [
        "▁because",
        -8.360260790947825
      ],
      [
        "▁attempt",
        -8.360261623798028
      ],
      [
        "▁department",
        -8.360314717192319
      ],
      [
        "▁discover",
        -8.361184895687595
      ],
      [
        "▁shot",
        -8.363004363342599
      ],
      [
        "ok",
        -8.363524161798566
      ],
      [
        "▁were",
        -8.36357249338749
      ],
      [
        "▁meet",
        -8.363637763067501
      ],
      [
        "▁used",
        -8.364502558211864
      ],
      [
        "▁democrats",
        -8.365131926776424
      ],
      [
        "▁speak",
        -8.365353493076626
      ],
      [
        "ine",
        -8.368608398485756
      ],
      [
        "▁california",
        -8.370898931743906
      ],
      [
        "▁candidate",
        -8.37111957852248
      ],
      [
        "▁explain",
        -8.371863127715574
      ],
      [
        "▁mark",
        -8.372683080556675
      ],
      [
        "▁send",
        -8.372859870738779
      ],
      [
        "▁lose",
        -8.372867586539297
      ],
      [
        "▁chris",
        -8.373393351709492
      ],
      [
        "▁killed",
        -8.373997114049047
      ],
      [
        "self",
        -8.374533875727888
      ],
      [
        "▁hand",
        -8.375103582181858
      ],
      [
        "▁h",
        -8.377289789254002
      ],
      [
        "▁employee",
        -8.382667525357938
      ],
      [
        "▁world's",
        -8.382863315392536
      ],
      [
        "▁shit",
        -8.385427904634316
      ],
      [
        "▁middle",
        -8.387922093415984
      ],
      [
        "ism",
        -8.388966898916262
      ],
      [
        "▁sign",
        -8.392467034304207
      ],
      [
        "▁holiday",
        -8.392521226017639
      ],
      [
        "▁twitter",
        -8.39252123977131
      ],
      [
        "▁political",
        -8.392522082871025
      ],
      [
        "▁allow",
        -8.392650275692358
      ],
      [
        "▁become",
        -8.393398872565744
      ],
      [
        "▁bernie",
        -8.403596580823226
      ],
      [
        "▁daughter",
        -8.404058210891531
      ],
      [
        "▁town",
        -8.404431043569577
      ],
      [
        "▁check",
        -8.404633118837594
      ],
      [
        "▁summer",
        -8.4047252236568
      ],
      [
        "▁today",
        -8.40482449001615
      ],
      [
        "▁inside",
        -8.405054983574622
      ],
      [
        "▁unti",
        -8.407087029987899
      ],
      [
        "▁fan",
        -8.408071196967274
      ],
      [
        "▁anti-",
        -8.41144761235753
      ],
      [
        "ad",
        -8.412137160034773
      ],
      [
        "ke",
        -8.412721986397337
      ],
      [
        "▁ro",
        -8.4128390119916
      ],
      [
        "▁always",
        -8.414638166126082
      ],
      [
        "▁near",
        -8.414755627018032
      ],
      [
        "▁director",
        -8.416819871591073
      ],
      [
        "▁minutes",
        -8.417563275167584
      ],
      [
        "ba",
        -8.425109128311856
      ],
      [
        "▁murder",
        -8.425858095149087
      ],
      [
        "way",
        -8.428530142417532
      ],
      [
        "da",
        -8.42950474855673
      ],
      [
        "▁kid",
        -8.430118929177194
      ],
      [
        "▁sleep",
        -8.43030280753689
      ],
      [
        "▁park",
        -8.432815279509866
      ],
      [
        "▁ice",
        -8.434125715474327
      ],
      [
        "ling",
        -8.437387501577073
      ],
      [
        "hood",
        -8.437509113418336
      ],
      [
        "▁justice",
        -8.438266384442457
      ],
      [
        "▁letter",
        -8.438736464144393
      ],
      [
        "▁moment",
        -8.438799703177882
      ],
      [
        "▁kind",
        -8.439075827485297
      ],
      [
        "▁host",
        -8.439078131861752
      ],
      [
        "▁travel",
        -8.439314080002656
      ],
      [
        "▁rights",
        -8.441263148848023
      ],
      [
        "▁far",
        -8.441851048320071
      ],
      [
        "▁looking",
        -8.44647657763339
      ],
      [
        "▁full",
        -8.446998591479367
      ],
      [
        "▁everything",
        -8.448751287854698
      ],
      [
        "▁market",
        -8.44918383447397
      ],
      [
        "at",
        -8.452151356599016
      ],
      [
        "▁test",
        -8.454326699434258
      ],
      [
        "▁age",
        -8.455832777099722
      ],
      [
        "▁cop",
        -8.457531654225974
      ],
      [
        "▁restaurant",
        -8.46056663820062
      ],
      [
        "▁female",
        -8.461372612661108
      ],
      [
        "▁12",
        -8.4658946393579
      ],
      [
        "▁russia",
        -8.469182906258975
      ],
      [
        "'ve",
        -8.471119576090286
      ],
      [
        "▁wrong",
        -8.472130716092316
      ],
      [
        "▁urge",
        -8.472131007542938
      ],
      [
        "▁taking",
        -8.472189941358508
      ],
      [
        "▁living",
        -8.472630629624728
      ],
      [
        "▁three",
        -8.473003494236615
      ],
      [
        "and",
        -8.475775127604553
      ],
      [
        "▁democrat",
        -8.478528006756036
      ],
      [
        "▁warns",
        -8.4791391110767
      ],
      [
        "me",
        -8.4797523095955
      ],
      [
        "▁meeting",
        -8.480186153498124
      ],
      [
        "3",
        -8.482902695444029
      ],
      [
        "▁close",
        -8.48351224103687
      ],
      [
        "▁iran",
        -8.483718817455156
      ],
      [
        "▁left",
        -8.483923138117818
      ],
      [
        "▁assault",
        -8.48401252846225
      ],
      [
        "▁system",
        -8.484018521301483
      ],
      [
        "▁mike",
        -8.484067182094662
      ],
      [
        "▁earth",
        -8.484222430785184
      ],
      [
        "▁few",
        -8.484382810017088
      ],
      [
        "▁biden",
        -8.484469293196916
      ],
      [
        "▁owner",
        -8.485388476239205
      ],
      [
        "▁dies",
        -8.486292468247846
      ],
      [
        "der",
        -8.488051635610551
      ],
      [
        "▁1",
        -8.488491855621751
      ],
      [
        "ac",
        -8.4885642526139
      ],
      [
        "▁street",
        -8.490636352634802
      ],
      [
        "▁did",
        -8.492809404493304
      ],
      [
        "▁trans",
        -8.494160012582636
      ],
      [
        "▁share",
        -8.495019523169404
      ],
      [
        "▁obamacare",
        -8.496064703648354
      ],
      [
        "▁hate",
        -8.496546608057123
      ],
      [
        "▁phone",
        -8.498269900980796
      ],
      [
        "▁act",
        -8.498362194845608
      ],
      [
        "▁plans",
        -8.49854644978522
      ],
      [
        "hi",
        -8.498647721840557
      ],
      [
        "▁class",
        -8.502924108405498
      ],
      [
        "1",
        -8.503120796110256
      ],
      [
        "q",
        -8.507430731700225
      ],
      [
        "▁cruz",
        -8.508256001884083
      ],
      [
        "▁kim",
        -8.508277130584986
      ],
      [
        "▁cancer",
        -8.508292005854607
      ],
      [
        "▁secretary",
        -8.508552904104066
      ],
      [
        "▁missing",
        -8.508594913063638
      ],
      [
        "▁wild",
        -8.508906076788524
      ],
      [
        "2",
        -8.509774806866368
      ],
      [
        "▁thousands",
        -8.511367698348153
      ],
      [
        "ti",
        -8.514258470974102
      ],
      [
        "▁very",
        -8.514961338968567
      ],
      [
        "cy",
        -8.516613565143516
      ],
      [
        "ha",
        -8.518550648480678
      ],
      [
        "▁king",
        -8.519824468932756
      ],
      [
        "om",
        -8.519937148531277
      ],
      [
        "▁georg",
        -8.52020942768832
      ],
      [
        "▁per",
        -8.520523795451709
      ],
      [
        "▁working",
        -8.523141257352684
      ],
      [
        "▁lot",
        -8.523329043947367
      ],
      [
        "▁box",
        -8.524521396118374
      ],
      [
        "-up",
        -8.526893071110173
      ],
      [
        "▁pre",
        -8.52907796492796
      ],
      [
        "9",
        -8.529942429046695
      ],
      [
        "▁young",
        -8.53207750760884
      ],
      [
        "▁force",
        -8.532186385222483
      ],
      [
        "▁many",
        -8.53229105565315
      ],
      [
        "▁someone",
        -8.533656051856337
      ],
      [
        "0",
        -8.533824027562193
      ],
      [
        "za",
        -8.533852239153003
      ],
      [
        "▁cut",
        -8.536015827163162
      ],
      [
        "▁30",
        -8.537230608969423
      ],
      [
        "▁protest",
        -8.541340571847067
      ],
      [
        "▁prison",
        -8.541666480656712
      ],
      [
        "▁small",
        -8.542363125033852
      ],
      [
        "▁relationship",
        -8.545759804162943
      ],
      [
        "probably",
        -8.545759887370433
      ],
      [
        "▁together",
        -8.546164782922247
      ],
      [
        "▁march",
        -8.546266089268034
      ],
      [
        "▁total",
        -8.54888627940899
      ],
      [
        "▁pass",
        -8.549115495360141
      ],
      [
        "▁ted",
        -8.554660241060496
      ],
      [
        "▁well",
        -8.55468851199616
      ],
      [
        "j",
        -8.555635977102298
      ],
      [
        "▁pick",
        -8.55684836411995
      ],
      [
        "▁sh",
        -8.557199568656422
      ],
      [
        "▁drug",
        -8.557366661425593
      ],
      [
        "▁sea",
        -8.557737957445891
      ],
      [
        "▁administration",
        -8.558580260693873
      ],
      [
        "▁interview",
        -8.558593897016037
      ],
      [
        "ful",
        -8.559821314986712
      ],
      [
        "▁charge",
        -8.559837891443925
      ],
      [
        "▁dress",
        -8.56074924181532
      ],
      [
        "ther",
        -8.561194779172746
      ],
      [
        "line",
        -8.562748086206003
      ],
      [
        "▁billion",
        -8.563310341108776
      ],
      [
        "▁guide",
        -8.564400645611045
      ],
      [
        "▁hear",
        -8.565821588227717
      ],
      [
        "▁mean",
        -8.565927389443821
      ],
      [
        "▁accuse",
        -8.568370395855986
      ],
      [
        "▁honor",
        -8.569827914758473
      ],
      [
        "ary",
        -8.57001204482225
      ],
      [
        "▁month",
        -8.570587715090344
      ],
      [
        "▁texas",
        -8.571567503151572
      ],
      [
        "▁key",
        -8.573664006919941
      ],
      [
        "▁artist",
        -8.57413514002328
      ],
      [
        "▁light",
        -8.575244282019847
      ],
      [
        "▁po",
        -8.575504710788865
      ],
      [
        "▁push",
        -8.579961807414632
      ],
      [
        "▁fall",
        -8.580987427645908
      ],
      [
        "▁hours",
        -8.58182454529291
      ],
      [
        "▁realize",
        -8.582681913138064
      ],
      [
        "▁giving",
        -8.584725283797479
      ],
      [
        "▁voice",
        -8.584726022225365
      ],
      [
        "▁stay",
        -8.58490047922021
      ],
      [
        "▁hit",
        -8.58520869412381
      ],
      [
        "▁die",
        -8.5864883921463
      ],
      [
        "no",
        -8.588209807006475
      ],
      [
        "▁l",
        -8.588626931170914
      ],
      [
        "▁girls",
        -8.591974596411706
      ],
      [
        "▁officials",
        -8.597518570203107
      ],
      [
        "▁francis",
        -8.597791173786113
      ],
      [
        "▁trip",
        -8.59785391221397
      ],
      [
        "▁girlfriend",
        -8.598058501751652
      ],
      [
        "▁special",
        -8.598058684072484
      ],
      [
        "▁rise",
        -8.598704096496167
      ],
      [
        "▁excited",
        -8.598719006652374
      ],
      [
        "▁official",
        -8.60044889989809
      ],
      [
        "▁south",
        -8.601475839637661
      ],
      [
        "ot",
        -8.603068382126782
      ],
      [
        "▁protect",
        -8.609874058755745
      ],
      [
        "▁romney",
        -8.611572662986692
      ],
      [
        "▁fox",
        -8.61171702754301
      ],
      [
        "▁ben",
        -8.612043180768076
      ],
      [
        "▁gift",
        -8.612305879292588
      ],
      [
        "▁outside",
        -8.612814419049386
      ],
      [
        "▁eating",
        -8.614548537682786
      ],
      [
        "▁point",
        -8.615642646128801
      ],
      [
        "▁fun",
        -8.617356020465587
      ],
      [
        "▁remind",
        -8.619539218838288
      ],
      [
        "▁15",
        -8.6201932524873
      ],
      [
        "▁isis",
        -8.622191244856293
      ],
      [
        "▁lgbt",
        -8.625270649263516
      ],
      [
        "ated",
        -8.625361281857781
      ],
      [
        "▁fbi",
        -8.625391890635544
      ],
      [
        "▁china",
        -8.625409504998544
      ],
      [
        "▁yet",
        -8.62542720730838
      ],
      [
        "▁washington",
        -8.625716549073664
      ],
      [
        "▁education",
        -8.625751638472284
      ],
      [
        "▁land",
        -8.628983653115313
      ],
      [
        "un",
        -8.630928418763869
      ],
      [
        "▁side",
        -8.631439168748592
      ],
      [
        "▁union",
        -8.631964300485581
      ],
      [
        "▁le",
        -8.632538650358843
      ],
      [
        "▁reason",
        -8.635264450622628
      ],
      [
        "▁confirm",
        -8.638571811379991
      ],
      [
        "▁states",
        -8.638605391716725
      ],
      [
        "▁chief",
        -8.639161269675764
      ],
      [
        "▁internet",
        -8.639288518963188
      ],
      [
        "▁crisis",
        -8.639607005581535
      ],
      [
        "▁fail",
        -8.639738355900523
      ],
      [
        "▁front",
        -8.641007344420174
      ],
      [
        "▁russian",
        -8.642627933481243
      ],
      [
        "5",
        -8.649678582433474
      ],
      [
        "ny",
        -8.650704216490775
      ],
      [
        "▁lives",
        -8.652481363758284
      ],
      [
        "▁different",
        -8.653244041698997
      ],
      [
        "▁blood",
        -8.653245444372981
      ],
      [
        "▁military",
        -8.653248119492478
      ],
      [
        "▁hollywood",
        -8.65325613512627
      ],
      [
        "▁birthday",
        -8.653349030464934
      ],
      [
        "▁percent",
        -8.653376280100181
      ],
      [
        "▁defend",
        -8.653586388319088
      ],
      [
        "▁mental",
        -8.653969543077555
      ],
      [
        "▁parent",
        -8.654239657189375
      ],
      [
        "▁nothing",
        -8.654327049043319
      ],
      [
        "▁talks",
        -8.654631864261617
      ],
      [
        "▁date",
        -8.655146032309078
      ],
      [
        "▁r",
        -8.657851594026267
      ],
      [
        "▁looks",
        -8.658323811673045
      ],
      [
        "▁di",
        -8.658943685894382
      ],
      [
        "▁create",
        -8.660170821167794
      ],
      [
        "ner",
        -8.66590620708226
      ],
      [
        "lost",
        -8.666310636259624
      ],
      [
        ",000",
        -8.666714417870704
      ],
      [
        "▁raise",
        -8.666793954039015
      ],
      [
        "per",
        -8.667368364115376
      ],
      [
        "▁federal",
        -8.667532782167505
      ],
      [
        "▁since",
        -8.667633065816961
      ],
      [
        "▁scott",
        -8.667763412684646
      ],
      [
        "▁steph",
        -8.668289882966796
      ],
      [
        "▁#",
        -8.668524638689163
      ],
      [
        "▁sit",
        -8.669565638886885
      ],
      [
        "▁mass",
        -8.669627534802924
      ],
      [
        "▁wins",
        -8.67099307055771
      ],
      [
        "▁online",
        -8.675158184885806
      ],
      [
        "▁'f",
        -8.677200393698127
      ],
      [
        "▁'c",
        -8.678173662778644
      ],
      [
        "0,000",
        -8.678313975345294
      ],
      [
        "▁needs",
        -8.678664143405154
      ],
      [
        "ley",
        -8.680181710041285
      ],
      [
        "▁conversation",
        -8.68202251555796
      ],
      [
        "▁vow",
        -8.682025613940223
      ],
      [
        "▁community",
        -8.68207092684959
      ],
      [
        "▁sound",
        -8.682519281689066
      ],
      [
        "▁lesson",
        -8.683456953072815
      ],
      [
        "▁birth",
        -8.684028683926403
      ],
      [
        "▁tips",
        -8.685160943435246
      ],
      [
        "▁eat",
        -8.68564607745456
      ],
      [
        "▁less",
        -8.688875954247024
      ],
      [
        "▁experience",
        -8.689673946323907
      ],
      [
        "▁prince",
        -8.69433322775592
      ],
      [
        "▁wait",
        -8.696702895765092
      ],
      [
        "▁those",
        -8.696728499773561
      ],
      [
        "▁florida",
        -8.696728569149599
      ],
      [
        "▁nuclear",
        -8.696733949733135
      ],
      [
        "▁recall",
        -8.696755208950224
      ],
      [
        "▁worrie",
        -8.69676099435589
      ],
      [
        "▁sick",
        -8.697347664988973
      ],
      [
        "\"",
        -8.69913811813689
      ],
      [
        "▁space",
        -8.69937054939362
      ],
      [
        "▁ask",
        -8.701234463130927
      ],
      [
        "▁times",
        -8.701685747658287
      ],
      [
        "▁hall",
        -8.701722522313942
      ],
      [
        "▁problem",
        -8.703094616611743
      ],
      [
        "ions",
        -8.703673393829625
      ],
      [
        "mi",
        -8.704630954185264
      ],
      [
        "▁fear",
        -8.70507321801229
      ],
      [
        "▁word",
        -8.707594884158809
      ],
      [
        "▁store",
        -8.708449429800163
      ],
      [
        "min",
        -8.709156344570548
      ],
      [
        "▁watching",
        -8.711238386615204
      ],
      [
        "▁response",
        -8.711653765049892
      ],
      [
        "▁mueller",
        -8.711654135312692
      ],
      [
        "▁quiet",
        -8.711655955954196
      ],
      [
        "▁investigation",
        -8.711827027681519
      ],
      [
        "▁talking",
        -8.712341031215221
      ],
      [
        "▁apple",
        -8.712456144566463
      ],
      [
        "ate",
        -8.713957962820809
      ],
      [
        "6",
        -8.717473926261313
      ],
      [
        "▁suspect",
        -8.718080816504804
      ],
      [
        "▁breaking",
        -8.719976855857672
      ],
      [
        "▁bus",
        -8.72196097567057
      ],
      [
        "ze",
        -8.724802241609332
      ],
      [
        "▁train",
        -8.725481597915739
      ],
      [
        "▁expect",
        -8.72677405363988
      ],
      [
        "▁enjoy",
        -8.72680549410721
      ],
      [
        "▁search",
        -8.726808045605889
      ],
      [
        "▁hope",
        -8.727015968159066
      ],
      [
        "▁message",
        -8.727117248857422
      ],
      [
        "▁road",
        -8.727124350652861
      ],
      [
        "▁enter",
        -8.727261374062486
      ],
      [
        "▁beautiful",
        -8.727478278924366
      ],
      [
        "▁straight",
        -8.727478329870777
      ],
      [
        "▁tour",
        -8.727679706739954
      ],
      [
        "▁months",
        -8.727965094678865
      ],
      [
        "▁hair",
        -8.728485601429046
      ],
      [
        "▁congressman",
        -8.728705509841582
      ],
      [
        "▁press",
        -8.733527148341999
      ],
      [
        "one",
        -8.736407840580664
      ],
      [
        "▁recommend",
        -8.742189895316042
      ],
      [
        "▁remain",
        -8.74219180802382
      ],
      [
        "▁series",
        -8.742219237767797
      ],
      [
        "▁mis",
        -8.742566793879341
      ],
      [
        "▁pence",
        -8.742608051755255
      ],
      [
        "▁happy",
        -8.74365140047005
      ],
      [
        "ng",
        -8.743692925015894
      ],
      [
        "▁cool",
        -8.743951480875374
      ],
      [
        "▁table",
        -8.74399330587142
      ],
      [
        "▁driver",
        -8.744755522456654
      ],
      [
        "▁feeling",
        -8.747740368757032
      ],
      [
        "▁11",
        -8.748648452635978
      ],
      [
        "▁abuse",
        -8.749501300867598
      ],
      [
        "▁tweets",
        -8.75518644846453
      ],
      [
        "▁band",
        -8.755892090329858
      ],
      [
        "back",
        -8.756040896590699
      ],
      [
        "▁west",
        -8.756107620666057
      ],
      [
        "▁short",
        -8.75738147053637
      ],
      [
        "▁rules",
        -8.75770921481227
      ],
      [
        "▁crack",
        -8.757888587148262
      ],
      [
        "▁decision",
        -8.758116841579897
      ],
      [
        "▁decide",
        -8.759340133154197
      ],
      [
        "▁ex",
        -8.759743241225067
      ],
      [
        "▁join",
        -8.759765960803463
      ],
      [
        "7",
        -8.759998946933523
      ],
      [
        "▁issues",
        -8.762196346088999
      ],
      [
        "▁app",
        -8.764623959773914
      ],
      [
        "▁na",
        -8.76548196126219
      ],
      [
        "▁door",
        -8.765682025365052
      ],
      [
        "▁bo",
        -8.766170476792897
      ],
      [
        "time",
        -8.766481526621174
      ],
      [
        "immy",
        -8.768784565772847
      ],
      [
        "▁dis",
        -8.769272658127951
      ],
      [
        "▁clean",
        -8.771596974144735
      ],
      [
        "▁weird",
        -8.772101607314658
      ],
      [
        "▁suggest",
        -8.773687911833928
      ],
      [
        "▁avoid",
        -8.773687941290948
      ],
      [
        "▁anything",
        -8.773715481019458
      ],
      [
        "▁executive",
        -8.773717060519985
      ],
      [
        "▁robert",
        -8.773722656013685
      ],
      [
        "▁church",
        -8.774393491278694
      ],
      [
        "▁center",
        -8.774714711286768
      ],
      [
        "▁attacks",
        -8.774733697912646
      ],
      [
        "▁reveal",
        -8.774824318441711
      ],
      [
        "▁stage",
        -8.774975446213968
      ],
      [
        "▁huge",
        -8.775273207747139
      ],
      [
        "▁mind",
        -8.775414726477958
      ],
      [
        "▁told",
        -8.775498280924708
      ],
      [
        "▁spot",
        -8.776181533949302
      ],
      [
        "...",
        -8.776415324373861
      ],
      [
        "▁risk",
        -8.776417689403619
      ],
      [
        "▁19",
        -8.776426629623348
      ],
      [
        "▁you'",
        -8.779318062456635
      ],
      [
        "▁killing",
        -8.779913344147346
      ],
      [
        "▁days",
        -8.780394515527647
      ],
      [
        "▁whole",
        -8.78300750434854
      ],
      [
        "ho",
        -8.783609662080028
      ],
      [
        "ster",
        -8.787139594788641
      ],
      [
        "▁leader",
        -8.787902921747765
      ],
      [
        "▁third",
        -8.789816952930261
      ],
      [
        "▁huffpost",
        -8.789817082222953
      ],
      [
        "▁chinese",
        -8.789817098742564
      ],
      [
        "▁prevent",
        -8.789817362416269
      ],
      [
        "▁ho",
        -8.790139568377516
      ],
      [
        "▁favorite",
        -8.790164568425492
      ],
      [
        "mon",
        -8.79028284902307
      ],
      [
        "▁dance",
        -8.79043752367311
      ],
      [
        "▁color",
        -8.791333366611909
      ],
      [
        "▁waiting",
        -8.793230434825944
      ],
      [
        "▁worth",
        -8.793267803994942
      ],
      [
        "▁san",
        -8.795161519751044
      ],
      [
        "▁'a",
        -8.796675642502205
      ],
      [
        "ni",
        -8.79670150319837
      ],
      [
        "▁struggl",
        -8.797001558820432
      ],
      [
        "▁pet",
        -8.798242855218806
      ],
      [
        "▁promise",
        -8.799475676180165
      ],
      [
        "▁david",
        -8.801659025287192
      ],
      [
        "▁eye",
        -8.803572760923643
      ],
      [
        "▁crash",
        -8.803959127339951
      ],
      [
        "▁rest",
        -8.805139293681533
      ],
      [
        "▁wearing",
        -8.805193037590339
      ],
      [
        "▁gold",
        -8.805519835515646
      ],
      [
        "▁joe",
        -8.806089482552387
      ],
      [
        "▁taylor",
        -8.80621039960053
      ],
      [
        "▁fashion",
        -8.806210418149732
      ],
      [
        "▁2015",
        -8.806210481345094
      ],
      [
        "▁review",
        -8.806308259219962
      ],
      [
        "8",
        -8.806547731932516
      ],
      [
        "▁weekend",
        -8.806593832913212
      ],
      [
        "▁hop",
        -8.807090002046163
      ],
      [
        "▁trailer",
        -8.807166204798015
      ],
      [
        "ell",
        -8.81029158835764
      ],
      [
        "▁leaders",
        -8.811677775951285
      ],
      [
        "▁isn't",
        -8.813747047155463
      ],
      [
        "▁career",
        -8.815734834976059
      ],
      [
        "ize",
        -8.816312392628827
      ],
      [
        "▁drunk",
        -8.821715553066598
      ],
      [
        "▁amazon",
        -8.8228773363712
      ],
      [
        "▁immigration",
        -8.82287968686258
      ],
      [
        "▁resign",
        -8.82289787618108
      ],
      [
        "▁reform",
        -8.823053476939457
      ],
      [
        "▁comment",
        -8.82315076156982
      ],
      [
        "▁song",
        -8.823179889708689
      ],
      [
        "▁early",
        -8.825035367535904
      ],
      [
        "▁abortion",
        -8.825779311093408
      ],
      [
        "▁prove",
        -8.830252930346358
      ],
      [
        "▁cause",
        -8.832417039275956
      ],
      [
        "over",
        -8.833297362725627
      ],
      [
        "coming",
        -8.83492137723851
      ],
      [
        "▁what's",
        -8.835605125819598
      ],
      [
        "▁sun",
        -8.835641687509394
      ],
      [
        "▁remember",
        -8.835917440279093
      ],
      [
        "▁program",
        -8.836134965115079
      ],
      [
        "▁met",
        -8.836683422996757
      ],
      [
        "how",
        -8.836757695249329
      ],
      [
        "▁half",
        -8.836850437086325
      ],
      [
        "con",
        -8.836919920905562
      ],
      [
        "▁address",
        -8.838043052847755
      ],
      [
        "▁beat",
        -8.83838647967344
      ],
      [
        "▁accept",
        -8.83954326011664
      ],
      [
        "▁politics",
        -8.839826378225897
      ],
      [
        "▁apartment",
        -8.840033671109968
      ],
      [
        "▁massive",
        -8.840258824745424
      ],
      [
        "▁o",
        -8.841104526884319
      ],
      [
        "▁actor",
        -8.841113077502921
      ],
      [
        "▁role",
        -8.841286238828381
      ],
      [
        "▁united",
        -8.842598088530428
      ],
      [
        "ci",
        -8.842643650793445
      ],
      [
        "les",
        -8.843421847725411
      ],
      [
        "▁final",
        -8.84585793647296
      ],
      [
        "▁bigge",
        -8.849285167469137
      ],
      [
        "va",
        -8.852853936562305
      ],
      [
        "▁syria",
        -8.854137922211589
      ],
      [
        "▁el",
        -8.854991432775792
      ],
      [
        "ball",
        -8.855023775886439
      ],
      [
        "▁coworker",
        -8.855318245727652
      ],
      [
        "ph",
        -8.856125951773159
      ],
      [
        "po",
        -8.85626330081502
      ],
      [
        "▁hurricane",
        -8.857067584538367
      ],
      [
        "▁policy",
        -8.857069477979156
      ],
      [
        "▁least",
        -8.857418297778498
      ],
      [
        "ized",
        -8.858718144088252
      ],
      [
        "▁syrian",
        -8.860006719107982
      ],
      [
        "bo",
        -8.86163205267985
      ],
      [
        "ham",
        -8.863606028529526
      ],
      [
        "▁whe",
        -8.864292205220359
      ],
      [
        "▁stars",
        -8.865934986774787
      ],
      [
        "▁rep",
        -8.866710481336778
      ],
      [
        "▁sports",
        -8.868396587908803
      ],
      [
        "nt",
        -8.868928065521008
      ],
      [
        "▁non-",
        -8.870226386430922
      ],
      [
        "▁reasons",
        -8.871465792193801
      ],
      [
        "▁drop",
        -8.871644113491651
      ],
      [
        "▁mar",
        -8.8717511239314
      ],
      [
        "▁vi",
        -8.872875820532244
      ],
      [
        "▁candidates",
        -8.874274109216733
      ],
      [
        "▁target",
        -8.874611748840781
      ],
      [
        "▁lawyer",
        -8.874730749139456
      ],
      [
        "▁green",
        -8.874884956037944
      ],
      [
        "▁muslim",
        -8.87621764665645
      ],
      [
        "▁self-",
        -8.876968461482644
      ],
      [
        "do",
        -8.877363869340481
      ],
      [
        "▁treat",
        -8.87754617483171
      ],
      [
        "▁bag",
        -8.87976949673514
      ],
      [
        "ional",
        -8.880937438075604
      ],
      [
        "▁shut",
        -8.881048129121346
      ],
      [
        "▁victims",
        -8.884370336388292
      ],
      [
        "▁ra",
        -8.886904263786192
      ],
      [
        "ure",
        -8.887675526614327
      ],
      [
        "▁obama's",
        -8.889390950329243
      ],
      [
        "▁wonder",
        -8.890418208093557
      ],
      [
        "ka",
        -8.891379282089394
      ],
      [
        "▁walk",
        -8.891605001277883
      ],
      [
        "▁shop",
        -8.892097358492236
      ],
      [
        "▁kardashian",
        -8.892468587045695
      ],
      [
        "▁desperate",
        -8.892468592877336
      ],
      [
        "▁global",
        -8.892468930973457
      ],
      [
        "▁vacation",
        -8.892499397193113
      ],
      [
        "▁dinner",
        -8.892511288023982
      ],
      [
        "▁assure",
        -8.892694116975935
      ],
      [
        "▁kick",
        -8.892806287572187
      ],
      [
        "▁feature",
        -8.893150593711319
      ],
      [
        "▁blast",
        -8.893740544491646
      ],
      [
        "▁powerful",
        -8.893948295525373
      ],
      [
        "▁experts",
        -8.894243397394565
      ],
      [
        "▁track",
        -8.895458267803246
      ],
      [
        "que",
        -8.896001384689054
      ],
      [
        "ut",
        -8.897901869762478
      ],
      [
        "cross",
        -8.89816459373272
      ],
      [
        "ick",
        -8.898859675494078
      ],
      [
        "▁plane",
        -8.899422068748876
      ],
      [
        "▁threaten",
        -8.901592942127966
      ],
      [
        "▁deliver",
        -8.904353592781714
      ],
      [
        "ble",
        -8.905306759887633
      ],
      [
        "ten",
        -8.906796464232219
      ],
      [
        "ping",
        -8.907250401337574
      ],
      [
        "▁blow",
        -8.907968310971668
      ],
      [
        "▁iraq",
        -8.90806927490555
      ],
      [
        "▁hands",
        -8.909108498312843
      ],
      [
        "▁employees",
        -8.909290710183463
      ],
      [
        "▁lead",
        -8.910068617651039
      ],
      [
        "▁reporter",
        -8.910269614022596
      ],
      [
        "▁industry",
        -8.910650423888622
      ],
      [
        "▁governor",
        -8.910650439065172
      ],
      [
        "▁adorable",
        -8.91065204284254
      ],
      [
        "▁kelly",
        -8.910663521810797
      ],
      [
        "▁current",
        -8.910668176403062
      ],
      [
        "▁moving",
        -8.910679308543518
      ],
      [
        "▁touch",
        -8.91087230473806
      ],
      [
        "▁dating",
        -8.911294252989883
      ],
      [
        "▁thinking",
        -8.91129541233451
      ],
      [
        "▁oil",
        -8.91185940892898
      ],
      [
        "▁inter",
        -8.912039681757923
      ],
      [
        "▁wishes",
        -8.912326499259454
      ],
      [
        "▁battle",
        -8.912727986292978
      ],
      [
        "▁reality",
        -8.913134020878815
      ],
      [
        "▁bear",
        -8.915425285423886
      ],
      [
        "▁tom",
        -8.915649745358174
      ],
      [
        "▁miss",
        -8.915808793232143
      ],
      [
        "▁board",
        -8.916915785154726
      ],
      [
        "▁hell",
        -8.921861658566632
      ],
      [
        "▁cup",
        -8.922293913012085
      ],
      [
        "▁eli",
        -8.926882806333522
      ],
      [
        "▁commercial",
        -8.929168923768156
      ],
      [
        "▁hospital",
        -8.929168923862745
      ],
      [
        "▁audience",
        -8.929168925010872
      ],
      [
        "▁chicago",
        -8.929169037057369
      ],
      [
        "▁iowa",
        -8.929171482707863
      ],
      [
        "▁chance",
        -8.929183015245952
      ],
      [
        "▁cnn",
        -8.92919303984986
      ],
      [
        "▁rubio",
        -8.929202626302537
      ],
      [
        "▁true",
        -8.929210729899483
      ],
      [
        "▁proud",
        -8.929415264831775
      ],
      [
        "▁bowl",
        -8.929927975936303
      ],
      [
        "▁grandma",
        -8.930581237874737
      ],
      [
        "▁protester",
        -8.931350105611354
      ],
      [
        "▁number",
        -8.93173408944679
      ],
      [
        "▁oscar",
        -8.932016188203585
      ],
      [
        "▁sla",
        -8.932129904680473
      ],
      [
        "▁tweet",
        -8.932297719377523
      ],
      [
        "▁reported",
        -8.936812232684346
      ],
      [
        "▁cl",
        -8.938537176024408
      ],
      [
        "▁blame",
        -8.940621076952219
      ],
      [
        "▁ma",
        -8.941038745417508
      ],
      [
        "▁toward",
        -8.943686395044303
      ],
      [
        "ud",
        -8.944295175175826
      ],
      [
        "▁drive",
        -8.945151596871959
      ],
      [
        "ney",
        -8.946767902621612
      ],
      [
        "▁destroy",
        -8.948036941663421
      ],
      [
        "▁quick",
        -8.948038893321376
      ],
      [
        "▁saudi",
        -8.948039708594834
      ],
      [
        "▁hilarious",
        -8.948051418202592
      ],
      [
        "▁truth",
        -8.94805619808146
      ],
      [
        "▁football",
        -8.948167417812734
      ],
      [
        "▁journalist",
        -8.948290473492111
      ],
      [
        "▁block",
        -8.948337533360604
      ],
      [
        "▁millions",
        -8.948682434409136
      ],
      [
        "▁christian",
        -8.948800911712762
      ],
      [
        "▁stress",
        -8.94894845812016
      ],
      [
        "▁camp",
        -8.948958495845467
      ],
      [
        "▁sell",
        -8.949356273957397
      ],
      [
        "▁poor",
        -8.949366009453604
      ],
      [
        "▁ground",
        -8.950117930490027
      ],
      [
        "▁weight",
        -8.95013341160169
      ],
      [
        "▁doctor",
        -8.95174309950116
      ],
      [
        "▁hour",
        -8.952886183312344
      ],
      [
        "▁bank",
        -8.954826840841722
      ],
      [
        "game",
        -8.955378207417404
      ],
      [
        "▁wear",
        -8.956891487240298
      ],
      [
        "▁pr",
        -8.958750265115787
      ],
      [
        "▁words",
        -8.959084394966172
      ],
      [
        "▁50",
        -8.959555292179887
      ],
      [
        "▁cross",
        -8.961186992252667
      ],
      [
        "▁success",
        -8.962963133575704
      ],
      [
        "▁users",
        -8.964088241200635
      ],
      [
        "▁jeff",
        -8.967265155949478
      ],
      [
        "▁resident",
        -8.967267734449173
      ],
      [
        "▁coffee",
        -8.967272728650208
      ],
      [
        "▁jr.",
        -8.967282911858245
      ],
      [
        "▁queen",
        -8.967283101423654
      ],
      [
        "▁rescue",
        -8.967303105661713
      ],
      [
        "▁queer",
        -8.967311102854584
      ],
      [
        "almost",
        -8.967356873134396
      ],
      [
        "▁general",
        -8.968025471080649
      ],
      [
        "▁hotel",
        -8.96813867873756
      ],
      [
        "▁legal",
        -8.968393647560163
      ],
      [
        "▁spring",
        -8.968421593652764
      ],
      [
        "▁sc",
        -8.968600622675375
      ],
      [
        "▁13",
        -8.969980009563162
      ],
      [
        "▁wood",
        -8.973064619993373
      ],
      [
        "▁begins",
        -8.973841516249053
      ],
      [
        "▁sha",
        -8.973881851159529
      ],
      [
        "▁cost",
        -8.97710683299279
      ],
      [
        "ge",
        -8.977576649648228
      ],
      [
        "▁sad",
        -8.977626495170341
      ],
      [
        "▁sp",
        -8.977783815336448
      ],
      [
        "▁award",
        -8.978580469161962
      ],
      [
        "▁'we",
        -8.97994871470872
      ],
      [
        "▁direct",
        -8.981872038113668
      ],
      [
        "▁seen",
        -8.982289524801878
      ],
      [
        "▁reports",
        -8.983287620940798
      ],
      [
        "▁sub",
        -8.984413940341312
      ],
      [
        "▁netflix",
        -8.98687546064142
      ],
      [
        "▁university",
        -8.986875461073252
      ],
      [
        "▁google",
        -8.986875478079469
      ],
      [
        "▁inspire",
        -8.986875575500616
      ],
      [
        "▁horse",
        -8.986883156874987
      ],
      [
        "niversa",
        -8.98688559306224
      ],
      [
        "▁swift",
        -8.986903707382975
      ],
      [
        "▁which",
        -8.986932609590706
      ],
      [
        "ki",
        -8.987163295265951
      ],
      [
        "▁anyone",
        -8.987309540572047
      ],
      [
        "▁husband",
        -8.98775043313385
      ],
      [
        "tic",
        -8.988667798865713
      ],
      [
        "▁boss",
        -8.990478889118199
      ],
      [
        "▁knows",
        -8.991290091734577
      ],
      [
        "▁picture",
        -8.991906183467584
      ],
      [
        "▁safe",
        -8.993066928175176
      ],
      [
        "▁crime",
        -8.993562842547645
      ],
      [
        "▁claim",
        -8.99417276430612
      ],
      [
        "lin",
        -8.994764218653867
      ],
      [
        "▁longer",
        -8.996007385904617
      ],
      [
        "ga",
        -8.998070422100376
      ],
      [
        "▁cops",
        -8.998516364009458
      ],
      [
        "king",
        -8.998589631001987
      ],
      [
        "▁seek",
        -8.99903769252661
      ],
      [
        "▁israel",
        -9.000934842859131
      ],
      [
        "▁event",
        -9.001720413393741
      ],
      [
        "▁steve",
        -9.004363864787734
      ],
      [
        "▁voter",
        -9.004921791694564
      ],
      [
        "▁fast",
        -9.005707261587075
      ],
      [
        "▁evidence",
        -9.006875460652342
      ],
      [
        "▁result",
        -9.00687568108788
      ],
      [
        "▁website",
        -9.00687818346637
      ],
      [
        "▁data",
        -9.007207903341655
      ],
      [
        "▁chicken",
        -9.00723409383616
      ],
      [
        "▁ruin",
        -9.007441493611916
      ],
      [
        "▁jenner",
        -9.007779081855645
      ],
      [
        "▁bird",
        -9.008033497190397
      ],
      [
        "▁emotional",
        -9.008657859401158
      ],
      [
        "▁catch",
        -9.009646899569573
      ],
      [
        "▁alleged",
        -9.009982520557486
      ],
      [
        "▁ball",
        -9.01032796275312
      ],
      [
        "▁workers",
        -9.01252550343353
      ],
      [
        "▁cast",
        -9.013061976826757
      ],
      [
        "▁lock",
        -9.013618809081212
      ],
      [
        "▁meal",
        -9.014857999488454
      ],
      [
        "▁planet",
        -9.014870318122505
      ],
      [
        "▁sa",
        -9.016155929986635
      ],
      [
        "ating",
        -9.017485418287983
      ],
      [
        "▁ju",
        -9.018249474367686
      ],
      [
        "▁fund",
        -9.021519858678413
      ],
      [
        "▁awards",
        -9.021859965218766
      ],
      [
        "▁officer",
        -9.024344308365864
      ],
      [
        "▁simple",
        -9.024410111528194
      ],
      [
        "▁signs",
        -9.024555246790555
      ],
      [
        "▁came",
        -9.024562524692199
      ],
      [
        "▁agree",
        -9.026737610934745
      ],
      [
        "▁magazine",
        -9.027283630605302
      ],
      [
        "▁9/11",
        -9.027283634573545
      ],
      [
        "▁nfl",
        -9.027284012363927
      ],
      [
        "▁halloween",
        -9.02728432146138
      ],
      [
        "▁carolina",
        -9.027302443968884
      ],
      [
        "▁2014",
        -9.02734969111265
      ],
      [
        "▁michelle",
        -9.02741782781052
      ],
      [
        "▁important",
        -9.027438000880746
      ],
      [
        "▁paper",
        -9.027467627541064
      ],
      [
        "▁wake",
        -9.027716519884574
      ],
      [
        "▁worst",
        -9.02809320048096
      ],
      [
        "▁five",
        -9.028434241662914
      ],
      [
        "▁ta",
        -9.03144928571636
      ],
      [
        "ill",
        -9.033719870277814
      ],
      [
        "▁warn",
        -9.033868957775244
      ],
      [
        "ship",
        -9.035205698313487
      ],
      [
        "▁40",
        -9.035298230319336
      ],
      [
        "▁du",
        -9.03702595060639
      ],
      [
        "ig",
        -9.038003543450438
      ],
      [
        "▁accidental",
        -9.039651280620264
      ],
      [
        "?'",
        -9.041002590638364
      ],
      [
        "▁she'",
        -9.041456274610509
      ],
      [
        "▁peace",
        -9.042652047237752
      ],
      [
        "▁apologizes",
        -9.042884589570093
      ],
      [
        "▁$1",
        -9.044145883331794
      ],
      [
        "▁tri",
        -9.044901526873094
      ],
      [
        "▁view",
        -9.04608572338025
      ],
      [
        "pa",
        -9.047834303333168
      ],
      [
        "▁hits",
        -9.047928648014114
      ],
      [
        "-year",
        -9.048033841477832
      ],
      [
        "▁effort",
        -9.048116957487048
      ],
      [
        "▁freak",
        -9.048117923288467
      ],
      [
        "▁repeal",
        -9.048130807266675
      ],
      [
        "▁toddler",
        -9.048149826048736
      ],
      [
        "▁flight",
        -9.048385827550703
      ],
      [
        "▁grow",
        -9.048394744072969
      ],
      [
        "▁transgender",
        -9.048521353495799
      ],
      [
        "▁bathroom",
        -9.048806227594264
      ],
      [
        "▁nyc",
        -9.048827521988285
      ],
      [
        "▁tree",
        -9.04901062959625
      ],
      [
        "▁trade",
        -9.049263186152825
      ],
      [
        "▁boyfriend",
        -9.049577236967682
      ],
      [
        "▁foot",
        -9.050152879826248
      ],
      [
        "▁gas",
        -9.050246443108808
      ],
      [
        "▁fill",
        -9.05085844695786
      ],
      [
        "▁skin",
        -9.051332861264815
      ],
      [
        "by",
        -9.051499796236376
      ],
      [
        "▁pa",
        -9.051730547134763
      ],
      [
        "▁paris",
        -9.053285848998787
      ],
      [
        "▁interest",
        -9.053622501482586
      ],
      [
        "▁blue",
        -9.054461481860276
      ],
      [
        "▁fr",
        -9.0544795778974
      ],
      [
        "▁seem",
        -9.054795058365027
      ],
      [
        "▁roll",
        -9.05911067437049
      ],
      [
        "fer",
        -9.062107052057266
      ],
      [
        "▁deep",
        -9.063984956521269
      ],
      [
        "▁bro",
        -9.065550317446775
      ],
      [
        "▁oscars",
        -9.066135953877508
      ],
      [
        "▁rate",
        -9.066546020019668
      ],
      [
        "▁14",
        -9.066681130063396
      ],
      [
        "ak",
        -9.06678612350269
      ],
      [
        "▁'p",
        -9.067434012736658
      ],
      [
        "▁pregnan",
        -9.069183207017478
      ],
      [
        "/",
        -9.069393541858577
      ],
      [
        "▁advice",
        -9.069393566896442
      ],
      [
        "▁private",
        -9.069393627160865
      ],
      [
        "▁racist",
        -9.06939479138958
      ],
      [
        "▁kerry",
        -9.069399479446426
      ],
      [
        "▁2017",
        -9.069453403147492
      ],
      [
        "▁window",
        -9.06946737146285
      ],
      [
        "ey",
        -9.069658806701629
      ],
      [
        "▁dying",
        -9.069690819040419
      ],
      [
        "▁labor",
        -9.069698317349978
      ],
      [
        "▁brit",
        -9.070010712788227
      ],
      [
        "▁nice",
        -9.070433673813024
      ],
      [
        "▁stock",
        -9.070875136508636
      ],
      [
        "▁suicide",
        -9.070898256651086
      ],
      [
        "▁crowd",
        -9.071001066175867
      ],
      [
        "▁storm",
        -9.071932534307692
      ],
      [
        "▁drink",
        -9.07314974922212
      ],
      [
        "ade",
        -9.073645477848117
      ],
      [
        "ff",
        -9.073790123065983
      ],
      [
        "▁fat",
        -9.074693278308164
      ],
      [
        "▁li",
        -9.077130132797311
      ],
      [
        "▁soon",
        -9.0797049611081
      ],
      [
        "ass",
        -9.081388678888633
      ],
      [
        "old",
        -9.081917825190528
      ],
      [
        "▁form",
        -9.083047212487905
      ],
      [
        "beth",
        -9.08477912952472
      ],
      [
        "▁vot",
        -9.084787161184963
      ],
      [
        "▁gu",
        -9.085183039155034
      ],
      [
        "▁design",
        -9.08580056048657
      ],
      [
        "▁card",
        -9.086769243787732
      ],
      [
        "▁\"",
        -9.087867010169568
      ],
      [
        "▁supporters",
        -9.088037531388556
      ],
      [
        "▁shoot",
        -9.090629077022998
      ],
      [
        "▁williams",
        -9.090864289781102
      ],
      [
        "▁episode",
        -9.091132684198145
      ],
      [
        "▁machine",
        -9.091133182957183
      ],
      [
        "▁allegations",
        -9.091143199237283
      ],
      [
        "▁scene",
        -9.091156344084009
      ],
      [
        "▁'you",
        -9.09149253609372
      ],
      [
        "▁ferguson",
        -9.091555017335187
      ],
      [
        "▁stunn",
        -9.092026162257202
      ],
      [
        "▁focus",
        -9.092106505543805
      ],
      [
        "▁planned",
        -9.092221038198488
      ],
      [
        "end",
        -9.092405539620957
      ],
      [
        "▁happen",
        -9.09407034008102
      ],
      [
        "▁site",
        -9.094545842931302
      ],
      [
        "▁finding",
        -9.095260721247616
      ],
      [
        "▁mayor",
        -9.095850216963568
      ],
      [
        "ber",
        -9.096155955074119
      ],
      [
        "rin",
        -9.10147465153796
      ],
      [
        "ler",
        -9.101832278587263
      ],
      [
        "▁character",
        -9.103715928018147
      ],
      [
        "▁names",
        -9.103903435396786
      ],
      [
        "▁da",
        -9.104794360031114
      ],
      [
        "down",
        -9.105285717907124
      ],
      [
        "list",
        -9.10533199774422
      ],
      [
        "▁seat",
        -9.105366996634022
      ],
      [
        "▁18",
        -9.107257911134212
      ],
      [
        "ial",
        -9.10746599514055
      ],
      [
        "▁members",
        -9.108381425312723
      ],
      [
        "▁youth",
        -9.1095882822923
      ],
      [
        "▁cook",
        -9.110936129290586
      ],
      [
        "▁easy",
        -9.111569184375051
      ],
      [
        "▁attend",
        -9.112874579764046
      ],
      [
        "▁cr",
        -9.112974617352673
      ],
      [
        "—",
        -9.113354905641456
      ],
      [
        "▁sudden",
        -9.113354958812726
      ],
      [
        "▁album",
        -9.113356905146269
      ],
      [
        "▁gave",
        -9.113366218908197
      ],
      [
        "▁lady",
        -9.113449028297367
      ],
      [
        "▁brown",
        -9.113452157878676
      ],
      [
        "▁airport",
        -9.113494876724447
      ],
      [
        "▁performance",
        -9.113545272114635
      ],
      [
        "▁dark",
        -9.11372085514098
      ],
      [
        "cent",
        -9.113727678615163
      ],
      [
        "▁fake",
        -9.113776246802589
      ],
      [
        "▁apparently",
        -9.113789815879267
      ],
      [
        "▁rally",
        -9.113969549613289
      ],
      [
        "▁answer",
        -9.114070501032458
      ],
      [
        "▁account",
        -9.114349224219284
      ],
      [
        "▁worse",
        -9.114466991828747
      ],
      [
        "▁male",
        -9.114752678865997
      ],
      [
        "▁17",
        -9.115476215189911
      ],
      [
        "▁driving",
        -9.115484904675373
      ],
      [
        "▁ago",
        -9.11700779031843
      ],
      [
        "▁suit",
        -9.11818263831898
      ],
      [
        "▁writer",
        -9.118573493843883
      ],
      [
        "aging",
        -9.11894065677859
      ],
      [
        "▁action",
        -9.120728949192463
      ],
      [
        "▁eric",
        -9.120901164673853
      ],
      [
        "▁mac",
        -9.125896989658777
      ],
      [
        "▁building",
        -9.125938598916177
      ],
      [
        "▁su",
        -9.126078041885913
      ],
      [
        "▁ring",
        -9.126711980166823
      ],
      [
        "ard",
        -9.128612099620934
      ],
      [
        "▁wars",
        -9.128674130853764
      ],
      [
        "em",
        -9.128846260823746
      ],
      [
        "kin",
        -9.130207208215595
      ],
      [
        "▁se",
        -9.130847970410048
      ],
      [
        "é",
        -9.135216120810332
      ],
      [
        "▁economy",
        -9.136082178481239
      ],
      [
        "▁purchase",
        -9.136082183924598
      ],
      [
        "▁pizza",
        -9.136082253083153
      ],
      [
        "▁financial",
        -9.136082270441502
      ],
      [
        "▁scandal",
        -9.13608496387066
      ],
      [
        "▁martin",
        -9.136090597244857
      ],
      [
        "▁giant",
        -9.13609138971249
      ],
      [
        "▁despi",
        -9.136093844573864
      ],
      [
        "▁pack",
        -9.136167359149699
      ],
      [
        "▁moore",
        -9.136232226272396
      ],
      [
        "▁else",
        -9.136490817782308
      ],
      [
        "▁model",
        -9.136504088051963
      ],
      [
        "▁update",
        -9.13700007527218
      ],
      [
        "▁waste",
        -9.137027991647091
      ],
      [
        "▁jones",
        -9.13737219521463
      ],
      [
        "▁rich",
        -9.137634685381375
      ],
      [
        "▁100",
        -9.137649410249852
      ],
      [
        "ier",
        -9.137672299440911
      ],
      [
        "▁onion",
        -9.137777199170246
      ],
      [
        "▁homeless",
        -9.138797807641728
      ],
      [
        "▁'no",
        -9.139329629117942
      ],
      [
        "-a",
        -9.139648721621423
      ],
      [
        "▁player",
        -9.140474629724618
      ],
      [
        "▁remove",
        -9.141469712768103
      ],
      [
        "▁200",
        -9.141600967106939
      ],
      [
        "▁eyes",
        -9.141664756667453
      ],
      [
        "▁en",
        -9.145160240577631
      ],
      [
        "▁ni",
        -9.146865677590567
      ],
      [
        "▁link",
        -9.151866927916785
      ],
      [
        "▁brother",
        -9.152065783181484
      ],
      [
        "▁ca",
        -9.15256504294253
      ],
      [
        "▁issue",
        -9.153242678292745
      ],
      [
        "▁boys",
        -9.154254579301085
      ],
      [
        "ator",
        -9.15700989613775
      ],
      [
        "▁extra",
        -9.158310905788806
      ],
      [
        "▁four",
        -9.158930617694232
      ],
      [
        "▁project",
        -9.159337992355502
      ],
      [
        "▁mccain",
        -9.159338295983947
      ],
      [
        "▁energy",
        -9.159343708184672
      ],
      [
        "▁epa",
        -9.159417556901838
      ],
      [
        "▁nra",
        -9.15949687325448
      ],
      [
        "▁disney",
        -9.159548431994914
      ],
      [
        "▁said",
        -9.160060355590225
      ],
      [
        "day",
        -9.16031134007572
      ],
      [
        "▁beauty",
        -9.160380394013897
      ],
      [
        "▁leav",
        -9.160390981986435
      ],
      [
        "▁royal",
        -9.160653167023689
      ],
      [
        "▁hero",
        -9.160890649956343
      ],
      [
        "▁defense",
        -9.160972406226836
      ],
      [
        "▁level",
        -9.16129752606114
      ],
      [
        "▁screen",
        -9.161837515364764
      ],
      [
        "▁piece",
        -9.162021441469117
      ],
      [
        "▁walking",
        -9.162076913773916
      ],
      [
        "▁passes",
        -9.163410687439615
      ],
      [
        "▁pop",
        -9.163662587871025
      ],
      [
        "▁died",
        -9.163740179665766
      ],
      [
        "▁style",
        -9.164025504404629
      ],
      [
        "▁culture",
        -9.164243389692786
      ],
      [
        "▁launch",
        -9.164495477502314
      ],
      [
        "▁asking",
        -9.16731581757271
      ],
      [
        "▁hearing",
        -9.168612938439503
      ],
      [
        "▁stone",
        -9.16913076756143
      ],
      [
        "▁low",
        -9.169329834587423
      ],
      [
        "▁older",
        -9.169659767202031
      ],
      [
        "▁happened",
        -9.16974730298443
      ],
      [
        "possible",
        -9.169919929498274
      ],
      [
        "men",
        -9.176622701059813
      ],
      [
        "▁refuse",
        -9.177312722156511
      ],
      [
        "▁staff",
        -9.179027983758754
      ],
      [
        "▁east",
        -9.179177478851072
      ],
      [
        "▁matter",
        -9.1795513353179
      ],
      [
        "▁wish",
        -9.18199404024502
      ],
      [
        "▁six",
        -9.182510880700042
      ],
      [
        "▁colbert",
        -9.183147526688769
      ],
      [
        "-minute",
        -9.183147531060404
      ],
      [
        "▁border",
        -9.183149977146364
      ],
      [
        "▁families",
        -9.183152410798417
      ],
      [
        "▁costume",
        -9.183176188884529
      ],
      [
        "▁price",
        -9.183302352346619
      ],
      [
        "▁desk",
        -9.183357057636941
      ],
      [
        "▁wi",
        -9.183615889998562
      ],
      [
        "▁flag",
        -9.183618274902543
      ],
      [
        "▁finish",
        -9.183630837501873
      ],
      [
        "▁present",
        -9.183831401480631
      ],
      [
        "▁amazing",
        -9.18396642082904
      ],
      [
        "▁ka",
        -9.183979168962805
      ],
      [
        "▁manager",
        -9.184223879086687
      ],
      [
        "▁leading",
        -9.184929618525187
      ],
      [
        "▁shirt",
        -9.185125608248232
      ],
      [
        "▁nasa",
        -9.185152479161369
      ],
      [
        "▁went",
        -9.185372352939803
      ],
      [
        "▁gra",
        -9.18712852100635
      ],
      [
        "▁brand",
        -9.187816027865392
      ],
      [
        "▁rape",
        -9.18836709879547
      ],
      [
        "▁draw",
        -9.189285963618271
      ],
      [
        "▁done",
        -9.190547570646336
      ],
      [
        "▁lo",
        -9.191178756543511
      ],
      [
        "car",
        -9.192071485717966
      ],
      [
        "ical",
        -9.19390076228977
      ],
      [
        "▁rick",
        -9.194642014698585
      ],
      [
        "▁prepare",
        -9.195355298361608
      ],
      [
        "▁hurt",
        -9.198978174069453
      ],
      [
        "▁america'",
        -9.199832168991593
      ],
      [
        "az",
        -9.20242083306512
      ],
      [
        "▁guest",
        -9.203604360341807
      ],
      [
        "▁develop",
        -9.206986770547452
      ],
      [
        "▁bob",
        -9.207088971250043
      ],
      [
        "▁author",
        -9.207447110871875
      ],
      [
        "▁snow",
        -9.207455517899948
      ],
      [
        "▁marijuana",
        -9.20753776003418
      ],
      [
        "▁thanksgiving",
        -9.207537760787133
      ],
      [
        "▁ebola",
        -9.20753778990482
      ],
      [
        "▁hundred",
        -9.20753779327049
      ],
      [
        "▁regret",
        -9.207537821680567
      ],
      [
        "▁popular",
        -9.207538006061736
      ],
      [
        "▁double",
        -9.207538839653822
      ],
      [
        "▁museum",
        -9.207538852555295
      ],
      [
        "▁jesus",
        -9.20754078035674
      ],
      [
        "▁detail",
        -9.207541488197588
      ],
      [
        "▁foreign",
        -9.207575995086263
      ],
      [
        "▁turkey",
        -9.207588522994484
      ],
      [
        "▁lawsuit",
        -9.20764482610076
      ],
      [
        "▁debut",
        -9.207731933086317
      ],
      [
        "▁winter",
        -9.208274961769987
      ],
      [
        "▁dangerous",
        -9.208300578816921
      ],
      [
        "▁amid",
        -9.208617775413366
      ],
      [
        "▁ideas",
        -9.210217896812791
      ],
      [
        "▁dozens",
        -9.212450398773578
      ],
      [
        "in'",
        -9.212986572900197
      ],
      [
        "▁receives",
        -9.21317615624854
      ],
      [
        "ack",
        -9.213571158170094
      ],
      [
        "-day",
        -9.213638262693058
      ],
      [
        "▁'g",
        -9.214241768334336
      ],
      [
        "▁forward",
        -9.215215235117329
      ],
      [
        "▁ride",
        -9.215352528816437
      ],
      [
        "▁strong",
        -9.216025170896668
      ],
      [
        "▁healthy",
        -9.216593203912959
      ],
      [
        "▁happens",
        -9.218121576656568
      ],
      [
        "erson",
        -9.218976778889935
      ],
      [
        "▁paint",
        -9.21910225963985
      ],
      [
        "▁tre",
        -9.219655435163137
      ],
      [
        "und",
        -9.22113985689523
      ],
      [
        "▁product",
        -9.221303346726035
      ],
      [
        "▁tim",
        -9.223051812215436
      ],
      [
        "▁friday",
        -9.223090677356549
      ],
      [
        "▁aid",
        -9.223130060122566
      ],
      [
        "tor",
        -9.223375159801112
      ],
      [
        "ious",
        -9.225789373582856
      ],
      [
        "▁slams",
        -9.227512281190203
      ],
      [
        "▁dai",
        -9.22762842689713
      ],
      [
        "▁olympic",
        -9.229098518198903
      ],
      [
        "▁leads",
        -9.230529126502445
      ],
      [
        "▁refugee",
        -9.230895336000835
      ],
      [
        "▁steps",
        -9.2317653771074
      ],
      [
        "▁u",
        -9.23180504911707
      ],
      [
        "▁bell",
        -9.231961947269912
      ],
      [
        "▁chair",
        -9.231978147756395
      ],
      [
        "bra",
        -9.2322678113498
      ],
      [
        "▁bin",
        -9.232356747132865
      ],
      [
        "▁cash",
        -9.232481929477045
      ],
      [
        "▁access",
        -9.232537918849943
      ],
      [
        "▁nomination",
        -9.23253891892996
      ],
      [
        "▁harassment",
        -9.232750368299197
      ],
      [
        "▁sl",
        -9.232770005608312
      ],
      [
        "▁jump",
        -9.232826348253017
      ],
      [
        "▁probe",
        -9.232907915017224
      ],
      [
        "▁'star",
        -9.232912656687855
      ],
      [
        "▁harry",
        -9.233104462073472
      ],
      [
        "▁documentary",
        -9.233128550519444
      ],
      [
        "▁medical",
        -9.233301931353683
      ],
      [
        "▁committee",
        -9.23336068294611
      ],
      [
        "▁meat",
        -9.2338566930526
      ],
      [
        "▁religious",
        -9.23397851649227
      ],
      [
        "▁historical",
        -9.234390567621341
      ],
      [
        "▁soul",
        -9.234810328306175
      ],
      [
        "▁sweet",
        -9.234937821084525
      ],
      [
        "▁tech",
        -9.235054192317964
      ],
      [
        "▁thrones",
        -9.236145203588062
      ],
      [
        "▁loss",
        -9.237608166549785
      ],
      [
        "▁ahead",
        -9.239790300525215
      ],
      [
        "▁replace",
        -9.240624167147939
      ],
      [
        "be",
        -9.244408306853119
      ],
      [
        "▁post-",
        -9.24505906816886
      ],
      [
        "work",
        -9.245716014343714
      ],
      [
        "▁killer",
        -9.245938036639448
      ],
      [
        "we",
        -9.246618874168067
      ],
      [
        "▁problems",
        -9.247546287793693
      ],
      [
        "▁mu",
        -9.248731055020091
      ],
      [
        "▁worker",
        -9.249455894535393
      ],
      [
        "ich",
        -9.249600602536487
      ],
      [
        "ted",
        -9.251397417923076
      ],
      [
        "▁ri",
        -9.2520128672585
      ],
      [
        "▁ex-",
        -9.252284379225921
      ],
      [
        "▁threat",
        -9.25496694983948
      ],
      [
        "▁quit",
        -9.255150306179203
      ],
      [
        "▁plant",
        -9.255169172359558
      ],
      [
        "▁bed",
        -9.256410347739637
      ],
      [
        "▁angel",
        -9.256460557032163
      ],
      [
        "ever",
        -9.25799420928959
      ],
      [
        "▁valentine",
        -9.258178812774046
      ],
      [
        "▁creep",
        -9.258178889129919
      ],
      [
        "▁nominee",
        -9.25817900782599
      ],
      [
        "▁senior",
        -9.258180020291011
      ],
      [
        "▁lunch",
        -9.258180962743163
      ],
      [
        "▁harvey",
        -9.25818098944082
      ],
      [
        "▁chuck",
        -9.258182711694277
      ],
      [
        "▁among",
        -9.258205841681871
      ],
      [
        "▁pledge",
        -9.258231902856632
      ],
      [
        "▁louis",
        -9.258370437985079
      ],
      [
        "light",
        -9.258653970856425
      ],
      [
        "▁budget",
        -9.259013346783458
      ],
      [
        "▁beach",
        -9.25991333256293
      ],
      [
        "also",
        -9.26015718101712
      ],
      [
        "▁trial",
        -9.260313198239752
      ],
      [
        "he",
        -9.26137235042067
      ],
      [
        "▁fine",
        -9.262284103791071
      ],
      [
        "▁putin",
        -9.26247826027863
      ],
      [
        "▁comey",
        -9.264025387194579
      ],
      [
        "▁responds",
        -9.265283178322951
      ],
      [
        "▁arrested",
        -9.266239844124009
      ],
      [
        "▁mad",
        -9.267899859516053
      ],
      [
        "▁cor",
        -9.268340208918147
      ],
      [
        "▁opening",
        -9.268403323831185
      ],
      [
        "io",
        -9.26880280646021
      ],
      [
        "▁sales",
        -9.269244334065126
      ],
      [
        "tra",
        -9.269771227509633
      ],
      [
        "▁teens",
        -9.27235540711008
      ],
      [
        "red",
        -9.274299260746279
      ],
      [
        "▁stuff",
        -9.274544833181936
      ],
      [
        "▁hopes",
        -9.274861758382588
      ],
      [
        "lan",
        -9.275409122585579
      ],
      [
        "▁cha",
        -9.277242564132598
      ],
      [
        "▁cia",
        -9.278011100937249
      ],
      [
        "▁divorce",
        -9.278437229403503
      ],
      [
        "tion",
        -9.280005436894546
      ],
      [
        "▁immigrants",
        -9.280186116390679
      ],
      [
        "lie",
        -9.28049064981811
      ],
      [
        "▁dr",
        -9.280726834222097
      ],
      [
        "▁par",
        -9.280768703418648
      ],
      [
        "▁jo",
        -9.281651381908379
      ],
      [
        "▁bat",
        -9.282586550861366
      ],
      [
        "▁telling",
        -9.282977145658363
      ],
      [
        "▁mc",
        -9.283455678191334
      ],
      [
        "▁appear",
        -9.284222840831386
      ],
      [
        "▁accord",
        -9.284494577093714
      ],
      [
        "▁elderly",
        -9.284496594507381
      ],
      [
        "▁average",
        -9.284498368471475
      ],
      [
        "▁monday",
        -9.284498892930985
      ],
      [
        "▁annual",
        -9.284501272299599
      ],
      [
        "▁dnc",
        -9.28450671354711
      ],
      [
        "▁reject",
        -9.284509367188246
      ],
      [
        "han",
        -9.284516289195981
      ],
      [
        "▁jeb",
        -9.28452101047597
      ],
      [
        "▁ohio",
        -9.284533142099184
      ],
      [
        "▁islam",
        -9.284538023898047
      ],
      [
        "▁network",
        -9.28454846058561
      ],
      [
        "▁jack",
        -9.284591559568975
      ],
      [
        "ily",
        -9.284607739275586
      ],
      [
        "▁neighborhood",
        -9.2846400472664
      ],
      [
        "▁fair",
        -9.284817062243938
      ],
      [
        "▁cold",
        -9.28499468444643
      ],
      [
        "▁fda",
        -9.285220982344208
      ],
      [
        "▁sara",
        -9.28588096081491
      ],
      [
        "▁tired",
        -9.28610437582488
      ],
      [
        "▁movement",
        -9.286264323623357
      ],
      [
        "▁declare",
        -9.286508346994827
      ],
      [
        "▁smith",
        -9.286689836418423
      ],
      [
        "▁fish",
        -9.287815920820053
      ],
      [
        "▁loud",
        -9.287976229930152
      ],
      [
        "▁refugees",
        -9.288059305796072
      ],
      [
        "▁truck",
        -9.288059377343174
      ],
      [
        "▁welcome",
        -9.288378010949813
      ],
      [
        "▁rule",
        -9.288984216426359
      ],
      [
        "ron",
        -9.290156040295145
      ],
      [
        "▁editor",
        -9.291465959802917
      ],
      [
        "▁discuss",
        -9.292780515797268
      ],
      [
        "▁ten",
        -9.2928771432145
      ],
      [
        "▁fit",
        -9.292881326761114
      ],
      [
        "erto",
        -9.293358126109895
      ],
      [
        "▁humans",
        -9.295703894331517
      ],
      [
        "▁putt",
        -9.296707071369719
      ],
      [
        "▁island",
        -9.297275968239555
      ],
      [
        "▁surge",
        -9.298471078531113
      ],
      [
        "▁wa",
        -9.298682520144062
      ],
      [
        "die",
        -9.299165642694177
      ],
      [
        "▁gar",
        -9.299429410690005
      ],
      [
        "▁aren't",
        -9.300076989508359
      ],
      [
        "if",
        -9.302222754640493
      ],
      [
        "▁base",
        -9.302806957298529
      ],
      [
        "▁lu",
        -9.30356213645023
      ],
      [
        "▁step",
        -9.303930045947139
      ],
      [
        "tri",
        -9.304429464241931
      ],
      [
        "▁schools",
        -9.307027542005295
      ],
      [
        "▁reading",
        -9.308012929800313
      ],
      [
        "▁warning",
        -9.308113379827986
      ],
      [
        "caught",
        -9.308165091098509
      ],
      [
        "▁customers",
        -9.310256508862853
      ],
      [
        "iest",
        -9.310489921948946
      ],
      [
        "▁jew",
        -9.311352018412194
      ],
      [
        ";",
        -9.311521602175917
      ],
      [
        "▁kavanaugh",
        -9.311521602179209
      ],
      [
        "▁convention",
        -9.311521604107403
      ],
      [
        "▁awkward",
        -9.3115216071058
      ],
      [
        "▁mexican",
        -9.3115216229788
      ],
      [
        "▁channel",
        -9.311521623434146
      ],
      [
        "▁vatican",
        -9.311521698670559
      ],
      [
        "▁previous",
        -9.311521774427176
      ],
      [
        "▁fresh",
        -9.31152569615323
      ],
      [
        "▁credit",
        -9.31153006471321
      ],
      [
        "▁grandmother",
        -9.311530405561289
      ],
      [
        "▁theater",
        -9.311870335192062
      ],
      [
        "▁researchers",
        -9.312272600195374
      ],
      [
        "▁camera",
        -9.312536870013618
      ],
      [
        "▁lack",
        -9.312549180669407
      ],
      [
        "▁customer",
        -9.313065803237976
      ],
      [
        "▁choice",
        -9.313082176620918
      ],
      [
        "▁approve",
        -9.3130848570809
      ],
      [
        "▁science",
        -9.313774741140056
      ],
      [
        "▁forget",
        -9.314160889686814
      ],
      [
        "▁tries",
        -9.31472242793611
      ],
      [
        "▁mouth",
        -9.314819019393179
      ],
      [
        "iff",
        -9.3148864550419
      ],
      [
        "life",
        -9.315297120085917
      ],
      [
        "▁em",
        -9.315652176988252
      ],
      [
        "▁high-",
        -9.317239731074624
      ],
      [
        "▁activists",
        -9.317481344207517
      ],
      [
        "▁value",
        -9.318514781273418
      ],
      [
        "bel",
        -9.32083059523016
      ],
      [
        "▁flu",
        -9.321110257440832
      ],
      [
        "▁bee",
        -9.321648902281664
      ],
      [
        "▁denie",
        -9.322093139525254
      ],
      [
        "▁creat",
        -9.323210389425828
      ],
      [
        "che",
        -9.323929925727647
      ],
      [
        "well",
        -9.32608946111409
      ],
      [
        "▁struggle",
        -9.326974206357988
      ],
      [
        "▁60",
        -9.327231999722088
      ],
      [
        "ities",
        -9.327315965801638
      ],
      [
        "▁continue",
        -9.327655598285249
      ],
      [
        "mer",
        -9.327687981630643
      ],
      [
        "▁asked",
        -9.329847064069414
      ],
      [
        "-in",
        -9.33071838704593
      ],
      [
        "vor",
        -9.330730583114464
      ],
      [
        "▁jobs",
        -9.331664061844235
      ],
      [
        "tar",
        -9.333683298626804
      ],
      [
        "wn",
        -9.33469291883114
      ],
      [
        "▁funding",
        -9.336123244448014
      ],
      [
        "▁glass",
        -9.337066481081036
      ],
      [
        "au",
        -9.337770484682446
      ],
      [
        "▁16",
        -9.338176169546125
      ],
      [
        "side",
        -9.338334292108799
      ],
      [
        "▁flood",
        -9.339299414134757
      ],
      [
        "▁mexico",
        -9.339299489964727
      ],
      [
        "▁floor",
        -9.339301804603135
      ],
      [
        "▁suffer",
        -9.33930288378018
      ],
      [
        "▁adult",
        -9.339304876899783
      ],
      [
        "▁carpet",
        -9.339308245875271
      ],
      [
        "▁asshole",
        -9.339331882050807
      ],
      [
        "▁cheese",
        -9.33936787831899
      ],
      [
        "▁gap",
        -9.339436790015593
      ],
      [
        "▁mix",
        -9.339498508133106
      ],
      [
        "▁failure",
        -9.339594404701128
      ],
      [
        "▁jail",
        -9.339617947374368
      ],
      [
        "▁fix",
        -9.33962104478423
      ],
      [
        "▁capture",
        -9.339836894643517
      ],
      [
        "▁retirement",
        -9.34013511302039
      ],
      [
        "▁jenni",
        -9.340323235688073
      ],
      [
        "▁course",
        -9.340613593378869
      ],
      [
        "▁fired",
        -9.341086534479922
      ],
      [
        "▁golden",
        -9.341313165244381
      ],
      [
        "▁challenge",
        -9.341643489726602
      ],
      [
        "▁concerned",
        -9.342086694415196
      ],
      [
        "▁incredible",
        -9.342206596887266
      ],
      [
        "let",
        -9.34252360226889
      ],
      [
        "▁magical",
        -9.34338874368146
      ],
      [
        "▁station",
        -9.345239652202007
      ],
      [
        "ris",
        -9.34638743156377
      ],
      [
        "▁bomb",
        -9.346890886446873
      ],
      [
        "ition",
        -9.34711590009858
      ],
      [
        "▁bit",
        -9.351975724252549
      ],
      [
        "cut",
        -9.355559441896599
      ],
      [
        "▁provide",
        -9.356305427597839
      ],
      [
        "▁thanks",
        -9.356411636183548
      ],
      [
        "▁ko",
        -9.356760342511908
      ],
      [
        "▁mess",
        -9.357767422838634
      ],
      [
        "new",
        -9.357965668431216
      ],
      [
        "▁va",
        -9.359888141903747
      ],
      [
        "for",
        -9.362266497847715
      ],
      [
        "▁increase",
        -9.364102588137142
      ],
      [
        "▁write",
        -9.364981706223382
      ],
      [
        "ath",
        -9.367598356560936
      ],
      [
        "▁criminal",
        -9.367870949822361
      ],
      [
        "▁depression",
        -9.36787097603523
      ],
      [
        "▁afghanistan",
        -9.36787098986457
      ],
      [
        "▁'snl'",
        -9.367871121288609
      ],
      [
        "▁opinion",
        -9.36787179223285
      ],
      [
        "▁instagram",
        -9.367873088956284
      ],
      [
        "▁afford",
        -9.367874531680283
      ],
      [
        "▁london",
        -9.36788934735644
      ],
      [
        "▁warren",
        -9.367908997164808
      ],
      [
        "▁primary",
        -9.367951714126118
      ],
      [
        "▁burger",
        -9.367972386324617
      ],
      [
        "▁huff",
        -9.368119431211564
      ],
      [
        "▁sense",
        -9.368150010997905
      ],
      [
        "▁hang",
        -9.36851305528223
      ],
      [
        "▁match",
        -9.368730685443587
      ],
      [
        "▁process",
        -9.369116522097176
      ],
      [
        "▁ne",
        -9.369814059125527
      ],
      [
        "▁brain",
        -9.369915487435057
      ],
      [
        "▁pool",
        -9.37161038490869
      ],
      [
        "▁agent",
        -9.371931462957143
      ],
      [
        "▁patient",
        -9.372603348771356
      ],
      [
        "ger",
        -9.373311231785154
      ],
      [
        "▁rat",
        -9.373549246657255
      ],
      [
        "▁immigrant",
        -9.374236469418362
      ],
      [
        "▁shake",
        -9.374656150783942
      ],
      [
        "▁saying",
        -9.37617958180818
      ],
      [
        "▁inform",
        -9.378139103061272
      ],
      [
        "▁bra",
        -9.37962782128791
      ],
      [
        "▁van",
        -9.381169736548346
      ],
      [
        "▁farm",
        -9.381870529038842
      ],
      [
        "▁ha",
        -9.382888500494598
      ],
      [
        "20",
        -9.383724098155767
      ],
      [
        "▁cur",
        -9.385810357611435
      ],
      [
        "▁lay",
        -9.38628229940503
      ],
      [
        "low",
        -9.388656786617531
      ],
      [
        "▁fi",
        -9.388662625404741
      ],
      [
        "ite",
        -9.390224830652942
      ],
      [
        "▁launche",
        -9.39081920528315
      ],
      [
        "▁realiz",
        -9.392001810827123
      ],
      [
        "▁beer",
        -9.393118681476208
      ],
      [
        "▁'t",
        -9.393602630062688
      ],
      [
        "▁reach",
        -9.394902216670438
      ],
      [
        "▁points",
        -9.395327607439521
      ],
      [
        "▁civil",
        -9.396885216821829
      ],
      [
        "▁increasing",
        -9.397282573547319
      ],
      [
        "▁catholic",
        -9.39728257567458
      ],
      [
        "▁species",
        -9.39728258064355
      ],
      [
        "▁condemn",
        -9.397282582981251
      ],
      [
        "▁nervous",
        -9.397282638998352
      ],
      [
        "▁ceremony",
        -9.397282951127966
      ],
      [
        "▁deserve",
        -9.39728377719776
      ],
      [
        "▁weather",
        -9.397291984641953
      ],
      [
        "ability",
        -9.39731749623565
      ],
      [
        "▁debt",
        -9.397322983879132
      ],
      [
        "▁steal",
        -9.397329795748679
      ],
      [
        "▁terrible",
        -9.397333825474306
      ],
      [
        "▁festival",
        -9.397398398509072
      ],
      [
        "▁common",
        -9.397426395987287
      ],
      [
        "▁uber",
        -9.397434724002736
      ],
      [
        "▁writing",
        -9.397435306039851
      ],
      [
        "▁virginia",
        -9.397443073043096
      ],
      [
        "▁freedom",
        -9.39748411284304
      ],
      [
        "▁stuck",
        -9.397514206516046
      ],
      [
        "▁cities",
        -9.397693861610088
      ],
      [
        "▁marco",
        -9.3977891972793
      ],
      [
        "▁guilty",
        -9.397930881677308
      ],
      [
        "▁santa",
        -9.398006689652668
      ],
      [
        "▁sever",
        -9.398167331086858
      ],
      [
        "▁mock",
        -9.398178140807904
      ],
      [
        "▁aide",
        -9.398211076929481
      ],
      [
        "▁creator",
        -9.398263634661912
      ],
      [
        "▁palestinian",
        -9.3989987799405
      ],
      [
        "trapped",
        -9.399386533119825
      ],
      [
        "▁club",
        -9.401255967338361
      ],
      [
        "ward",
        -9.402545961892068
      ],
      [
        "▁moon",
        -9.402552068758718
      ],
      [
        "▁vir",
        -9.402781042136809
      ],
      [
        "ver",
        -9.40355168829619
      ],
      [
        "▁member",
        -9.403903317744671
      ],
      [
        "▁cap",
        -9.404003440645656
      ],
      [
        "▁z",
        -9.404583870732386
      ],
      [
        "▁shooter",
        -9.404935527502792
      ],
      [
        "▁dropp",
        -9.405013643742526
      ],
      [
        "▁escape",
        -9.405923017989796
      ],
      [
        "▁asian",
        -9.406432509380775
      ],
      [
        "▁page",
        -9.406471149515134
      ],
      [
        "▁diet",
        -9.406986317050327
      ],
      [
        "▁hat",
        -9.40715588807464
      ],
      [
        "▁insist",
        -9.40997199730858
      ],
      [
        "▁chang",
        -9.411974974531013
      ],
      [
        "▁roy",
        -9.412011839747038
      ],
      [
        "▁arm",
        -9.414024489270354
      ],
      [
        "▁moms",
        -9.416227599129556
      ],
      [
        "▁ti",
        -9.417597305323126
      ],
      [
        "gen",
        -9.418303318677676
      ],
      [
        "har",
        -9.418636956440336
      ],
      [
        "▁terror",
        -9.418986941268761
      ],
      [
        "▁contain",
        -9.420122852650868
      ],
      [
        "▁fe",
        -9.423086000125254
      ],
      [
        "all",
        -9.424051865865898
      ],
      [
        "▁guard",
        -9.424817762646306
      ],
      [
        "ile",
        -9.427162983587438
      ],
      [
        "▁controversi",
        -9.42758560365776
      ],
      [
        "▁suspend",
        -9.427585618870497
      ],
      [
        "▁disease",
        -9.427585674732875
      ],
      [
        "▁2018",
        -9.427585755771746
      ],
      [
        "▁french",
        -9.427586498575181
      ],
      [
        "▁insurance",
        -9.427586569510428
      ],
      [
        "▁praise",
        -9.427587946008071
      ],
      [
        "▁limit",
        -9.427588660735983
      ],
      [
        "▁archives",
        -9.427592610723181
      ],
      [
        "▁delay",
        -9.427681535490999
      ],
      [
        "▁river",
        -9.427721018521861
      ],
      [
        "▁anymore",
        -9.427785639663554
      ],
      [
        "▁stories",
        -9.427805398182246
      ],
      [
        "▁roommate",
        -9.4278414097252
      ],
      [
        "▁pregnancy",
        -9.427887804331453
      ],
      [
        "▁subway",
        -9.427932252449528
      ],
      [
        "▁christie",
        -9.42799406218172
      ],
      [
        "▁iphone",
        -9.428178421600412
      ],
      [
        "▁stick",
        -9.42819189153308
      ],
      [
        "▁treatment",
        -9.428527420912227
      ],
      [
        "▁france",
        -9.429135524258495
      ],
      [
        "▁rare",
        -9.429159381308455
      ],
      [
        "▁icon",
        -9.430430853705504
      ],
      [
        "▁factor",
        -9.43159428367035
      ],
      [
        "▁item",
        -9.431901858632337
      ],
      [
        "▁movies",
        -9.432478155726898
      ],
      [
        "▁type",
        -9.43304385549543
      ],
      [
        "▁lower",
        -9.433503036780127
      ],
      [
        "▁25",
        -9.4345027904668
      ],
      [
        "▁bid",
        -9.434651035914753
      ],
      [
        "▁dreams",
        -9.435070693958227
      ],
      [
        "▁itself",
        -9.43625404800714
      ],
      [
        "▁animals",
        -9.438043516319672
      ],
      [
        "▁'b",
        -9.43879875991527
      ],
      [
        "ists",
        -9.439305607850649
      ],
      [
        "▁won",
        -9.439492363262037
      ],
      [
        "wa",
        -9.441185812761507
      ],
      [
        "▁fa",
        -9.441779533261915
      ],
      [
        "ence",
        -9.44193672987782
      ],
      [
        "ern",
        -9.443733386099133
      ],
      [
        "held",
        -9.444137995726923
      ],
      [
        "▁loved",
        -9.4444432602412
      ],
      [
        "▁citizens",
        -9.447864818623254
      ],
      [
        "▁comp",
        -9.44802767791558
      ],
      [
        "ay",
        -9.448803456087996
      ],
      [
        "▁arrest",
        -9.44911237397589
      ],
      [
        "cu",
        -9.451834094734236
      ],
      [
        "▁sweat",
        -9.452130868367252
      ],
      [
        "▁doctors",
        -9.452690638646011
      ],
      [
        "▁dec",
        -9.452777309946862
      ],
      [
        "qui",
        -9.453644992056185
      ],
      [
        "▁figure",
        -9.454370251806054
      ],
      [
        "▁lee",
        -9.456241993051783
      ],
      [
        "▁continues",
        -9.45730742303073
      ],
      [
        "▁research",
        -9.45796612666844
      ],
      [
        "▁hack",
        -9.458587688259705
      ],
      [
        "▁airlines",
        -9.458589678040475
      ],
      [
        "▁huckabee",
        -9.45883560353837
      ],
      [
        "▁mcconnell",
        -9.45883560365371
      ],
      [
        "▁frustrate",
        -9.458835612588043
      ],
      [
        "▁d.c.",
        -9.458835618068697
      ],
      [
        "▁breast",
        -9.458838604603903
      ],
      [
        "▁german",
        -9.458861625950465
      ],
      [
        "▁long-",
        -9.458877025404085
      ],
      [
        "▁breakfast",
        -9.458882667550125
      ],
      [
        "▁soldier",
        -9.45888920711081
      ],
      [
        "▁transform",
        -9.458926466619882
      ],
      [
        "▁porn",
        -9.458992541656915
      ],
      [
        "▁roundup",
        -9.459011742052706
      ],
      [
        "▁rip",
        -9.459022847784293
      ],
      [
        "▁winning",
        -9.459029441157774
      ],
      [
        "anne",
        -9.459221972847718
      ],
      [
        "▁finger",
        -9.459297129119134
      ],
      [
        "▁johnson",
        -9.459319998671763
      ],
      [
        "▁nobody",
        -9.459410310989085
      ],
      [
        "▁singer",
        -9.459521064302017
      ],
      [
        "▁cell",
        -9.459682487926067
      ],
      [
        "▁theory",
        -9.459956811553786
      ],
      [
        "▁stupid",
        -9.460247406231307
      ],
      [
        "-to-",
        -9.460551082340931
      ],
      [
        "▁tale",
        -9.46095894916828
      ],
      [
        "ify",
        -9.461359678120871
      ],
      [
        "▁rais",
        -9.461495206690069
      ],
      [
        "▁dumb",
        -9.462198728755194
      ],
      [
        "▁slowly",
        -9.462621880640052
      ],
      [
        "▁prize",
        -9.462633806896736
      ],
      [
        "▁har",
        -9.464641883142658
      ],
      [
        "▁mid",
        -9.467408588284716
      ],
      [
        "▁veteran",
        -9.46803060487984
      ],
      [
        "▁strike",
        -9.469292762793268
      ],
      [
        "▁content",
        -9.469483494520064
      ],
      [
        "▁accident",
        -9.471737758534097
      ],
      [
        "▁reminder",
        -9.472163268369782
      ],
      [
        "▁jim",
        -9.472670303929352
      ],
      [
        "▁zoo",
        -9.473776383186053
      ],
      [
        "▁brief",
        -9.47404634559734
      ],
      [
        "▁build",
        -9.476489716656884
      ],
      [
        "▁ship",
        -9.47872415134857
      ],
      [
        "ina",
        -9.479670299358581
      ],
      [
        "▁pl",
        -9.480926675082603
      ],
      [
        "ible",
        -9.481470502025312
      ],
      [
        "▁perform",
        -9.481476980231943
      ],
      [
        "▁victor",
        -9.482155375185986
      ],
      [
        "▁joke",
        -9.484756924799997
      ],
      [
        "iz",
        -9.484856324840305
      ],
      [
        "▁'w",
        -9.484944516536316
      ],
      [
        "▁sue",
        -9.48591568267034
      ],
      [
        "led",
        -9.486564251022012
      ],
      [
        "▁numbers",
        -9.486622341512948
      ],
      [
        "▁bare",
        -9.487749638591387
      ],
      [
        "▁survivors",
        -9.489013922908308
      ],
      [
        "▁large",
        -9.48959756358733
      ],
      [
        "▁rush",
        -9.4901995004056
      ],
      [
        "▁handle",
        -9.490738467906798
      ],
      [
        "▁zuckerberg",
        -9.491093668062668
      ],
      [
        "▁television",
        -9.491093668224021
      ],
      [
        "▁boehner",
        -9.491093670360755
      ],
      [
        "▁universe",
        -9.491094115122857
      ],
      [
        "▁international",
        -9.491094453876615
      ],
      [
        "▁crazy",
        -9.491094576499515
      ],
      [
        "▁schumer",
        -9.491094647202615
      ],
      [
        "▁shift",
        -9.491095129087926
      ],
      [
        "▁relieve",
        -9.491097127067011
      ],
      [
        "▁mcdonald",
        -9.491110992459515
      ],
      [
        "▁computer",
        -9.491121191148235
      ],
      [
        "▁empty",
        -9.491122032290043
      ],
      [
        "▁grammy",
        -9.491137912206085
      ],
      [
        "▁trend",
        -9.491194975307202
      ],
      [
        "▁authorities",
        -9.491214094250914
      ],
      [
        "▁sister",
        -9.491223410376486
      ],
      [
        "▁missile",
        -9.491259532553233
      ],
      [
        "▁improve",
        -9.491259834800733
      ],
      [
        "▁drone",
        -9.491324080701347
      ],
      [
        "▁planning",
        -9.491390470825346
      ],
      [
        "▁rico",
        -9.491462599805734
      ],
      [
        "▁tank",
        -9.491593110052383
      ],
      [
        "▁leak",
        -9.491798131568395
      ],
      [
        "▁silence",
        -9.491810134714424
      ],
      [
        "▁alone",
        -9.491834163725672
      ],
      [
        "▁aim",
        -9.49190315794359
      ],
      [
        "▁article",
        -9.492048957194712
      ],
      [
        "▁economic",
        -9.492138448110888
      ],
      [
        "▁dick",
        -9.492320090783613
      ],
      [
        "▁modern",
        -9.492588004003085
      ],
      [
        "▁married",
        -9.492913204620153
      ],
      [
        "▁celebrity",
        -9.492967856607557
      ],
      [
        "▁exactly",
        -9.49318460536503
      ],
      [
        "ization",
        -9.49361917152097
      ],
      [
        "-off",
        -9.494627619910823
      ],
      [
        "▁statement",
        -9.495779761254617
      ],
      [
        "▁released",
        -9.496092631255323
      ],
      [
        "▁'new",
        -9.4962316871228
      ],
      [
        "▁cake",
        -9.49690768670874
      ],
      [
        "▁lie",
        -9.49754464986601
      ],
      [
        "▁successful",
        -9.49842873119118
      ],
      [
        "▁'to",
        -9.498432509835974
      ],
      [
        "▁listen",
        -9.500396366285512
      ],
      [
        "▁games",
        -9.501156528522694
      ],
      [
        "▁bur",
        -9.50245003135824
      ],
      [
        "▁matt",
        -9.502506832579618
      ],
      [
        "pri",
        -9.502801525512677
      ],
      [
        "▁forever",
        -9.502989924839245
      ],
      [
        "▁losing",
        -9.504415062006977
      ],
      [
        "▁please",
        -9.505907093935797
      ],
      [
        "very",
        -9.506814477550005
      ],
      [
        "bri",
        -9.50695061244603
      ],
      [
        "pollster",
        -9.507756709954522
      ],
      [
        "▁user",
        -9.51257387305761
      ],
      [
        "head",
        -9.513002497083898
      ],
      [
        "▁failed",
        -9.51421482548881
      ],
      [
        "▁com",
        -9.515870556019767
      ],
      [
        "▁books",
        -9.516045124768864
      ],
      [
        "▁las",
        -9.516176415238267
      ],
      [
        "▁fantas",
        -9.516884397890806
      ],
      [
        "ign",
        -9.517625210544349
      ],
      [
        "▁peter",
        -9.517651470871954
      ],
      [
        "▁sentence",
        -9.519395467023273
      ],
      [
        "▁tu",
        -9.520085563376263
      ],
      [
        "▁faces",
        -9.520847284319657
      ],
      [
        "bi",
        -9.521319787272361
      ],
      [
        "▁india",
        -9.521538750858683
      ],
      [
        "ov",
        -9.522721952626444
      ],
      [
        "▁thank",
        -9.522777339457372
      ],
      [
        "▁discovered",
        -9.52279186821486
      ],
      [
        "▁drag",
        -9.523234414069428
      ],
      [
        "▁lobby",
        -9.523283569983594
      ],
      [
        "▁map",
        -9.523368512773061
      ],
      [
        "▁equal",
        -9.52369073696276
      ],
      [
        "▁novel",
        -9.523735186468317
      ],
      [
        "▁del",
        -9.524041563564593
      ],
      [
        "▁mistake",
        -9.524153860675938
      ],
      [
        "▁habit",
        -9.524189633254316
      ],
      [
        "▁text",
        -9.524411578172286
      ],
      [
        "▁alabama",
        -9.524427007391534
      ],
      [
        "▁domestic",
        -9.52442704546136
      ],
      [
        "▁studio",
        -9.524427063830363
      ],
      [
        "▁soccer",
        -9.524427072212347
      ],
      [
        "▁newspaper",
        -9.524427153615886
      ],
      [
        "▁concert",
        -9.524427475785767
      ],
      [
        "▁emergency",
        -9.524427570392389
      ],
      [
        "▁racism",
        -9.52442770276554
      ],
      [
        "▁disaster",
        -9.524427925438566
      ],
      [
        "▁reduce",
        -9.524429113671225
      ],
      [
        "▁idiot",
        -9.524431236741494
      ],
      [
        "▁saving",
        -9.524448800492172
      ],
      [
        "▁rid",
        -9.524462158222583
      ],
      [
        "▁noah",
        -9.524467755968141
      ],
      [
        "▁conflict",
        -9.524474897865293
      ],
      [
        "▁nude",
        -9.524475907469935
      ],
      [
        "▁trust",
        -9.524480191541025
      ],
      [
        "▁conference",
        -9.524536275254444
      ],
      [
        "▁crush",
        -9.524552523295512
      ],
      [
        "▁mitch",
        -9.524667594123411
      ],
      [
        "▁score",
        -9.52472693255381
      ],
      [
        "▁dump",
        -9.524750423302741
      ],
      [
        "▁heaven",
        -9.524864052258073
      ],
      [
        "▁memorial",
        -9.52520515622896
      ],
      [
        "face",
        -9.525242386947962
      ],
      [
        "▁campus",
        -9.525299733908922
      ],
      [
        "▁nail",
        -9.525313819670707
      ],
      [
        "▁terrorist",
        -9.525623038135205
      ],
      [
        "affle",
        -9.525807394617516
      ],
      [
        "▁exist",
        -9.525882994891795
      ],
      [
        "▁mall",
        -9.52617888657066
      ],
      [
        "▁faith",
        -9.526367063117416
      ],
      [
        "▁mars",
        -9.526367994913231
      ],
      [
        "▁x",
        -9.526665263819643
      ],
      [
        "▁violent",
        -9.526794565830878
      ],
      [
        "50",
        -9.527225804583658
      ],
      [
        "▁disappointed",
        -9.529281349578147
      ],
      [
        "▁repeated",
        -9.529954868339797
      ],
      [
        "▁45",
        -9.530219041759953
      ],
      [
        "▁shape",
        -9.531192718802245
      ],
      [
        "▁term",
        -9.532747629672237
      ],
      [
        "ates",
        -9.533390111075214
      ],
      [
        "ise",
        -9.53566316182474
      ],
      [
        "▁row",
        -9.537525712503307
      ],
      [
        "▁wo",
        -9.538738887406804
      ],
      [
        "▁recipes",
        -9.538983300109152
      ],
      [
        "▁victim",
        -9.539841687947003
      ],
      [
        "ump",
        -9.540169839026746
      ],
      [
        "▁parking",
        -9.54460700872602
      ],
      [
        "▁weapons",
        -9.544859558611897
      ],
      [
        "mate",
        -9.54709500766657
      ],
      [
        "▁funnies",
        -9.548058469161019
      ],
      [
        "▁figures",
        -9.549117662169065
      ],
      [
        "▁wh",
        -9.5494750815122
      ],
      [
        "▁spen",
        -9.54990006379167
      ],
      [
        "▁pants",
        -9.551570180886138
      ],
      [
        "-de",
        -9.552599556255913
      ],
      [
        "▁nor",
        -9.553474862666036
      ],
      [
        "▁offering",
        -9.553580463475644
      ],
      [
        "▁growing",
        -9.55388297746721
      ],
      [
        "▁rob",
        -9.556030550611583
      ],
      [
        "our",
        -9.557592938902662
      ],
      [
        "!'",
        -9.558099192352518
      ],
      [
        "▁masturbat",
        -9.55890976046863
      ],
      [
        "▁trouble",
        -9.558909761552515
      ],
      [
        "▁society",
        -9.558909768501266
      ],
      [
        "▁horror",
        -9.55890980080471
      ],
      [
        "▁regular",
        -9.558909927013453
      ],
      [
        "▁awesome",
        -9.55891037809624
      ],
      [
        "▁instead",
        -9.558911608332545
      ],
      [
        "▁gender",
        -9.5589191959953
      ],
      [
        "▁rnc",
        -9.558920802132683
      ],
      [
        "▁funeral",
        -9.558923744451407
      ],
      [
        "▁gain",
        -9.558963421533026
      ],
      [
        "▁gym",
        -9.558967591828456
      ],
      [
        "▁stole",
        -9.559243805064455
      ],
      [
        "▁comedy",
        -9.559249996332383
      ],
      [
        "▁appearance",
        -9.559274205618062
      ],
      [
        "▁safety",
        -9.559421641053955
      ],
      [
        "▁nick",
        -9.559469707508768
      ],
      [
        "▁sort",
        -9.559513829468495
      ],
      [
        "▁trick",
        -9.55959800398034
      ],
      [
        "▁grave",
        -9.559604074150975
      ],
      [
        "▁mention",
        -9.559620529012921
      ],
      [
        "▁trash",
        -9.55966769890529
      ],
      [
        "▁bannon",
        -9.55968172625052
      ],
      [
        "▁ken",
        -9.559853339467354
      ],
      [
        "▁clothes",
        -9.559882850170299
      ],
      [
        "▁diversity",
        -9.560917412375774
      ],
      [
        "▁whatever",
        -9.5611798035083
      ],
      [
        "▁dan",
        -9.561682628591203
      ],
      [
        "▁wage",
        -9.56202734112606
      ],
      [
        "▁comic",
        -9.56215250908118
      ],
      [
        "▁document",
        -9.562804454262327
      ],
      [
        "▁statue",
        -9.563477478845089
      ],
      [
        "▁cheer",
        -9.564349101925334
      ],
      [
        "▁yourself",
        -9.564452880384588
      ],
      [
        "▁kate",
        -9.564557834050282
      ],
      [
        "▁tape",
        -9.565203326565776
      ],
      [
        "▁guests",
        -9.565486759867431
      ],
      [
        "-on",
        -9.566007943279583
      ],
      [
        "▁beginn",
        -9.56663911345995
      ],
      [
        "come",
        -9.567836085253655
      ],
      [
        "▁fly",
        -9.568215364863912
      ],
      [
        "▁israeli",
        -9.569322765804852
      ],
      [
        "▁'in",
        -9.56995915651028
      ],
      [
        "▁vice",
        -9.570888189136088
      ],
      [
        "▁calling",
        -9.571267455434379
      ],
      [
        "▁terrifie",
        -9.571387055416695
      ],
      [
        "immediately",
        -9.571770734857749
      ],
      [
        "▁id",
        -9.572167721364448
      ],
      [
        "▁laugh",
        -9.57228997953098
      ],
      [
        "▁summ",
        -9.573344087785475
      ],
      [
        "aught",
        -9.574183758508383
      ],
      [
        "▁chi",
        -9.57473364592477
      ],
      [
        "▁ba",
        -9.57476102502261
      ],
      [
        "▁cons",
        -9.57485603055447
      ],
      [
        "▁image",
        -9.575849456644661
      ],
      [
        "▁critics",
        -9.576548668350597
      ],
      [
        "nic",
        -9.581544337263502
      ],
      [
        "mission",
        -9.581689346570153
      ],
      [
        "ett",
        -9.582134139872014
      ],
      [
        "video",
        -9.582219955997463
      ],
      [
        "part",
        -9.58402131232112
      ],
      [
        "▁pai",
        -9.58523766785671
      ],
      [
        "▁che",
        -9.586211600448443
      ],
      [
        "▁era",
        -9.587450449087585
      ],
      [
        "▁hunt",
        -9.58824290857687
      ],
      [
        "▁j.",
        -9.588314966027777
      ],
      [
        "▁div",
        -9.588721784445159
      ],
      [
        "▁serious",
        -9.589072485197898
      ],
      [
        "▁bi",
        -9.589448579310199
      ],
      [
        "▁pe",
        -9.59170168154987
      ],
      [
        "rising",
        -9.593073362520144
      ],
      [
        "▁pen",
        -9.593974575032927
      ],
      [
        "▁effect",
        -9.594253679239934
      ],
      [
        "▁legend",
        -9.594537032594689
      ],
      [
        "▁ivanka",
        -9.59462404814871
      ],
      [
        "▁hawaii",
        -9.594624060254906
      ],
      [
        "▁knock",
        -9.594624292036576
      ],
      [
        "▁kitchen",
        -9.594624741205664
      ],
      [
        "▁mourn",
        -9.594634028089436
      ],
      [
        "▁depressed",
        -9.594635615759804
      ],
      [
        "▁gather",
        -9.594636352657623
      ],
      [
        "▁naked",
        -9.594646358247681
      ],
      [
        "▁cabinet",
        -9.59472571007242
      ],
      [
        "▁argument",
        -9.59475658654473
      ],
      [
        "▁predict",
        -9.594775717621427
      ],
      [
        "ft",
        -9.594785076842712
      ],
      [
        "▁kiss",
        -9.594800729141653
      ],
      [
        "▁piss",
        -9.59481031353678
      ],
      [
        "▁themselves",
        -9.59483024908482
      ],
      [
        "▁spill",
        -9.594839780407098
      ],
      [
        "▁shutdown",
        -9.594855330959678
      ],
      [
        "▁sunday",
        -9.594858843044673
      ],
      [
        "▁ruling",
        -9.594868010095688
      ],
      [
        "▁hill",
        -9.594879740806352
      ],
      [
        "▁understand",
        -9.594893507934142
      ],
      [
        "▁respect",
        -9.595073229919887
      ],
      [
        "▁radio",
        -9.595374428206934
      ],
      [
        "▁charles",
        -9.595428026963294
      ],
      [
        "▁partner",
        -9.595431208497997
      ],
      [
        "▁raid",
        -9.595522617442464
      ],
      [
        "▁passengers",
        -9.596512675343504
      ],
      [
        "▁prime",
        -9.596559073804217
      ],
      [
        "▁normal",
        -9.596715802528603
      ],
      [
        "▁yes",
        -9.597045386858182
      ],
      [
        "▁wine",
        -9.597275806442212
      ],
      [
        "▁ar",
        -9.597593368280585
      ],
      [
        "pping",
        -9.597787996709332
      ],
      [
        "▁master",
        -9.598165839537112
      ],
      [
        "▁require",
        -9.598220392857124
      ],
      [
        "▁lift",
        -9.598223662838054
      ],
      [
        "▁ignore",
        -9.598763700306876
      ],
      [
        "▁carry",
        -9.59939649590028
      ],
      [
        "▁christ",
        -9.600063631170727
      ],
      [
        "▁hide",
        -9.600604981525331
      ],
      [
        "▁anger",
        -9.60071257627699
      ],
      [
        "▁born",
        -9.601640368543626
      ],
      [
        "▁protests",
        -9.603073308946367
      ],
      [
        "▁lake",
        -9.60313717629018
      ],
      [
        "▁joy",
        -9.603199599158177
      ],
      [
        "▁along",
        -9.60382170391193
      ],
      [
        "▁adam",
        -9.60434456501108
      ],
      [
        "act",
        -9.604765593195424
      ],
      [
        "sean",
        -9.605238377183461
      ],
      [
        "▁easter",
        -9.605466394057895
      ],
      [
        "▁designer",
        -9.605594173117112
      ],
      [
        "▁web",
        -9.606439640179541
      ],
      [
        "board",
        -9.607858247096171
      ],
      [
        "▁rose",
        -9.608101791587353
      ],
      [
        "▁robot",
        -9.608170523748385
      ],
      [
        "▁busy",
        -9.60967556928603
      ],
      [
        "▁guns",
        -9.610044769300956
      ],
      [
        "▁fl",
        -9.610558703450149
      ],
      [
        "▁'do",
        -9.61199924722968
      ],
      [
        "ert",
        -9.61442752233952
      ],
      [
        "dear",
        -9.615250641483428
      ],
      [
        "▁admit",
        -9.615545657787077
      ],
      [
        "▁'j",
        -9.61626435356104
      ],
      [
        "▁sale",
        -9.616578390092346
      ],
      [
        "▁classic",
        -9.618662312008865
      ],
      [
        "▁decades",
        -9.618700550282705
      ],
      [
        "where",
        -9.620099064902252
      ],
      [
        "book",
        -9.620115733823315
      ],
      [
        "▁within",
        -9.620197734894958
      ],
      [
        "house",
        -9.621499059498149
      ],
      [
        "▁$5",
        -9.622164536565222
      ],
      [
        "▁90",
        -9.624619546771164
      ],
      [
        "▁warm",
        -9.624794163014275
      ],
      [
        "▁drinking",
        -9.62510640290629
      ],
      [
        "▁pat",
        -9.626847706547645
      ],
      [
        "▁influence",
        -9.627052352236314
      ],
      [
        "▁strip",
        -9.627231004284008
      ],
      [
        "izing",
        -9.628369463217822
      ],
      [
        "▁places",
        -9.629099961614873
      ],
      [
        "▁pin",
        -9.629301731937707
      ],
      [
        "▁ny",
        -9.629440610618493
      ],
      [
        "▁pan",
        -9.63023539545156
      ],
      [
        "▁strategy",
        -9.631661082789568
      ],
      [
        "▁democracy",
        -9.631661082838493
      ],
      [
        "▁professor",
        -9.631661083061392
      ],
      [
        "▁kushner",
        -9.631661090365935
      ],
      [
        "▁potential",
        -9.6316611233175
      ],
      [
        "▁injured",
        -9.63166127071645
      ],
      [
        "▁portrait",
        -9.631661369731283
      ],
      [
        "▁attorney",
        -9.631661758552879
      ],
      [
        "▁casual",
        -9.631662925043265
      ],
      [
        "▁kanye",
        -9.631662929342395
      ],
      [
        "▁split",
        -9.631663177652854
      ],
      [
        "▁ocean",
        -9.631663282932085
      ],
      [
        "▁constant",
        -9.631665388747194
      ],
      [
        "▁blind",
        -9.631667908984975
      ],
      [
        "▁healthcare",
        -9.63166848231085
      ],
      [
        "▁collapse",
        -9.631668843529553
      ],
      [
        "▁spark",
        -9.631668847664807
      ],
      [
        "▁exclusive",
        -9.63169894191338
      ],
      [
        "▁fraud",
        -9.631726077180437
      ],
      [
        "▁silver",
        -9.631730307300929
      ],
      [
        "▁vision",
        -9.631743514712612
      ],
      [
        "▁jackson",
        -9.631766486076781
      ],
      [
        "▁crew",
        -9.631775755970613
      ],
      [
        "▁ticket",
        -9.631795602383983
      ],
      [
        "▁nba",
        -9.631802262932275
      ],
      [
        "▁stamp",
        -9.631926627833362
      ],
      [
        "▁pride",
        -9.631936515321458
      ],
      [
        "▁grant",
        -9.63195004778305
      ],
      [
        "▁memory",
        -9.631978118811016
      ],
      [
        "▁bunch",
        -9.632448119001307
      ],
      [
        "▁affect",
        -9.632866585376371
      ],
      [
        "▁georgia",
        -9.632875817703887
      ],
      [
        "▁indian",
        -9.632941449612634
      ],
      [
        "▁milk",
        -9.633045228005795
      ],
      [
        "▁serve",
        -9.633093674164371
      ],
      [
        "▁attention",
        -9.633197518681293
      ],
      [
        "▁muslims",
        -9.633223100759999
      ],
      [
        "▁chain",
        -9.633278703789083
      ],
      [
        "▁perry",
        -9.633369901460915
      ],
      [
        "▁boost",
        -9.633434486941889
      ],
      [
        "▁cute",
        -9.633945776463753
      ],
      [
        "▁mus",
        -9.633985573228095
      ],
      [
        "▁constitution",
        -9.634470808669747
      ],
      [
        "▁pac",
        -9.63628994364055
      ],
      [
        "like",
        -9.638943727248936
      ],
      [
        "▁rent",
        -9.639992315356116
      ],
      [
        "ight",
        -9.641111679295424
      ],
      [
        "▁'it'",
        -9.641863180214175
      ],
      [
        "▁parenting",
        -9.641998994313129
      ],
      [
        "▁note",
        -9.642440621076082
      ],
      [
        "▁cuts",
        -9.642646580756013
      ],
      [
        "▁ski",
        -9.643204212345646
      ],
      [
        "▁jet",
        -9.643239402310513
      ],
      [
        "row",
        -9.643945936147317
      ],
      [
        "tz",
        -9.644407845531221
      ],
      [
        "long",
        -9.644594699426815
      ],
      [
        "▁leg",
        -9.64584258585481
      ],
      [
        "▁weeks",
        -9.646143151008596
      ],
      [
        "▁im",
        -9.648528379021897
      ],
      [
        "▁don",
        -9.649467705308458
      ],
      [
        "▁gone",
        -9.649961796436946
      ],
      [
        "▁shower",
        -9.650424575413773
      ],
      [
        "▁higher",
        -9.652620325315496
      ],
      [
        "▁unsur",
        -9.65338596388171
      ],
      [
        "▁ver",
        -9.653805134567465
      ],
      [
        "▁cancel",
        -9.654342035102463
      ],
      [
        "▁hy",
        -9.654408475871012
      ],
      [
        "▁poster",
        -9.654563992561338
      ],
      [
        "illa",
        -9.654571879142217
      ],
      [
        "▁generation",
        -9.655550445838212
      ],
      [
        "-time",
        -9.655641337970456
      ],
      [
        "ese",
        -9.655919369011428
      ],
      [
        "▁bombing",
        -9.656012492315266
      ],
      [
        "lock",
        -9.658460924291758
      ],
      [
        "▁ge",
        -9.658632245215674
      ],
      [
        "▁wind",
        -9.661122404184699
      ],
      [
        "▁changed",
        -9.661644912078856
      ],
      [
        "▁include",
        -9.661679641813937
      ],
      [
        "▁ii",
        -9.66251483517329
      ],
      [
        "▁coast",
        -9.666655826972843
      ],
      [
        "▁weigh",
        -9.667319261311963
      ],
      [
        "▁sandwich",
        -9.667843077058974
      ],
      [
        "▁mr",
        -9.667977984952405
      ],
      [
        "ied",
        -9.66866946606599
      ],
      [
        "mir",
        -9.668737415308444
      ],
      [
        "▁horrifi",
        -9.668850924200706
      ],
      [
        "▁comfort",
        -9.669422281139166
      ],
      [
        "▁cd",
        -9.670107964159067
      ],
      [
        "▁misconduct",
        -9.670122621217054
      ],
      [
        "▁intelligence",
        -9.670122621222088
      ],
      [
        "▁bizarre",
        -9.67012262228062
      ],
      [
        "▁surprising",
        -9.670122623113487
      ],
      [
        "▁brutal",
        -9.670122679049058
      ],
      [
        "▁thrill",
        -9.670122679422203
      ],
      [
        "▁journey",
        -9.670122765979125
      ],
      [
        "▁melania",
        -9.670123150442262
      ],
      [
        "▁brazil",
        -9.670123372929591
      ],
      [
        "▁expand",
        -9.670123953791341
      ],
      [
        "▁digital",
        -9.670123973957228
      ],
      [
        "▁capital",
        -9.670124141456423
      ],
      [
        "▁traffic",
        -9.670124436322201
      ],
      [
        "▁kimmel",
        -9.670125327527892
      ],
      [
        "▁request",
        -9.670125610965384
      ],
      [
        "▁cohen",
        -9.670128982337838
      ],
      [
        "▁position",
        -9.670136921321648
      ],
      [
        "▁defeat",
        -9.670138928697632
      ],
      [
        "▁comedian",
        -9.670141774404055
      ],
      [
        "▁inequality",
        -9.670174786612344
      ],
      [
        "▁tribute",
        -9.670193389135296
      ],
      [
        "▁u.",
        -9.670282078319914
      ],
      [
        "▁progressive",
        -9.67035604306782
      ],
      [
        "▁tiny",
        -9.670412861697432
      ],
      [
        "▁fifth",
        -9.670435457028024
      ],
      [
        "▁weak",
        -9.67083774241986
      ],
      [
        "▁corporate",
        -9.670882743762148
      ],
      [
        "▁absolutely",
        -9.670887936434507
      ],
      [
        "▁scout",
        -9.671463777985156
      ],
      [
        "▁feet",
        -9.671601896721768
      ],
      [
        "▁cream",
        -9.672392092951686
      ],
      [
        "▁earn",
        -9.672976633148464
      ],
      [
        "▁tourist",
        -9.673196754588702
      ],
      [
        "▁coworkers",
        -9.674079675240886
      ],
      [
        "▁bond",
        -9.674231624486595
      ],
      [
        "▁jared",
        -9.675062186155712
      ],
      [
        "▁musical",
        -9.676591924030765
      ],
      [
        "▁pre-",
        -9.677728401322886
      ],
      [
        "▁army",
        -9.6781128352356
      ],
      [
        "aged",
        -9.67812792509806
      ],
      [
        "▁broken",
        -9.678411377936513
      ],
      [
        "fully",
        -9.678635320188086
      ],
      [
        "▁couldn't",
        -9.680661687611359
      ],
      [
        "▁consider",
        -9.680903558916732
      ],
      [
        "▁disgusting",
        -9.682140426064375
      ],
      [
        "▁taste",
        -9.682450977807287
      ],
      [
        "▁publish",
        -9.682813330339325
      ],
      [
        "the",
        -9.68319517033015
      ],
      [
        "▁sent",
        -9.683212779846047
      ],
      [
        "ew",
        -9.685517115557403
      ],
      [
        "port",
        -9.686046576521221
      ],
      [
        "▁mary",
        -9.68618435766658
      ],
      [
        "armed",
        -9.686230922378229
      ],
      [
        "-life",
        -9.68652624145156
      ],
      [
        "▁pot",
        -9.686572538416126
      ],
      [
        "▁teach",
        -9.686704675893587
      ],
      [
        "▁ru",
        -9.686707692027868
      ],
      [
        "▁sessions",
        -9.687029811877828
      ],
      [
        "▁sch",
        -9.687415301015818
      ],
      [
        "▁begin",
        -9.68771232693636
      ],
      [
        "ang",
        -9.688734826962612
      ],
      [
        "gan",
        -9.688885645310094
      ],
      [
        "▁survive",
        -9.689589805301917
      ],
      [
        "▁embarrass",
        -9.691496471379299
      ],
      [
        "becoming",
        -9.692534048563092
      ],
      [
        "▁practice",
        -9.692699619283195
      ],
      [
        "▁speaker",
        -9.69348718613007
      ],
      [
        "▁neighbor",
        -9.695473816550464
      ],
      [
        "edge",
        -9.69569940223309
      ],
      [
        "▁conservative",
        -9.696268585329314
      ],
      [
        "▁latino",
        -9.69663579512551
      ],
      [
        "▁animal",
        -9.696647927277755
      ],
      [
        "▁guys",
        -9.696673888015132
      ],
      [
        "▁tears",
        -9.698621908636943
      ],
      [
        "▁count",
        -9.699090819774359
      ],
      [
        "▁$2",
        -9.69919411400519
      ],
      [
        "off",
        -9.69932853335799
      ],
      [
        "▁pain",
        -9.70218281473638
      ],
      [
        "▁spott",
        -9.704497037081
      ],
      [
        "▁consum",
        -9.706553235727798
      ],
      [
        "ware",
        -9.707149867331468
      ],
      [
        "▁intern",
        -9.707669617457988
      ],
      [
        "▁historic",
        -9.708263243384257
      ],
      [
        "▁endorse",
        -9.709582743313407
      ],
      [
        "▁giuliani",
        -9.710122621221007
      ],
      [
        "▁behavior",
        -9.71012262122921
      ],
      [
        "▁revolution",
        -9.710122621253266
      ],
      [
        "▁stewart",
        -9.710122621751687
      ],
      [
        "▁experiment",
        -9.710122621834817
      ],
      [
        "▁plastic",
        -9.710122667995659
      ],
      [
        "▁kansas",
        -9.710122677038616
      ],
      [
        "▁celebrities",
        -9.710122777312954
      ],
      [
        "▁natural",
        -9.710122847710712
      ],
      [
        "▁torture",
        -9.710123294824484
      ],
      [
        "▁famous",
        -9.710123544443869
      ],
      [
        "-them",
        -9.710134971420592
      ],
      [
        "▁inauguration",
        -9.710144367911049
      ],
      [
        "▁favor",
        -9.710152558557478
      ],
      [
        "▁exchange",
        -9.710177098231341
      ],
      [
        "▁frantic",
        -9.710189080042461
      ],
      [
        "▁patron",
        -9.710229230807865
      ],
      [
        "▁display",
        -9.710251623909627
      ],
      [
        "▁minister",
        -9.710256398978022
      ],
      [
        "▁richard",
        -9.71031523995462
      ],
      [
        "▁smart",
        -9.710333490255602
      ],
      [
        "▁baseball",
        -9.710341960546868
      ],
      [
        "▁adopt",
        -9.710342425225075
      ],
      [
        "terior",
        -9.710388390288799
      ],
      [
        "serial",
        -9.710537434147648
      ],
      [
        "▁worry",
        -9.710638365148723
      ],
      [
        "▁barack",
        -9.710674389240854
      ],
      [
        "▁technology",
        -9.7107605211007
      ],
      [
        "ought",
        -9.71082081228596
      ],
      [
        "▁shark",
        -9.71090878512697
      ],
      [
        "stone",
        -9.710926862997008
      ],
      [
        "▁equality",
        -9.711062339663489
      ],
      [
        "▁jury",
        -9.711235442622959
      ],
      [
        "▁slight",
        -9.711273980322057
      ],
      [
        "▁spirit",
        -9.7114226106586
      ],
      [
        "▁exhausted",
        -9.711540148020134
      ],
      [
        "▁premiere",
        -9.711569118313209
      ],
      [
        "▁carrie",
        -9.712186815684877
      ],
      [
        "▁lifetime",
        -9.712747307198363
      ],
      [
        "vs.",
        -9.71322985917416
      ],
      [
        "gi",
        -9.713435478631915
      ],
      [
        "▁threats",
        -9.713457538190942
      ],
      [
        "▁field",
        -9.715070332519051
      ],
      [
        "▁original",
        -9.715527944750582
      ],
      [
        "▁olympics",
        -9.71569207128565
      ],
      [
        "▁'n",
        -9.717238544970849
      ],
      [
        "▁training",
        -9.717411134994174
      ],
      [
        "▁jon",
        -9.718381191021152
      ],
      [
        "▁ali",
        -9.71915714699875
      ],
      [
        "▁emerge",
        -9.719775109752963
      ],
      [
        "▁wouldn't",
        -9.719839608568837
      ],
      [
        "berg",
        -9.721681074259813
      ],
      [
        "▁failing",
        -9.722140851843921
      ],
      [
        "nna",
        -9.722435724932682
      ],
      [
        "▁tap",
        -9.722512104269592
      ],
      [
        "▁burning",
        -9.72291665002348
      ],
      [
        "▁lone",
        -9.723482552806193
      ],
      [
        "▁feed",
        -9.726153104408473
      ],
      [
        "▁due",
        -9.727610884580614
      ],
      [
        "▁loser",
        -9.727791948870951
      ],
      [
        "▁tonight",
        -9.727851557944835
      ],
      [
        "n.",
        -9.731283743540239
      ],
      [
        "▁tra",
        -9.731694113462229
      ],
      [
        "▁annoy",
        -9.733449050819003
      ],
      [
        "▁teachers",
        -9.733473923617986
      ],
      [
        "▁23",
        -9.734444511335049
      ],
      [
        "uff",
        -9.734837082045223
      ],
      [
        "▁legislati",
        -9.734974964349226
      ],
      [
        "▁prom",
        -9.735333884718585
      ],
      [
        "▁saved",
        -9.738288069805723
      ],
      [
        "wide",
        -9.738327071307957
      ],
      [
        "▁yo",
        -9.73851917207012
      ],
      [
        "sexual",
        -9.739548067400916
      ],
      [
        "▁respond",
        -9.74025925222463
      ],
      [
        "tro",
        -9.740494559830504
      ],
      [
        "came",
        -9.740636582081862
      ],
      [
        "▁minute",
        -9.74066662176546
      ],
      [
        "▁terrif",
        -9.745167765416639
      ],
      [
        "▁port",
        -9.745362384143764
      ],
      [
        "▁hu",
        -9.74755990283738
      ],
      [
        "▁recent",
        -9.747924441275222
      ],
      [
        "▁broke",
        -9.748246177610381
      ],
      [
        "▁70",
        -9.748286651464738
      ],
      [
        "▁ob",
        -9.748523808129555
      ],
      [
        "▁collect",
        -9.750904675920102
      ],
      [
        "▁coach",
        -9.751773312274661
      ],
      [
        "*",
        -9.751789277669067
      ],
      [
        "▁headquarters",
        -9.751789287883721
      ],
      [
        "▁difficult",
        -9.751789287887554
      ],
      [
        "▁object",
        -9.75178928789597
      ],
      [
        "▁controversy",
        -9.751789287898156
      ],
      [
        "▁resolution",
        -9.75178928796037
      ],
      [
        "▁council",
        -9.75178928842643
      ],
      [
        "▁millennial",
        -9.751789288464192
      ],
      [
        "▁ultimate",
        -9.751789288761415
      ],
      [
        "▁anxiety",
        -9.751789293331196
      ],
      [
        "▁solution",
        -9.75178929688207
      ],
      [
        "▁impression",
        -9.75178933593422
      ],
      [
        "▁difference",
        -9.75178934952347
      ],
      [
        "▁incident",
        -9.751789378191733
      ],
      [
        "▁execution",
        -9.751789419768066
      ],
      [
        "▁mysterious",
        -9.751789528437515
      ],
      [
        "▁profile",
        -9.751789652617227
      ],
      [
        "▁weinstein",
        -9.75178996593148
      ],
      [
        "▁reunite",
        -9.751790557146755
      ],
      [
        "▁legacy",
        -9.751791308814397
      ],
      [
        "▁beyond",
        -9.75179197205943
      ],
      [
        "▁unaware",
        -9.751792028034114
      ],
      [
        "▁grill",
        -9.751792877806665
      ],
      [
        "▁nurse",
        -9.751795009975371
      ],
      [
        "▁nbc",
        -9.75180113520614
      ],
      [
        "▁appeal",
        -9.751814250762964
      ],
      [
        "▁countries",
        -9.751827432688826
      ],
      [
        "-sex",
        -9.751832225258276
      ],
      [
        "▁section",
        -9.751848104250367
      ],
      [
        "▁cheney",
        -9.751949082363172
      ],
      [
        "▁meditation",
        -9.752021977939517
      ],
      [
        "▁leadership",
        -9.752110257133081
      ],
      [
        "▁roger",
        -9.752151130847786
      ],
      [
        "▁dollar",
        -9.752156689824869
      ],
      [
        "▁len",
        -9.752183248300476
      ],
      [
        "▁flip",
        -9.752250999002737
      ],
      [
        "▁corden",
        -9.752473345070609
      ],
      [
        "▁pressure",
        -9.752513063242667
      ],
      [
        "▁title",
        -9.752622951204986
      ],
      [
        "▁population",
        -9.753152270800786
      ],
      [
        "▁shock",
        -9.753219686777584
      ],
      [
        "▁highway",
        -9.753363718259383
      ],
      [
        "-hour",
        -9.754430017043324
      ],
      [
        "▁spread",
        -9.754775108561963
      ],
      [
        "▁marine",
        -9.75484938384544
      ],
      [
        "▁wolf",
        -9.754853499290483
      ],
      [
        "▁ear",
        -9.756982891763531
      ],
      [
        "▁ke",
        -9.757010984479255
      ],
      [
        "ody",
        -9.761188765228551
      ],
      [
        "▁sen",
        -9.76199206349028
      ],
      [
        "▁ya",
        -9.762188927604562
      ],
      [
        "▁mil",
        -9.762786705896609
      ],
      [
        "▁sky",
        -9.763272758208728
      ],
      [
        "▁spin",
        -9.763321474627892
      ],
      [
        "▁half-",
        -9.764125525256794
      ],
      [
        "▁shar",
        -9.765090510294229
      ],
      [
        "ust",
        -9.765490712283182
      ],
      [
        "▁show'",
        -9.766038069660608
      ],
      [
        "▁cooper",
        -9.766220303198374
      ],
      [
        "▁tough",
        -9.766689414031456
      ],
      [
        "▁polls",
        -9.766977825652145
      ],
      [
        "▁pro-",
        -9.769260566091905
      ],
      [
        "▁later",
        -9.771287071180959
      ],
      [
        "▁fed",
        -9.77156913177501
      ],
      [
        "▁'ho",
        -9.772573364348611
      ],
      [
        "▁players",
        -9.772724177107339
      ],
      [
        "▁bust",
        -9.77285978798378
      ],
      [
        "room",
        -9.777736037589133
      ],
      [
        "▁heads",
        -9.777815880572538
      ],
      [
        "ison",
        -9.779904282445113
      ],
      [
        "ative",
        -9.78002058245088
      ],
      [
        "▁notice",
        -9.781659069813541
      ],
      [
        "▁lin",
        -9.782393985067943
      ],
      [
        "▁donate",
        -9.783017700039416
      ],
      [
        "-be",
        -9.783882109750527
      ],
      [
        "box",
        -9.78534054683963
      ],
      [
        "▁activist",
        -9.785675402869268
      ],
      [
        "▁tip",
        -9.785878153877485
      ],
      [
        "▁lies",
        -9.786368914344175
      ],
      [
        "gue",
        -9.786984483716317
      ],
      [
        "▁parad",
        -9.786994446182096
      ],
      [
        "▁benefits",
        -9.787644214370864
      ],
      [
        "▁panic",
        -9.788777085225721
      ],
      [
        "tan",
        -9.789427110997575
      ],
      [
        "▁magic",
        -9.78980067137873
      ],
      [
        "▁actual",
        -9.78982656528256
      ],
      [
        "▁dogs",
        -9.790161211652729
      ],
      [
        "▁cu",
        -9.791827570785363
      ],
      [
        "▁eu",
        -9.79272168164045
      ],
      [
        "dam",
        -9.793645105766304
      ],
      [
        "range",
        -9.79366689846144
      ],
      [
        "▁african",
        -9.794392515991905
      ],
      [
        "▁apolog",
        -9.794654212614116
      ],
      [
        "▁import",
        -9.79501847227419
      ],
      [
        "▁hampshire",
        -9.79526754875575
      ],
      [
        "▁extreme",
        -9.795267549998044
      ],
      [
        "▁bottle",
        -9.795267577214505
      ],
      [
        "▁illegal",
        -9.795267588416868
      ],
      [
        "▁positive",
        -9.79526762042601
      ],
      [
        "▁broadway",
        -9.795267656419966
      ],
      [
        "▁spoof",
        -9.795267742848349
      ],
      [
        "▁kevin",
        -9.795268460963445
      ],
      [
        "▁period",
        -9.795269877277015
      ],
      [
        "▁liberal",
        -9.79527245378596
      ],
      [
        "▁skills",
        -9.79530926461633
      ],
      [
        "▁colorado",
        -9.795326462628982
      ],
      [
        "▁presidency",
        -9.795328016920102
      ],
      [
        "▁criticism",
        -9.795363547071442
      ],
      [
        "▁cyber",
        -9.7953641162337
      ],
      [
        "▁tele",
        -9.795385426705879
      ],
      [
        "▁toilet",
        -9.7954660569444
      ],
      [
        "▁code",
        -9.795583423841519
      ],
      [
        "▁terrorism",
        -9.795607510671989
      ],
      [
        "▁clip",
        -9.795647062094027
      ],
      [
        "▁charity",
        -9.796517849548334
      ],
      [
        "▁fourth",
        -9.796707115654767
      ],
      [
        "▁saw",
        -9.796834789941219
      ],
      [
        "▁carson",
        -9.797198714825313
      ],
      [
        "▁solve",
        -9.797453994773639
      ],
      [
        "▁century",
        -9.797824273970168
      ],
      [
        "▁flash",
        -9.797833393168663
      ],
      [
        "▁fame",
        -9.797944138443935
      ],
      [
        "▁sight",
        -9.798077078555052
      ],
      [
        "▁receive",
        -9.798422510877709
      ],
      [
        "▁either",
        -9.79932938195522
      ],
      [
        "▁falls",
        -9.79963672866571
      ],
      [
        "▁reache",
        -9.799885485588378
      ],
      [
        "▁boat",
        -9.800125707589078
      ],
      [
        "▁plot",
        -9.800246774738891
      ],
      [
        "▁glad",
        -9.800444729501434
      ],
      [
        "▁speed",
        -9.800777694287952
      ],
      [
        "▁honors",
        -9.801218994118292
      ],
      [
        "▁80",
        -9.801814279194723
      ],
      [
        "▁steven",
        -9.802015697243943
      ],
      [
        "▁seriously",
        -9.802098986675595
      ],
      [
        "▁they'",
        -9.802514737918411
      ],
      [
        "▁princess",
        -9.803902307858406
      ],
      [
        "▁heroin",
        -9.804206961536197
      ],
      [
        "▁boom",
        -9.804763353840865
      ],
      [
        "▁spa",
        -9.80506861039028
      ],
      [
        "▁bull",
        -9.805260873663341
      ],
      [
        "▁aware",
        -9.805868651524237
      ],
      [
        "▁dar",
        -9.80609900349183
      ],
      [
        "▁wor",
        -9.806293840797263
      ],
      [
        "▁apart",
        -9.80673556320003
      ],
      [
        "▁matters",
        -9.807589006906172
      ],
      [
        "▁ty",
        -9.810195710742557
      ],
      [
        "▁conservatives",
        -9.810574162438591
      ],
      [
        "▁'mo",
        -9.810682347366718
      ],
      [
        "right",
        -9.811196101462285
      ],
      [
        "hand",
        -9.81153732872275
      ],
      [
        "▁falling",
        -9.812118338140657
      ],
      [
        "▁wave",
        -9.812450688032312
      ],
      [
        "▁min",
        -9.81300592004869
      ],
      [
        "▁meaning",
        -9.813062157968181
      ],
      [
        "uck",
        -9.816072405088974
      ],
      [
        "capable",
        -9.816094977116247
      ],
      [
        "st.",
        -9.817962333974739
      ],
      [
        "law",
        -9.818031859091604
      ],
      [
        "▁def",
        -9.81843063359645
      ],
      [
        "▁'he",
        -9.820629870959076
      ],
      [
        "▁rating",
        -9.824922494428382
      ],
      [
        "hal",
        -9.826564543668583
      ],
      [
        "▁crimes",
        -9.82739337699742
      ],
      [
        "▁gp",
        -9.82790097605026
      ],
      [
        "pot",
        -9.82807060482155
      ],
      [
        "▁viewers",
        -9.828586600478905
      ],
      [
        "▁'ba",
        -9.829507621210334
      ],
      [
        "xi",
        -9.829781477470254
      ],
      [
        "▁pee",
        -9.832591006198683
      ],
      [
        "▁rap",
        -9.835020782621756
      ],
      [
        "▁slow",
        -9.836241043591603
      ],
      [
        "▁africa",
        -9.83775303642323
      ],
      [
        "graph",
        -9.837801292363192
      ],
      [
        "▁both",
        -9.838654226632542
      ],
      [
        "▁danger",
        -9.839499446669766
      ],
      [
        "fire",
        -9.839802595370337
      ],
      [
        "arian",
        -9.840012863999887
      ],
      [
        "▁drama",
        -9.840474980784855
      ],
      [
        "▁alex",
        -9.840508413832069
      ],
      [
        "▁tea",
        -9.840654774016174
      ],
      [
        "▁conspirac",
        -9.840722094278947
      ],
      [
        "▁illinois",
        -9.840722095316174
      ],
      [
        "▁michigan",
        -9.840722103821118
      ],
      [
        "▁dakota",
        -9.840722115023524
      ],
      [
        "▁obvious",
        -9.84072218126401
      ],
      [
        "▁urban",
        -9.840722250214125
      ],
      [
        "▁cruise",
        -9.840722260787553
      ],
      [
        "▁t-shirt",
        -9.84072246893567
      ],
      [
        "▁vegas",
        -9.840723047915205
      ],
      [
        "▁yemen",
        -9.84072318294255
      ],
      [
        "▁affair",
        -9.840723185912914
      ],
      [
        "▁companies",
        -9.840723797682095
      ],
      [
        "▁mountain",
        -9.840724916019848
      ],
      [
        "▁marvel",
        -9.840725440260787
      ],
      [
        "▁endanger",
        -9.840725586129977
      ],
      [
        "▁orlando",
        -9.840729152264236
      ],
      [
        "▁afghan",
        -9.840729344663194
      ],
      [
        "▁fuel",
        -9.840730616798734
      ],
      [
        "▁monster",
        -9.840732672449608
      ],
      [
        "▁availab",
        -9.840733515585494
      ],
      [
        ".com",
        -9.840741602043385
      ],
      [
        "▁hint",
        -9.840749858219159
      ],
      [
        "▁prescription",
        -9.84075028964682
      ],
      [
        "▁solar",
        -9.840752827703971
      ],
      [
        "▁angry",
        -9.840759935230881
      ],
      [
        "▁hiv",
        -9.840763340498857
      ],
      [
        "▁whale",
        -9.840776604076774
      ],
      [
        "▁boston",
        -9.840783705085572
      ],
      [
        "▁okay",
        -9.840799914801845
      ],
      [
        "▁invite",
        -9.840811570752727
      ],
      [
        "▁yoga",
        -9.840870311751287
      ],
      [
        "▁wildfire",
        -9.840928815830704
      ],
      [
        "▁mask",
        -9.840965946522598
      ],
      [
        "▁transport",
        -9.84096690746529
      ],
      [
        "▁deput",
        -9.84099706586568
      ],
      [
        "▁graham",
        -9.841003091735137
      ],
      [
        "▁miles",
        -9.841037664141501
      ],
      [
        "▁auto",
        -9.841077672103754
      ],
      [
        "▁alert",
        -9.84124668397309
      ],
      [
        "▁gear",
        -9.841456527113483
      ],
      [
        "▁highlight",
        -9.841473667096595
      ],
      [
        "▁proposal",
        -9.84154254035481
      ],
      [
        "▁information",
        -9.84164215312872
      ],
      [
        "▁mail",
        -9.841702895463222
      ],
      [
        "▁pile",
        -9.841832747567047
      ],
      [
        "▁adviser",
        -9.8419856006438
      ],
      [
        "ruce",
        -9.842062910324069
      ],
      [
        "▁exit",
        -9.842785703705735
      ],
      [
        "-free",
        -9.84284930616434
      ],
      [
        "▁moral",
        -9.843028530124798
      ],
      [
        "▁largest",
        -9.84319481310942
      ],
      [
        "▁sexist",
        -9.843688007749595
      ],
      [
        "▁choose",
        -9.843864140687142
      ],
      [
        "▁spicer",
        -9.843894210649003
      ],
      [
        "rought",
        -9.844312930765158
      ],
      [
        "▁organiz",
        -9.844316345774912
      ],
      [
        "▁cuba",
        -9.844376591042362
      ],
      [
        "▁creative",
        -9.844383516275569
      ],
      [
        "wear",
        -9.84463245296472
      ],
      [
        "▁racial",
        -9.844724869117634
      ],
      [
        "▁meets",
        -9.844791855213213
      ],
      [
        "▁corner",
        -9.84515499375374
      ],
      [
        "▁mitt",
        -9.846992310065401
      ],
      [
        "▁iraqi",
        -9.847296228736795
      ],
      [
        "ore",
        -9.84757362640998
      ],
      [
        "▁kyl",
        -9.84827706435001
      ],
      [
        "t.",
        -9.848418537097148
      ],
      [
        "▁pounds",
        -9.849070358869291
      ],
      [
        "▁pic",
        -9.849432268737488
      ],
      [
        "can",
        -9.849481198177786
      ],
      [
        "▁picks",
        -9.84980521614998
      ],
      [
        "ghan",
        -9.8508396701978
      ],
      [
        "her",
        -9.851036468797883
      ],
      [
        "ature",
        -9.851128548228369
      ],
      [
        "aid",
        -9.851146373238858
      ],
      [
        "zz",
        -9.85213483762692
      ],
      [
        "▁screaming",
        -9.852386898136384
      ],
      [
        "▁kit",
        -9.853650556412685
      ],
      [
        "▁children's",
        -9.854363294797833
      ],
      [
        "fu",
        -9.855676197667247
      ],
      [
        "▁nu",
        -9.857529654840647
      ],
      [
        "ery",
        -9.857562164520388
      ],
      [
        "▁'so",
        -9.858784933584383
      ],
      [
        "▁'go",
        -9.858786301284653
      ],
      [
        "▁sy",
        -9.859544743622024
      ],
      [
        "air",
        -9.859814035041165
      ],
      [
        "▁linked",
        -9.860515781077996
      ],
      [
        "ray",
        -9.861547190071423
      ],
      [
        "▁hole",
        -9.861761896839862
      ],
      [
        "▁caus",
        -9.862140401053571
      ],
      [
        "▁fac",
        -9.863231691922884
      ],
      [
        "▁flying",
        -9.865566992704803
      ],
      [
        "▁nav",
        -9.867270895712332
      ],
      [
        "arry",
        -9.869081222522277
      ],
      [
        "▁mat",
        -9.86994709200643
      ],
      [
        "▁shame",
        -9.870182655402742
      ],
      [
        "otic",
        -9.87100413802062
      ],
      [
        "▁works",
        -9.872781236357172
      ],
      [
        "▁strikes",
        -9.87340452079938
      ],
      [
        "bul",
        -9.873523134632277
      ],
      [
        "▁24",
        -9.8738319429271
      ],
      [
        "pped",
        -9.8749327461582
      ],
      [
        "▁'de",
        -9.876286815947338
      ],
      [
        "▁boo",
        -9.878863558344808
      ],
      [
        "▁cow",
        -9.879676236400702
      ],
      [
        "▁inmates",
        -9.880044911137043
      ],
      [
        "▁lawmakers",
        -9.880063418802136
      ],
      [
        "▁statu",
        -9.882035523759903
      ],
      [
        "▁sil",
        -9.882280879357772
      ],
      [
        "▁imp",
        -9.883470493804445
      ],
      [
        "▁expert",
        -9.88355456532599
      ],
      [
        "▁low-",
        -9.883741079845295
      ],
      [
        "▁profit",
        -9.883741511231165
      ],
      [
        "▁ill",
        -9.88516143190842
      ],
      [
        "▁ties",
        -9.885915769877993
      ],
      [
        "▁net",
        -9.886236291334546
      ],
      [
        "▁gifts",
        -9.88688041631742
      ],
      [
        "▁contract",
        -9.887536647504199
      ],
      [
        "cient",
        -9.888180425849024
      ],
      [
        "–",
        -9.888341141826874
      ],
      [
        "▁netanyahu",
        -9.888341141826885
      ],
      [
        "▁beyoncé",
        -9.888341141889427
      ],
      [
        "▁epidemic",
        -9.888341142051711
      ],
      [
        "▁arizona",
        -9.888341142482233
      ],
      [
        "▁humiliat",
        -9.888341142771049
      ],
      [
        "▁english",
        -9.888341143647732
      ],
      [
        "▁convince",
        -9.88834114949837
      ],
      [
        "▁exhibit",
        -9.888341157392812
      ],
      [
        "▁teigen",
        -9.888341196409659
      ],
      [
        "▁perspective",
        -9.88834119967284
      ],
      [
        "▁acquire",
        -9.888341242590549
      ],
      [
        "▁delicious",
        -9.888341325876848
      ],
      [
        "▁detroit",
        -9.888341544945984
      ],
      [
        "▁charlottesville",
        -9.888341864351622
      ],
      [
        "▁routine",
        -9.888341987153442
      ],
      [
        "▁treasur",
        -9.888343064989623
      ],
      [
        "▁hammer",
        -9.888344971071454
      ],
      [
        "▁switch",
        -9.888349582435186
      ],
      [
        "▁actress",
        -9.888351825858098
      ],
      [
        "▁anchor",
        -9.888352735178136
      ],
      [
        "▁electric",
        -9.88835578653198
      ],
      [
        "▁mystery",
        -9.888359823372053
      ],
      [
        "-month",
        -9.888361519539053
      ],
      [
        "▁laden",
        -9.888382305814709
      ],
      [
        "▁empower",
        -9.888389591437251
      ],
      [
        "▁impact",
        -9.888412694594379
      ],
      [
        "▁basket",
        -9.888417124975634
      ],
      [
        "▁youtube",
        -9.888424143284839
      ],
      [
        "▁invent",
        -9.888429990143443
      ],
      [
        "▁awake",
        -9.888436880877853
      ],
      [
        "▁location",
        -9.888442077202466
      ],
      [
        "▁contact",
        -9.88847998684328
      ],
      [
        "▁happiness",
        -9.88848748768783
      ],
      [
        "▁round",
        -9.888518209785428
      ],
      [
        "▁random",
        -9.888571783400867
      ],
      [
        "▁print",
        -9.888572572020546
      ],
      [
        "▁classmate",
        -9.888641026203597
      ],
      [
        "literally",
        -9.888714200062559
      ],
      [
        "conscious",
        -9.88882403413124
      ],
      [
        "▁neck",
        -9.88883473331883
      ],
      [
        "▁standard",
        -9.888896420443894
      ],
      [
        "▁potter",
        -9.888937187390152
      ],
      [
        "▁bored",
        -9.88899042971492
      ],
      [
        "▁priest",
        -9.889026227916645
      ],
      [
        "▁penis",
        -9.889092163615619
      ],
      [
        "▁pump",
        -9.889132050814291
      ],
      [
        "▁gov",
        -9.88921981619139
      ],
      [
        "▁horrible",
        -9.88929115262788
      ],
      [
        "▁feminist",
        -9.889291377009336
      ],
      [
        "▁firefighter",
        -9.88945869725701
      ],
      [
        "▁breath",
        -9.889471432595434
      ],
      [
        "▁suck",
        -9.8896523521542
      ],
      [
        "▁renew",
        -9.889691961718873
      ],
      [
        "▁chill",
        -9.889736034183501
      ],
      [
        "▁reaction",
        -9.889937189217795
      ],
      [
        "▁tower",
        -9.890169899501977
      ],
      [
        "▁'not",
        -9.890263114481236
      ],
      [
        "▁stance",
        -9.890447889856917
      ],
      [
        "▁size",
        -9.890453420778384
      ],
      [
        "▁sink",
        -9.890955090675767
      ],
      [
        "▁prosecutor",
        -9.89113983377424
      ],
      [
        "▁newborn",
        -9.891689344488737
      ],
      [
        "▁amount",
        -9.8923987609142
      ],
      [
        "▁path",
        -9.892431491134534
      ],
      [
        "▁misse",
        -9.893941991534057
      ],
      [
        "▁rand",
        -9.895298604239033
      ],
      [
        "▁damage",
        -9.89593550597674
      ],
      [
        "▁los",
        -9.896451880237851
      ],
      [
        "▁199",
        -9.8965575229489
      ],
      [
        "▁needed",
        -9.89693813793018
      ],
      [
        "cast",
        -9.897704065471512
      ],
      [
        "gar",
        -9.898535480996824
      ],
      [
        "▁bal",
        -9.898963364755854
      ],
      [
        "▁songs",
        -9.899583981537504
      ],
      [
        "▁refus",
        -9.900307058577239
      ],
      [
        "▁businesses",
        -9.902869129554656
      ],
      [
        "▁arrive",
        -9.902934094892048
      ],
      [
        "ai",
        -9.903700413197338
      ],
      [
        "▁imagine",
        -9.905932078092404
      ],
      [
        "▁tuesday",
        -9.907305248781858
      ],
      [
        "▁grand",
        -9.907519702096838
      ],
      [
        "▁jam",
        -9.908462760233547
      ],
      [
        "▁mission",
        -9.90855428860812
      ],
      [
        "▁characters",
        -9.909586711721836
      ],
      [
        "▁encourage",
        -9.911419464749553
      ],
      [
        "▁bla",
        -9.91262281786668
      ],
      [
        "ica",
        -9.914573014557591
      ],
      [
        "▁chase",
        -9.914769720941287
      ],
      [
        "▁threatened",
        -9.91509011821744
      ],
      [
        "▁listening",
        -9.915568684032156
      ],
      [
        "▁rolls",
        -9.915866254458097
      ],
      [
        "▁others",
        -9.916235054156353
      ],
      [
        "5,000",
        -9.918066213968348
      ],
      [
        "▁staffers",
        -9.919589716114087
      ],
      [
        "▁ann",
        -9.91991734924028
      ],
      [
        "▁sand",
        -9.920172976658643
      ],
      [
        "▁zi",
        -9.920241076020378
      ],
      [
        "▁loves",
        -9.921233909688063
      ],
      [
        "▁secrets",
        -9.923564808591335
      ],
      [
        "such",
        -9.923849104309323
      ],
      [
        "▁wide",
        -9.924378179390951
      ],
      [
        "▁uncle",
        -9.924941025183823
      ],
      [
        "▁za",
        -9.925031226923162
      ],
      [
        "wood",
        -9.92584123279585
      ],
      [
        "▁ja",
        -9.925862478473373
      ],
      [
        "▁'thi",
        -9.926246973948544
      ],
      [
        "▁sexually",
        -9.92656079793886
      ],
      [
        "▁costs",
        -9.926638909247213
      ],
      [
        "shot",
        -9.926822485155991
      ],
      [
        "▁swi",
        -9.927630602470021
      ],
      [
        "more",
        -9.92986056555921
      ],
      [
        "▁tony",
        -9.930783164580339
      ],
      [
        "amp",
        -9.930956936712354
      ],
      [
        "▁mi",
        -9.93197995115047
      ],
      [
        "▁bite",
        -9.932991595969263
      ],
      [
        "▁snap",
        -9.934411179987677
      ],
      [
        "▁cheap",
        -9.934907617987003
      ],
      [
        ".a.",
        -9.935553220789226
      ],
      [
        "▁passenger",
        -9.93568516409697
      ],
      [
        "▁complain",
        -9.935810021160549
      ],
      [
        "▁'an",
        -9.93656943601029
      ],
      [
        "▁europe",
        -9.937662014077095
      ],
      [
        "▁heat",
        -9.93767196339227
      ],
      [
        "▁recover",
        -9.937796046831464
      ],
      [
        "heart",
        -9.938166149854725
      ],
      [
        "▁pennsylvania",
        -9.938341141826877
      ],
      [
        "▁unexpected",
        -9.938341141826877
      ],
      [
        "▁opportunity",
        -9.93834114183501
      ],
      [
        "▁advocate",
        -9.93834114184417
      ],
      [
        "▁cigarette",
        -9.938341141962201
      ],
      [
        "▁disappear",
        -9.938341142009058
      ],
      [
        "▁wisconsin",
        -9.93834114285783
      ],
      [
        "▁corporation",
        -9.938341144074897
      ],
      [
        "▁tattoo",
        -9.93834114650011
      ],
      [
        "▁thomas",
        -9.938341168713979
      ],
      [
        "▁mirror",
        -9.938341223135552
      ],
      [
        "▁lesbian",
        -9.938341247773263
      ],
      [
        "▁religion",
        -9.938341634528218
      ],
      [
        "▁chemical",
        -9.938341888056971
      ],
      [
        "▁disorder",
        -9.938341929647224
      ],
      [
        "▁davis",
        -9.938341936118043
      ],
      [
        "▁situation",
        -9.938342813163846
      ],
      [
        "titude",
        -9.938343135874948
      ],
      [
        "▁false",
        -9.93834484621349
      ],
      [
        "▁anthem",
        -9.938345689279029
      ],
      [
        "▁pretend",
        -9.938346283148576
      ],
      [
        "▁detain",
        -9.938347913358097
      ],
      [
        "▁honest",
        -9.93835450643413
      ],
      [
        "▁gross",
        -9.938354900884455
      ],
      [
        "▁cruel",
        -9.938356935130257
      ],
      [
        "▁sorry",
        -9.93837747457313
      ],
      [
        "▁damn",
        -9.938398934367651
      ],
      [
        "▁emmy",
        -9.938402159081065
      ],
      [
        "▁scalia",
        -9.938403862911095
      ],
      [
        "▁tragic",
        -9.938404463359426
      ],
      [
        "▁truly",
        -9.938409164069661
      ],
      [
        "▁forgive",
        -9.938424772326051
      ],
      [
        "▁version",
        -9.938447881445384
      ],
      [
        "▁oppos",
        -9.938451050042925
      ],
      [
        "▁fool",
        -9.938566549153814
      ],
      [
        "uitt",
        -9.938646755558057
      ],
      [
        "▁boring",
        -9.938730531588405
      ],
      [
        "▁transition",
        -9.9387369644191
      ],
      [
        "▁edition",
        -9.938811106454365
      ],
      [
        "▁addiction",
        -9.938878691583948
      ],
      [
        "▁buck",
        -9.93888809659484
      ],
      [
        "▁zone",
        -9.93891998284257
      ],
      [
        "▁bright",
        -9.939047909553427
      ],
      [
        "▁remark",
        -9.939105216406643
      ],
      [
        "▁taco",
        -9.939105966719046
      ],
      [
        "▁upset",
        -9.939302273582044
      ],
      [
        "▁bike",
        -9.939325500184855
      ],
      [
        "▁duck",
        -9.939379490394954
      ],
      [
        "▁anyway",
        -9.939833555910628
      ],
      [
        "▁loan",
        -9.939839430987139
      ],
      [
        "▁donation",
        -9.939898469595935
      ],
      [
        "▁gala",
        -9.939930353425908
      ],
      [
        "▁flavor",
        -9.940073218956805
      ],
      [
        "▁connection",
        -9.94025110947792
      ],
      [
        "▁exercise",
        -9.940367864728934
      ],
      [
        "▁laid",
        -9.940417441592341
      ],
      [
        "▁pentag",
        -9.940514371607753
      ],
      [
        "▁maria",
        -9.940587594565551
      ],
      [
        "▁production",
        -9.940807131355147
      ],
      [
        "▁shout",
        -9.941023644333661
      ],
      [
        "▁effective",
        -9.941167705441615
      ],
      [
        "▁dancing",
        -9.941331729044268
      ],
      [
        "▁tearful",
        -9.941694657302014
      ],
      [
        "will",
        -9.941709254258011
      ],
      [
        "▁burst",
        -9.941735294876686
      ],
      [
        "▁miller",
        -9.941818927540291
      ],
      [
        "▁esp",
        -9.941855238284617
      ],
      [
        "▁correct",
        -9.941955452107724
      ],
      [
        "▁proof",
        -9.942776149953874
      ],
      [
        "▁mistaken",
        -9.943012261749285
      ],
      [
        "▁panicked",
        -9.943131097849069
      ],
      [
        "▁rec",
        -9.943414314653213
      ],
      [
        "▁melt",
        -9.943502135451936
      ],
      [
        "dom",
        -9.944805331303712
      ],
      [
        "▁hopeful",
        -9.944829661355021
      ],
      [
        "▁neil",
        -9.945074783604444
      ],
      [
        "▁pair",
        -9.945171131031803
      ],
      [
        "rachel",
        -9.945293416461306
      ],
      [
        "▁vin",
        -9.946599034297478
      ],
      [
        "▁plead",
        -9.946880273656738
      ],
      [
        "▁corn",
        -9.948322652283517
      ],
      [
        "▁committ",
        -9.948520240821164
      ],
      [
        "lee",
        -9.949612882637844
      ],
      [
        "▁walker",
        -9.949795690049985
      ],
      [
        "▁devos",
        -9.951474908859595
      ],
      [
        "▁barr",
        -9.9518468111101
      ],
      [
        "▁kat",
        -9.952412131641339
      ],
      [
        "▁mill",
        -9.95328387180296
      ],
      [
        "▁tr",
        -9.953302321588854
      ],
      [
        "▁younger",
        -9.953904308845322
      ],
      [
        "▁op",
        -9.954536793294887
      ],
      [
        "▁brothers",
        -9.954852377754435
      ],
      [
        "oli",
        -9.955850313395228
      ],
      [
        "eath",
        -9.955883797328493
      ],
      [
        "ue",
        -9.956288136926089
      ],
      [
        "▁sam",
        -9.95644261357387
      ],
      [
        "▁visits",
        -9.956492816884928
      ],
      [
        "▁harder",
        -9.956494811304625
      ],
      [
        "▁retire",
        -9.956660624270235
      ],
      [
        "▁bang",
        -9.956784964640146
      ],
      [
        "▁lawn",
        -9.958344229611358
      ],
      [
        "▁explore",
        -9.959593269294464
      ],
      [
        "▁gum",
        -9.961462659874016
      ],
      [
        "th-grade",
        -9.963562784284784
      ],
      [
        "▁trolls",
        -9.963655778196456
      ],
      [
        "▁criticize",
        -9.966359616423413
      ],
      [
        "▁cards",
        -9.967243980267908
      ],
      [
        "▁reader",
        -9.969025319804846
      ],
      [
        "▁sin",
        -9.96934723205903
      ],
      [
        "▁seth",
        -9.97008041451846
      ],
      [
        "▁funn",
        -9.970296895505712
      ],
      [
        "▁all-",
        -9.97079033733633
      ],
      [
        "mark",
        -9.973040558885948
      ],
      [
        "▁officers",
        -9.97307962128972
      ],
      [
        "uction",
        -9.973527432813633
      ],
      [
        "jo",
        -9.976916942555098
      ],
      [
        "▁drawing",
        -9.977572353934718
      ],
      [
        "breaking",
        -9.978196061900253
      ],
      [
        "school",
        -9.978256652699383
      ],
      [
        "town",
        -9.978433409270428
      ],
      [
        "girl",
        -9.978616817561589
      ],
      [
        "play",
        -9.978709645427811
      ],
      [
        "point",
        -9.97875575124086
      ],
      [
        "▁laws",
        -9.983084832082437
      ],
      [
        "water",
        -9.983176376735074
      ],
      [
        "▁bre",
        -9.983942078769592
      ],
      [
        "▁involve",
        -9.984184619393606
      ],
      [
        "ox",
        -9.985207139642867
      ],
      [
        "▁cars",
        -9.985674284069912
      ],
      [
        "▁facts",
        -9.986047692466002
      ],
      [
        "▁phil",
        -9.986054731277617
      ],
      [
        "▁abus",
        -9.986288272130919
      ],
      [
        "▁photograph",
        -9.987107434311637
      ],
      [
        "▁22",
        -9.987305094689924
      ],
      [
        "▁scar",
        -9.988913099660296
      ],
      [
        "▁frank",
        -9.989691043811044
      ],
      [
        "ounce",
        -9.990340386566736
      ],
      [
        "▁lib",
        -9.990350907144032
      ],
      [
        "▁egg",
        -9.990506769246021
      ],
      [
        "visible",
        -9.99056247857719
      ],
      [
        "▁source",
        -9.990763622975994
      ],
      [
        "quality",
        -9.990831370677755
      ],
      [
        "▁entrepreneur",
        -9.990972720774245
      ],
      [
        "▁ambassador",
        -9.990972720775565
      ],
      [
        "▁specific",
        -9.99097272104525
      ],
      [
        "▁wednesday",
        -9.990972721282557
      ],
      [
        "▁opponent",
        -9.990972721859862
      ],
      [
        "▁outbreak",
        -9.990972727207305
      ],
      [
        "▁knife",
        -9.99097273607618
      ],
      [
        "▁confedera",
        -9.990972768913647
      ],
      [
        "▁genius",
        -9.990972865864155
      ],
      [
        "▁therapist",
        -9.990972869697794
      ],
      [
        "▁restrict",
        -9.990972942975896
      ],
      [
        "▁written",
        -9.990972962802786
      ],
      [
        "▁bottom",
        -9.990973018111774
      ],
      [
        "▁policies",
        -9.990973035119138
      ],
      [
        "▁amendment",
        -9.99097320354682
      ],
      [
        "▁sneak",
        -9.990973353381433
      ],
      [
        "▁babies",
        -9.990973658641208
      ],
      [
        "▁jersey",
        -9.990973765364462
      ],
      [
        "▁therapy",
        -9.990974132539046
      ],
      [
        "▁relief",
        -9.9909758471764
      ],
      [
        "afraid",
        -9.990976151691875
      ],
      [
        "▁nursing",
        -9.990976457611872
      ],
      [
        "▁lucky",
        -9.990977658012861
      ],
      [
        "▁gorge",
        -9.990979630953365
      ],
      [
        "▁cousin",
[...]
