{
  "version": "1.0",
  "truncation": null,
  "padding": null,
  "added_tokens": [
    {
      "id": 0,
      "content": "[PAD]",
      "single_word": false,
      "lstrip": false,
      "rstrip": false,
      "normalized": false,
      "special": true
    },
    {
      "id": 1,
      "content": "[UNK]",
      "single_word": false,
      "lstrip": false,
      "rstrip": false,
      "normalized": false,
      "special": true
    },
    {
      "id": 2,
      "content": "[CLS]",
      "single_word": false,
      "lstrip": false,
      "rstrip": false,
      "normalized": false,
      "special": true
    },
    {
      "id": 3,
      "content": "[SEP]",
      "single_word": false,
      "lstrip": false,
      "rstrip": false,
      "normalized": false,
      "special": true
    },
    {
      "id": 4,
      "content": "[MASK]",
      "single_word": false,
      "lstrip": false,
      "rstrip": false,
      "normalized": false,
      "special": true
    }
  ],
  "normalizer": null,
  "pre_tokenizer": {
    "type": "ByteLevel",
    "add_prefix_space": true,
    "trim_offsets": true,
    "use_regex": true
  },
  "post_processor": null,
  "decoder": {
    "type": "ByteLevel",
    "add_prefix_space": true,
    "trim_offsets": true,
    "use_regex": true
  },
  "model": {
    "type": "BPE",
    "dropout": null,
    "unk_token": "[UNK]",
    "continuing_subword_prefix": null,
    "end_of_word_suffix": null,
    "fuse_unk": false,
    "byte_fallback": false,
    "ignore_merges": false,
    "vocab": {
      "[PAD]": 0,
      "[UNK]": 1,
      "[CLS]": 2,
      "[SEP]": 3,
      "[MASK]": 4,
      "!": 5,
      "\"": 6,
      "#": 7,
      "$": 8,
      "%": 9,
      "&": 10,
      "'": 11,
      "(": 12,
      ")": 13,
      "*": 14,
      "+": 15,
      ",": 16,
      "-": 17,
      ".": 18,
      "/": 19,
      "0": 20,
      "1": 21,
      "2": 22,
      "3": 23,
      "4": 24,
      "5": 25,
      "6": 26,
      "7": 27,
      "8": 28,
      "9": 29,
      ":": 30,
      ";": 31,
      "=": 32,
      ">": 33,
      "?": 34,
      "@": 35,
      "[": 36,
      "\\": 37,
      "]": 38,
      "_": 39,
      "a": 40,
      "b": 41,
      "c": 42,
      "d": 43,
      "e": 44,
      "f": 45,
      "g": 46,
      "h": 47,
      "i": 48,
      "j": 49,
      "k": 50,
      "l": 51,
      "m": 52,
      "n": 53,
      "o": 54,
      "p": 55,
      "q": 56,
      "r": 57,
      "s": 58,
      "t": 59,
      "u": 60,
      "v": 61,
      "w": 62,
      "x": 63,
      "y": 64,
      "z": 65,
      "{": 66,
      "|": 67,
      "}": 68,
      "¡": 69,
      "¢": 70,
      "£": 71,
      "¤": 72,
      "¦": 73,
      "§": 74,
      "¨": 75,
      "©": 76,
      "«": 77,
      "¯": 78,
      "°": 79,
      "±": 80,
      "³": 81,
      "¶": 82,
      "¸": 83,
      "»": 84,
      "¼": 85,
      "¿": 86,
      "Â": 87,
      "Ã": 88,
      "Å": 89,
      "Ì": 90,
      "Î": 91,
      "â": 92,
      "ã": 93,
      "Ġ": 94,
      "Ģ": 95,
      "ĥ": 96,
      "Ħ": 97,
      "Ī": 98,
      "Ĭ": 99,
      "ĭ": 100,
      "į": 101,
      "ĵ": 102,
      "Ķ": 103,
      "ķ": 104,
      "Ĺ": 105,
      "Ļ": 106,
      "ľ": 107,
      "Ŀ": 108,
      "ł": 109,
      "Ń": 110,
      "in": 111,
      "Ġt": 112,
      "er": 113,
      "Ġa": 114,
      "Ġs": 115,
      "re": 116,
      "on": 117,
      "Ġc": 118,
      "an": 119,
      "Ġw": 120,
      "Ġf": 121,
      "or": 122,
      "ing": 123,
      "Ġb": 124,
      "es": 125,
      "Ġm": 126,
      "en": 127,
      "Ġp": 128,
      "Ġh": 129,
      "at": 130,
      "Ġd": 131,
      "Ġo": 132,
      "Ġth": 133,
      "ar": 134,
      "al": 135,
      "is": 136,
      "Ġto": 137,
      "it": 138,
      "ou": 139,
      "ed": 140,
      "Ġl": 141,
      "Ġn": 142,
      "ic": 143,
      "Ġin": 144,
      "Ġg": 145,
      "Ġof": 146,
      "om": 147,
      "il": 148,
      "Ġre": 149,
      "Ġthe": 150,
      "as": 151,
      "el": 152,
      "ion": 153,
      "le": 154,
      "'s": 155,
      "st": 156,
      "et": 157,
      "ac": 158,
      "ow": 159,
      "ol": 160,
      "Ġst": 161,
      "Ġe": 162,
      "ot": 163,
      "Ġr": 164,
      "ent": 165,
      "ay": 166,
      "id": 167,
      "Ġfor": 168,
      "am": 169,
      "Ġu": 170,
      "Ġan": 171,
      "Ġ'": 172,
      "ly": 173,
      "Ġon": 174,
      "ig": 175,
      "ers": 176,
      "Ġtr": 177,
      "ut": 178,
      "ad": 179,
      "im": 180,
      "Ġwh": 181,
      "um": 182,
      "ve": 183,
      "Ġj": 184,
      "ec": 185,
      "ur": 186,
      "Ġy": 187,
      "ir": 188,
      "Ġne": 189,
      "Ġk": 190,
      "ill": 191,
      "ver": 192,
      "ter": 193,
      "Ġch": 194,
      "ch": 195,
      "Ġsh": 196,
      "us": 197,
      "ak": 198,
      "ts": 199,
      "op": 200,
      "th": 201,
      "Ġbe": 202,
      "Ġv": 203,
      "ith": 204,
      "ation": 205,
      "Ġde": 206,
      "Ġpr": 207,
      "oo": 208,
      "Ġfr": 209,
      "Ġis": 210,
      "Ġwith": 211,
      "un": 212,
      "and": 213,
      "if": 214,
      "res": 215,
      "Ġyou": 216,
      "ump": 217,
      "Ġand": 218,
      "ul": 219,
      "ge": 220,
      "ce": 221,
      "ate": 222,
      "Ġnew": 223,
      "ear": 224,
      "est": 225,
      "Ġcon": 226,
      "Ġat": 227,
      "igh": 228,
      "os": 229,
      "Ġtrump": 230,
      "Ġman": 231,
      "Ġal": 232,
      "ist": 233,
      "end": 234,
      "iv": 235,
      "oc": 236,
      "ap": 237,
      "ld": 238,
      "ack": 239,
      "Ġas": 240,
      "Ġhe": 241,
      "Ġun": 242,
      "ab": 243,
      "ore": 244,
      "ort": 245,
      "Ġab": 246,
      "out": 247,
      "ust": 248,
      "em": 249,
      "all": 250,
      "ain": 251,
      "Ġsp": 252,
      "ess": 253,
      "Ġcom": 254,
      "ie": 255,
      "Ġit": 256,
      "ous": 257,
      "Ġex": 258,
      "oun": 259,
      "uc": 260,
      "Ġfrom": 261,
      "ans": 262,
      "Ġrep": 263,
      "Ġcl": 264,
      "Ġse": 265,
      "ud": 266,
      "Ġwor": 267,
      "Ġaf": 268,
      "ri": 269,
      "are": 270,
      "ight": 271,
      "Ġare": 272,
      "Ġam": 273,
      "Ġout": 274,
      "ity": 275,
      "'t": 276,
      "ant": 277,
      "od": 278,
      "her": 279,
      "Ġpl": 280,
      "Ġabout": 281,
      "ag": 282,
      "up": 283,
      "art": 284,
      "ect": 285,
      "Ġle": 286,
      "ast": 287,
      "ive": 288,
      "ks": 289,
      "ies": 290,
      "ds": 291,
      "qu": 292,
      "ally": 293,
      "ob": 294,
      "ip": 295,
      "Ġac": 296,
      "ide": 297,
      "Ġby": 298,
      "Ġwe": 299,
      "ice": 300,
      "Ġdo": 301,
      "Ġup": 302,
      "Ġafter": 303,
      "Ġcr": 304,
      "ost": 305,
      "ell": 306,
      "Ġgr": 307,
      "Ġ1": 308,
      "ays": 309,
      "gh": 310,
      "av": 311,
      "Ġcan": 312,
      "Ġnot": 313,
      "Ġoff": 314,
      "Ġwom": 315,
      "Ġbr": 316,
      "Ġthis": 317,
      "ould": 318,
      "Ġad": 319,
      "Ġ2": 320,
      "Ġthat": 321,
      "iz": 322,
      "ass": 323,
      "ire": 324,
      "ake": 325,
      "one": 326,
      "king": 327,
      "ment": 328,
      "Ġint": 329,
      "ke": 330,
      "Ġbl": 331,
      "ard": 332,
      "ial": 333,
      "ov": 334,
      "eric": 335,
      "ave": 336,
      "Ġhow": 337,
      "ress": 338,
      "ia": 339,
      "ub": 340,
      "ine": 341,
      "Ġar": 342,
      "Ġget": 343,
      "ure": 344,
      "ep": 345,
      "ere": 346,
      "og": 347,
      "Ġall": 348,
      "our": 349,
      "ood": 350,
      "Ġjust": 351,
      "Ġsc": 352,
      "oy": 353,
      "ome": 354,
      "ary": 355,
      "der": 356,
      "ff": 357,
      "Ġameric": 358,
      "Ġdon": 359,
      "Ġwho": 360,
      "pl": 361,
      "ace": 362,
      "se": 363,
      "Ġfin": 364,
      "age": 365,
      "Ġdis": 366,
      "Ġgo": 367,
      "Ġdr": 368,
      "Ġwhat": 369,
      "ite": 370,
      "Ġme": 371,
      "Ġpol": 372,
      "Ġte": 373,
      "Ġmar": 374,
      "aw": 375,
      "Ġover": 376,
      "ting": 377,
      "Ġwill": 378,
      "Ġyour": 379,
      "Ġob": 380,
      "00": 381,
      "Ġhis": 382,
      "ian": 383,
      "Ġhas": 384,
      "own": 385,
      "Ġreport": 386,
      "ail": 387,
      "Ġem": 388,
      "ick": 389,
      "Ġli": 390,
      "ign": 391,
      "ence": 392,
      "ime": 393,
      "very": 394,
      "old": 395,
      "ry": 396,
      "Ġap": 397,
      "Ġres": 398,
      "ong": 399,
      "ook": 400,
      "Ġpre": 401,
      "Ġag": 402,
      "ton": 403,
      "Ġim": 404,
      "reat": 405,
      "ild": 406,
      "ident": 407,
      "ber": 408,
      "ens": 409,
      "ound": 410,
      "Ġinto": 411,
      "Ġmore": 412,
      "Ġnation": 413,
      "ame": 414,
      "ife": 415,
      "ach": 416,
      "ough": 417,
      "ath": 418,
      "Ġone": 419,
      "Ġpe": 420,
      "Ġsup": 421,
      "Ġher": 422,
      "ning": 423,
      "Ġor": 424,
      "ash": 425,
      "Ġhave": 426,
      "ald": 427,
      "Ġstud": 428,
      "ish": 429,
      "ates": 430,
      "ey": 431,
      "Ġwoman": 432,
      "ions": 433,
      "Ġrec": 434,
      "Ġel": 435,
      "Ġqu": 436,
      "Ġyear": 437,
      "Ġfl": 438,
      "Ġen": 439,
      "ors": 440,
      "able": 441,
      "Ġi": 442,
      "Ġobam": 443,
      "Ġgu": 444,
      "Ġatt": 445,
      "Ġcol": 446,
      "Ġwhy": 447,
      "irst": 448,
      "ool": 449,
      "Ġus": 450,
      "Ġph": 451,
      "ings": 452,
      "Ġpres": 453,
      "Ġwar": 454,
      "atch": 455,
      "app": 456,
      "Ġarea": 457,
      "ug": 458,
      "Ġday": 459,
      "Ġevery": 460,
      "ind": 461,
      "Ġsec": 462,
      "amp": 463,
      "Ġno": 464,
      "Ġsays": 465,
      "Ġ20": 466,
      "Ġcar": 467,
      "Ġfe": 468,
      "ouse": 469,
      "Ġkn": 470,
      "Ġop": 471,
      "Ġback": 472,
      "Ġdonald": 473,
      "Ġthan": 474,
      "Ġfirst": 475,
      "Ġcont": 476,
      "we": 477,
      "man": 478,
      "Ġtime": 479,
      "ib": 480,
      "iss": 481,
      "ner": 482,
      "Ġ3": 483,
      "ating": 484,
      "ang": 485,
      "ren": 486,
      "ows": 487,
      "ra": 488,
      "ious": 489,
      "Ġper": 490,
      "oot": 491,
      "ple": 492,
      "Ġjo": 493,
      "ory": 494,
      "Ġlike": 495,
      "akes": 496,
      "Ġact": 497,
      "ove": 498,
      "ue": 499,
      "ople": 500,
      "ists": 501,
      "act": 502,
      "ush": 503,
      "Ġobama": 504,
      "Ġsch": 505,
      "aren": 506,
      "Ġpeople": 507,
      "ock": 508,
      "Ġhouse": 509,
      "itt": 510,
      "Ġthr": 511,
      "Ġworld": 512,
      "lic": 513,
      "ance": 514,
      "als": 515,
      "ase": 516,
      "elf": 517,
      "Ġwomen": 518,
      "az": 519,
      "Ġmy": 520,
      "Ġ5": 521,
      "Ġnow": 522,
      "ich": 523,
      "over": 524,
      "ns": 525,
      "Ġev": 526,
      "Ġann": 527,
      "Ġpart": 528,
      "ends": 529,
      "other": 530,
      "Ġexp": 531,
      "ons": 532,
      "for": 533,
      "ily": 534,
      "ile": 535,
      "aking": 536,
      "Ġdem": 537,
      "ated": 538,
      "its": 539,
      "ical": 540,
      "Ġthey": 541,
      "Ġlife": 542,
      "Ġchild": 543,
      "day": 544,
      "Ġbill": 545,
      "pr": 546,
      "Ġcall": 547,
      "ict": 548,
      "Ġrem": 549,
      "Ġmake": 550,
      "uck": 551,
      "ful": 552,
      "Ġmom": 553,
      "Ġfam": 554,
      "Ġinter": 555,
      "pt": 556,
      "ely": 557,
      "br": 558,
      "Ġaw": 559,
      "Ġso": 560,
      "Ġwas": 561,
      "Ġwhite": 562,
      "Ġagain": 563,
      "Ġpresident": 564,
      "ives": 565,
      "Ġdown": 566,
      "Ġstill": 567,
      "Ġsex": 568,
      "Ġsur": 569,
      "oll": 570,
      "sh": 571,
      "port": 572,
      "irl": 573,
      "Ġbre": 574,
      "oss": 575,
      "Ġclin": 576,
      "Ġplan": 577,
      "ct": 578,
      "Ġshe": 579,
      "Ġhim": 580,
      "Ġacc": 581,
      "Ġsl": 582,
      "Ġreal": 583,
      "ublic": 584,
      "Ġwork": 585,
      "Ġwatch": 586,
      "ets": 587,
      "ying": 588,
      "ese": 589,
      "ond": 590,
      "Ġdec": 591,
      "Ġins": 592,
      "Ġchr": 593,
      "ree": 594,
      "Ġvot": 595,
      "Ġclinton": 596,
      "Ġcould": 597,
      "Ġcomm": 598,
      "anc": 599,
      "alth": 600,
      "Ġstr": 601,
      "Ġif": 602,
      "year": 603,
      "ling": 604,
      "Ġsome": 605,
      "oom": 606,
      "ty": 607,
      "ade": 608,
      "ose": 609,
      "Ġsen": 610,
      "Ġkill": 611,
      "ual": 612,
      "Ġ$": 613,
      "ents": 614,
      "ins": 615,
      "ants": 616,
      "Ġdes": 617,
      "Ġsm": 618,
      "au": 619,
      "Ġtw": 620,
      "Ġtal": 621,
      "ork": 622,
      "Ġwhen": 623,
      "Ġ201": 624,
      "Ġcamp": 625,
      "ek": 626,
      "Ġow": 627,
      "Ġ4": 628,
      "ower": 629,
      "fore": 630,
      "Ġschool": 631,
      "Ġlaw": 632,
      "Ġmon": 633,
      "Ġhel": 634,
      "ise": 635,
      "Ġparen": 636,
      "Ġneed": 637,
      "orn": 638,
      "Ġbut": 639,
      "Ġmay": 640,
      "Ġany": 641,
      "Ġstar": 642,
      "Ġwould": 643,
      "Ġfamily": 644,
      "Ġtheir": 645,
      "Ġass": 646,
      "Ġinc": 647,
      "Ġkid": 648,
      "iving": 649,
      "Ġdoes": 650,
      "Ġpar": 651,
      "ee": 652,
      "Ġway": 653,
      "Ġbefore": 654,
      "Ġser": 655,
      "Ġhealth": 656,
      "ces": 657,
      "Ġent": 658,
      "ele": 659,
      "ands": 660,
      "ult": 661,
      "Ġcomp": 662,
      "Ġblack": 663,
      "Ġhigh": 664,
      "eth": 665,
      "Ġfri": 666,
      "ord": 667,
      "Ġbig": 668,
      "Ġthin": 669,
      "Ġshould": 670,
      "ope": 671,
      "Ġamericans": 672,
      "the": 673,
      "air": 674,
      "Ġmill": 675,
      "erson": 676,
      "uring": 677,
      "Ġshow": 678,
      "Ġchar": 679,
      "Ġlead": 680,
      "ern": 681,
      "ret": 682,
      "Ġco": 683,
      "Ġsy": 684,
      "Ġknow": 685,
      "Ġgl": 686,
      "Ġmed": 687,
      "Ġmost": 688,
      "Ġmov": 689,
      "Ġhear": 690,
      "Ġgop": 691,
      "ange": 692,
      "Ġfun": 693,
      "Ġret": 694,
      "hn": 695,
      "ms": 696,
      "mer": 697,
      "Ġcong": 698,
      "Ġbet": 699,
      "Ġmus": 700,
      "Ġstudy": 701,
      "Ġstate": 702,
      "Ġwr": 703,
      "Ġmin": 704,
      "Ġgirl": 705,
      "ations": 706,
      "ection": 707,
      ",'": 708,
      "Ġconf": 709,
      "io": 710,
      "Ġtur": 711,
      "ert": 712,
      "uff": 713,
      "Ġonly": 714,
      "Ġspe": 715,
      "Ġface": 716,
      "ount": 717,
      "Ġrel": 718,
      "Ġunder": 719,
      "Ġban": 720,
      "Ġgood": 721,
      "ady": 722,
      "Ġprot": 723,
      "Ġind": 724,
      "Ġcons": 725,
      "Ġyears": 726,
      "Ġcour": 727,
      "Ġdeb": 728,
      "Ġdef": 729,
      "augh": 730,
      "uch": 731,
      "Ġsay": 732,
      "les": 733,
      "Ġinv": 734,
      "Ġref": 735,
      "Ġbeing": 736,
      "Ġlast": 737,
      "els": 738,
      "ull": 739,
      "Ġcongress": 740,
      "ics": 741,
      "oduc": 742,
      "ah": 743,
      "ger": 744,
      "Ġtell": 745,
      "Ġbec": 746,
      "Ġhol": 747,
      "Ġdead": 748,
      "Ġhar": 749,
      "ale": 750,
      "Ġbest": 751,
      "ream": 752,
      "Ġhere": 753,
      "uss": 754,
      "Ġfinds": 755,
      "Ġdisc": 756,
      "Ġrun": 757,
      "Ġdep": 758,
      "Ġhelp": 759,
      "Ġreally": 760,
      "olog": 761,
      "ied": 762,
      "Ġpo": 763,
      "ather": 764,
      "Ġtoo": 765,
      "att": 766,
      "Ġdeath": 767,
      "ivers": 768,
      "Ġbus": 769,
      "Ġ7": 770,
      "Ġz": 771,
      "Ġtrans": 772,
      "Ġweek": 773,
      "Ġpolice": 774,
      "ism": 775,
      "Ġir": 776,
      "Ġend": 777,
      "Ġchrist": 778,
      "ding": 779,
      "Ġmiss": 780,
      "Ġhome": 781,
      "ason": 782,
      "iew": 783,
      "Ġter": 784,
      "Ġhill": 785,
      "Ġplay": 786,
      "Ġamerica": 787,
      "Ġbar": 788,
      "Ġhum": 789,
      "ims": 790,
      "ocr": 791,
      "Ġgoing": 792,
      "ames": 793,
      "Ġapp": 794,
      "Ġbo": 795,
      "Ġduring": 796,
      "Ġ10": 797,
      "Ġ6": 798,
      "Ġsw": 799,
      "Ġcare": 800,
      "ater": 801,
      "Ġlet": 802,
      "Ġsee": 803,
      "aign": 804,
      "ges": 805,
      "get": 806,
      "Ġnews": 807,
      "Ġhapp": 808,
      "Ġprob": 809,
      "Ġcolle": 810,
      "Ġear": 811,
      "Ġphot": 812,
      "Ġcampaign": 813,
      "ix": 814,
      "ideo": 815,
      "ient": 816,
      "int": 817,
      "Ġbu": 818,
      "Ġke": 819,
      "Ġ8": 820,
      "Ġed": 821,
      "Ġwin": 822,
      "Ġamerican": 823,
      "Ġannoun": 824,
      "Ġoffic": 825,
      "Ġ9": 826,
      "ott": 827,
      "af": 828,
      "Ġself": 829,
      "Ġoth": 830,
      "use": 831,
      "ody": 832,
      "Ġwon": 833,
      "Ġadm": 834,
      "Ġthings": 835,
      "ned": 836,
      "xt": 837,
      "Ġput": 838,
      "Ġgun": 839,
      "Ġshoot": 840,
      "ax": 841,
      "ats": 842,
      "ition": 843,
      "Ġloc": 844,
      "ues": 845,
      "Ġstop": 846,
      "000": 847,
      "Ġsk": 848,
      "Ġcou": 849,
      "Ġcle": 850,
      "Ġreve": 851,
      "Ġlong": 852,
      "Ġthrough": 853,
      "Ġparents": 854,
      "Ġ-": 855,
      "ina": 856,
      "Ġnor": 857,
      "Ġattack": 858,
      "Ġrepublic": 859,
      "ually": 860,
      "Ġtake": 861,
      "rem": 862,
      "Ġboy": 863,
      "Ġown": 864,
      "Ġhillary": 865,
      "Ġwant": 866,
      "Ġfil": 867,
      "Ġfire": 868,
      "ited": 869,
      "Ġdog": 870,
      "Ġgetting": 871,
      "Ġagainst": 872,
      "ney": 873,
      "Ġlove": 874,
      "str": 875,
      "ew": 876,
      "of": 877,
      "Ġ(": 878,
      "Ġvis": 879,
      "Ġleg": 880,
      "ploy": 881,
      "Ġmem": 882,
      "Ġdad": 883,
      "aving": 884,
      "Ġguy": 885,
      "Ġparty": 886,
      "Ġdemocr": 887,
      "my": 888,
      "Ġbab": 889,
      "Ġhist": 890,
      "iting": 891,
      "Ġcontr": 892,
      "Ġjohn": 893,
      "'re": 894,
      "Ġpass": 895,
      "ases": 896,
      "Ġright": 897,
      "ittle": 898,
      "Ġkids": 899,
      "red": 900,
      "Ġvideo": 901,
      "Ġart": 902,
      "Ġgets": 903,
      "con": 904,
      "ced": 905,
      "Ġcele": 906,
      "Ġwhere": 907,
      "Ġwhile": 908,
      "Ġits": 909,
      "Ġjob": 910,
      "Ġsecret": 911,
      "iness": 912,
      "Ġperson": 913,
      "Ġlook": 914,
      "Ġrele": 915,
      "any": 916,
      "Ġdel": 917,
      "Ġthere": 918,
      "ible": 919,
      "Ġbur": 920,
      "Ġimm": 921,
      "unch": 922,
      "ures": 923,
      "Ġsing": 924,
      "Ġbir": 925,
      "Ġlittle": 926,
      "Ġgen": 927,
      "Ġnever": 928,
      "vern": 929,
      "Ġcourt": 930,
      "Ġother": 931,
      "Ġsand": 932,
      "Ġhead": 933,
      "owing": 934,
      "Ġdid": 935,
      "Ġresp": 936,
      "Ġbreak": 937,
      "fl": 938,
      "Ġsn": 939,
      "Ġpost": 940,
      "Ġloo": 941,
      "ize": 942,
      "Ġmid": 943,
      "ator": 944,
      "Ġold": 945,
      "ech": 946,
      "Ġdoesn": 947,
      "Ġmakes": 948,
      "Ġpower": 949,
      "aul": 950,
      "Ġsoc": 951,
      "iff": 952,
      "Ġexpl": 953,
      "Ġpolit": 954,
      "Ġeven": 955,
      "orts": 956,
      "Ġmil": 957,
      "Ġnight": 958,
      "Ġcelebr": 959,
      "ief": 960,
      "Ġcand": 961,
      "Ġrev": 962,
      "Ġthem": 963,
      "Ġchange": 964,
      "Ġkeep": 965,
      "Ġwal": 966,
      "Ġthese": 967,
      "Ġvi": 968,
      "Ġgovern": 969,
      "Ġmark": 970,
      "Ġbel": 971,
      "Ġmich": 972,
      "imate": 973,
      "by": 974,
      "per": 975,
      "Ġmor": 976,
      "ities": 977,
      "Ġcalls": 978,
      "Ġbaby": 979,
      "Ġmc": 980,
      "Ġdet": 981,
      "ights": 982,
      "gr": 983,
      "ier": 984,
      "Ġour": 985,
      "Ġtow": 986,
      "Ġred": 987,
      "igr": 988,
      "Ġgrand": 989,
      "form": 990,
      "aid": 991,
      "ble": 992,
      "Ġpat": 993,
      "Ġant": 994,
      "ute": 995,
      "Ġconv": 996,
      "Ġsupport": 997,
      "ph": 998,
      "Ġbush": 999,
      "Ġstart": 1000,
      "oney": 1001,
      "ogr": 1002,
      "Ġmeet": 1003,
      "ric": 1004,
      "way": 1005,
      "oth": 1006,
      "Ġnext": 1007,
      "ift": 1008,
      "Ġgod": 1009,
      "Ġlocal": 1010,
      "Ġexc": 1011,
      "oad": 1012,
      "Ġopen": 1013,
      "book": 1014,
      "iet": 1015,
      "Ġtakes": 1016,
      "Ġfight": 1017,
      "Ġmen": 1018,
      "Ġaround": 1019,
      "Ġemploy": 1020,
      "itch": 1021,
      "Ġruss": 1022,
      "fri": 1023,
      "Ġtop": 1024,
      "ience": 1025,
      "sc": 1026,
      "atic": 1027,
      "Ġste": 1028,
      "uct": 1029,
      "ips": 1030,
      "Ġsuper": 1031,
      "he": 1032,
      "ll": 1033,
      "Ġcor": 1034,
      "ams": 1035,
      "Ġteen": 1036,
      "Ġimp": 1037,
      "..": 1038,
      "Ġbad": 1039,
      "Ġhot": 1040,
      "Ġdoc": 1041,
      "Ġrest": 1042,
      "aff": 1043,
      "cer": 1044,
      "erg": 1045,
      "Ġfail": 1046,
      "Ġhom": 1047,
      "Ġgay": 1048,
      "Ġadv": 1049,
      "fect": 1050,
      "ink": 1051,
      "Ġcap": 1052,
      "Ġgreat": 1053,
      "Ġelection": 1054,
      "Ġair": 1055,
      "Ġson": 1056,
      "Ġcur": 1057,
      "enn": 1058,
      "Ġdire": 1059,
      "Ġcla": 1060,
      "Ġmillion": 1061,
      "ged": 1062,
      "Ġtim": 1063,
      "thing": 1064,
      "Ġstep": 1065,
      "Ġanother": 1066,
      "Ġcop": 1067,
      "Ġreg": 1068,
      "Ġoffice": 1069,
      "Ġintr": 1070,
      "Ġexper": 1071,
      "Ġcandid": 1072,
      "ves": 1073,
      "uth": 1074,
      "Ġcollege": 1075,
      "son": 1076,
      "uge": 1077,
      "Ġsign": 1078,
      "Ġlear": 1079,
      "Ġtwo": 1080,
      "Ġwa": 1081,
      "Ġrob": 1082,
      "artment": 1083,
      "Ġnorth": 1084,
      "Ġhor": 1085,
      "Ġlist": 1086,
      "Ġlive": 1087,
      "ution": 1088,
      "Ġbusiness": 1089,
      "Ġcouple": 1090,
      "Ġ--": 1091,
      "Ġdirect": 1092,
      "ole": 1093,
      "ince": 1094,
      "ann": 1095,
      "Ġgot": 1096,
      "Ġannounces": 1097,
      "land": 1098,
      "Ġmass": 1099,
      "Ġmade": 1100,
      "Ġthing": 1101,
      "ird": 1102,
      "Ġbeh": 1103,
      "Ġfinally": 1104,
      "Ġpoll": 1105,
      "Ġterr": 1106,
      "Ġclass": 1107,
      "Ġviol": 1108,
      "uit": 1109,
      "Ġmuch": 1110,
      "Ġyork": 1111,
      "Ġprom": 1112,
      "ugg": 1113,
      "friend": 1114,
      "co": 1115,
      "ft": 1116,
      "ians": 1117,
      "ike": 1118,
      "led": 1119,
      "te": 1120,
      "tr": 1121,
      "eral": 1122,
      "ony": 1123,
      "Ġcount": 1124,
      "Ġwants": 1125,
      "oup": 1126,
      "Ġbeen": 1127,
      "less": 1128,
      "ison": 1129,
      "Ġla": 1130,
      "Ġge": 1131,
      "Ġever": 1132,
      "Ġche": 1133,
      "Ġchildren": 1134,
      "Ġfriend": 1135,
      "Ġdebate": 1136,
      "Ġma": 1137,
      "Ġur": 1138,
      "izes": 1139,
      "Ġnational": 1140,
      "Ġsuprem": 1141,
      "Ġentire": 1142,
      "Ġce": 1143,
      "ane": 1144,
      "ank": 1145,
      "Ġfound": 1146,
      "Ġdream": 1147,
      "Ġroom": 1148,
      "Ġactually": 1149,
      "Ġsexual": 1150,
      "com": 1151,
      "ness": 1152,
      "Ġsus": 1153,
      "ones": 1154,
      "Ġcal": 1155,
      "ark": 1156,
      "Ġadd": 1157,
      "ares": 1158,
      "umb": 1159,
      "ains": 1160,
      "Ġreveals": 1161,
      "dle": 1162,
      "ines": 1163,
      "Ġwed": 1164,
      "Ġfall": 1165,
      "Ġhad": 1166,
      "ative": 1167,
      "ster": 1168,
      "Ġmonth": 1169,
      "Ġfilm": 1170,
      "aut": 1171,
      "ball": 1172,
      "Ġfriends": 1173,
      "line": 1174,
      "Ġmoney": 1175,
      "Ġpop": 1176,
      "Ġdev": 1177,
      "Ġseason": 1178,
      "Ġsenate": 1179,
      "bo": 1180,
      "Ġsub": 1181,
      "Ġcreat": 1182,
      "Ġpaul": 1183,
      "Ġthreat": 1184,
      "Ġless": 1185,
      "Ġread": 1186,
      "Ġep": 1187,
      "Ġfeel": 1188,
      "Ġide": 1189,
      "Ġmother": 1190,
      "Ġpret": 1191,
      "Ġeveryone": 1192,
      "Ġbirth": 1193,
      "ont": 1194,
      "Ġfem": 1195,
      "Ġben": 1196,
      "Ġpublic": 1197,
      "outh": 1198,
      "acy": 1199,
      "Ġdeal": 1200,
      "Ġmarri": 1201,
      "Ġsusp": 1202,
      "Ġsom": 1203,
      "Ġsum": 1204,
      "Ġtrying": 1205,
      "Ġshows": 1206,
      "Ġspec": 1207,
      "Ġbetter": 1208,
      "ok": 1209,
      "Ġhand": 1210,
      "earch": 1211,
      "ials": 1212,
      "Ġscient": 1213,
      "Ġfacebook": 1214,
      "Ġhuman": 1215,
      "ause": 1216,
      "cl": 1217,
      "cy": 1218,
      "Ġset": 1219,
      "aster": 1220,
      "ears": 1221,
      "Ġclimate": 1222,
      "Ġfood": 1223,
      "Ġwithout": 1224,
      "Ġretur": 1225,
      "Ġimmigr": 1226,
      "Ġsal": 1227,
      "Ġcity": 1228,
      "Ġbook": 1229,
      "Ġgre": 1230,
      "ils": 1231,
      "uts": 1232,
      "Ġvict": 1233,
      "ape": 1234,
      "ought": 1235,
      "Ġquest": 1236,
      "Ġaway": 1237,
      "Ġheart": 1238,
      "Ġinvest": 1239,
      "Ġanti": 1240,
      "Ġintroduc": 1241,
      "ires": 1242,
      "Ġtax": 1243,
      "Ġhon": 1244,
      "Ġgive": 1245,
      "Ġbeg": 1246,
      "ized": 1247,
      "Ġenough": 1248,
      "Ġmedia": 1249,
      "Ġmovie": 1250,
      "erv": 1251,
      "Ġbody": 1252,
      "Ġhun": 1253,
      "ital": 1254,
      "Ġstory": 1255,
      "Ġmag": 1256,
      "Ġpope": 1257,
      "Ġhour": 1258,
      "ises": 1259,
      "Ġgame": 1260,
      "Ġstudents": 1261,
      "ik": 1262,
      "yp": 1263,
      "Ġsol": 1264,
      "Ġpay": 1265,
      "ards": 1266,
      "Ġjud": 1267,
      "used": 1268,
      "Ġgroup": 1269,
      "Ġintern": 1270,
      "Ġways": 1271,
      "ars": 1272,
      "Ġlat": 1273,
      "Ġnet": 1274,
      "Ġcomple": 1275,
      "Ġext": 1276,
      "Ġperfect": 1277,
      "Ġgovernment": 1278,
      "Ġsle": 1279,
      "Ġfar": 1280,
      "Ġfree": 1281,
      "Ġfather": 1282,
      "Ġunve": 1283,
      "Ġstre": 1284,
      "ides": 1285,
      "Ġcompany": 1286,
      "Ġshooting": 1287,
      "Ġsanders": 1288,
      "ering": 1289,
      "Ġmur": 1290,
      "itter": 1291,
      "Ġcru": 1292,
      "Ġsurpr": 1293,
      "Ġhistory": 1294,
      "ional": 1295,
      "aces": 1296,
      "Ġje": 1297,
      "eck": 1298,
      "Ġval": 1299,
      "ired": 1300,
      "Ġsupreme": 1301,
      "ler": 1302,
      "Ġtv": 1303,
      "Ġhal": 1304,
      "Ġdiff": 1305,
      "urch": 1306,
      "istr": 1307,
      "Ġsingle": 1308,
      "Ġcre": 1309,
      "Ġmust": 1310,
      "ically": 1311,
      "Ġra": 1312,
      "unk": 1313,
      "aves": 1314,
      "Ġemail": 1315,
      "Ġthink": 1316,
      "Ġspeech": 1317,
      "Ġintroduces": 1318,
      "cess": 1319,
      "Ġtwe": 1320,
      "ready": 1321,
      "Ġmaking": 1322,
      "Ġhard": 1323,
      "ased": 1324,
      "iday": 1325,
      "ecut": 1326,
      "Ġprotest": 1327,
      "iest": 1328,
      "Ġav": 1329,
      "Ġstand": 1330,
      "Ġalready": 1331,
      "Ġline": 1332,
      "Ġinst": 1333,
      "Ġserv": 1334,
      "'ll": 1335,
      "yan": 1336,
      "Ġbid": 1337,
      "Ġhur": 1338,
      "Ġhall": 1339,
      "ality": 1340,
      "Ġcome": 1341,
      "Ġfind": 1342,
      "Ġmaj": 1343,
      "ma": 1344,
      "mas": 1345,
      "Ġsame": 1346,
      "Ġiss": 1347,
      "anger": 1348,
      "Ġsyri": 1349,
      "Ġmiddle": 1350,
      "bs": 1351,
      "Ġcent": 1352,
      "Ġfut": 1353,
      "arly": 1354,
      "Ġlos": 1355,
      "Ġalle": 1356,
      "ected": 1357,
      "Ġcost": 1358,
      "Ġcover": 1359,
      "Ġpet": 1360,
      "ending": 1361,
      "ucking": 1362,
      "Ġcrit": 1363,
      "Ġreleases": 1364,
      "Ġsocial": 1365,
      "Ġcow": 1366,
      "Ġfre": 1367,
      "Ġprev": 1368,
      "bt": 1369,
      "oon": 1370,
      "ping": 1371,
      "Ġfore": 1372,
      "Ġformer": 1373,
      "Ġuse": 1374,
      "urity": 1375,
      "Ġ19": 1376,
      "Ġmajor": 1377,
      "ef": 1378,
      "hing": 1379,
      "to": 1380,
      "Ġmod": 1381,
      "ising": 1382,
      "ender": 1383,
      "ared": 1384,
      "Ġtalk": 1385,
      "Ġcountry": 1386,
      "Ġpretty": 1387,
      "een": 1388,
      "ys": 1389,
      "Ġpast": 1390,
      "oud": 1391,
      "Ġlov": 1392,
      "ention": 1393,
      "Ġbeaut": 1394,
      "ably": 1395,
      "ething": 1396,
      "Ġproble": 1397,
      "cent": 1398,
      "Ġ&": 1399,
      "Ġtest": 1400,
      "Ġswe": 1401,
      "Ġwater": 1402,
      "Ġhop": 1403,
      "Ġhaving": 1404,
      "Ġey": 1405,
      "Ġrac": 1406,
      "Ġvir": 1407,
      "ified": 1408,
      "avor": 1409,
      "Ġpresidential": 1410,
      "Ġcommun": 1411,
      "Ġunveils": 1412,
      "room": 1413,
      "rest": 1414,
      "ana": 1415,
      "Ġtrav": 1416,
      "Ġkim": 1417,
      "Ġkore": 1418,
      "Ġphotos": 1419,
      "Ġdidn": 1420,
      "Ġgeor": 1421,
      "Ġwedding": 1422,
      "aur": 1423,
      "ways": 1424,
      "Ġbern": 1425,
      "ests": 1426,
      "Ġmove": 1427,
      "ision": 1428,
      "Ġrom": 1429,
      "ument": 1430,
      "ects": 1431,
      "Ġamaz": 1432,
      "Ġbelie": 1433,
      "Ġbehind": 1434,
      "Ġinvestig": 1435,
      "'m": 1436,
      "ior": 1437,
      "iel": 1438,
      "ted": 1439,
      "Ġsil": 1440,
      "Ġcase": 1441,
      "Ġfans": 1442,
      "Ġfoot": 1443,
      "Ġrock": 1444,
      "Ġprov": 1445,
      "Ġcoming": 1446,
      "Ġdoing": 1447,
      "Ġsleep": 1448,
      "Ġer": 1449,
      "Ġsim": 1450,
      "Ġname": 1451,
      "acher": 1452,
      "Ġprof": 1453,
      "Ġcond": 1454,
      "ember": 1455,
      "ressed": 1456,
      "ino": 1457,
      "Ġpan": 1458,
      "Ġdaugh": 1459,
      "utes": 1460,
      "Ġjames": 1461,
      "Ġproduc": 1462,
      "Ġstudent": 1463,
      "Ġrepublican": 1464,
      "Ġceo": 1465,
      "Ġfuture": 1466,
      "ael": 1467,
      "hen": 1468,
      "xic": 1469,
      "iter": 1470,
      "Ġrul": 1471,
      "Ġteam": 1472,
      "Ġsecond": 1473,
      "Ġchristmas": 1474,
      "Ġsomething": 1475,
      "Ġscientists": 1476,
      "yl": 1477,
      "Ġsit": 1478,
      "Ġmess": 1479,
      "Ġmight": 1480,
      "ened": 1481,
      "uses": 1482,
      "ween": 1483,
      "Ġvoters": 1484,
      "Ġbetween": 1485,
      "ox": 1486,
      "self": 1487,
      "Ġfull": 1488,
      "Ġosc": 1489,
      "arr": 1490,
      "Ġeff": 1491,
      "aged": 1492,
      "overs": 1493,
      "ashing": 1494,
      "Ġsecurity": 1495,
      "Ġthinks": 1496,
      "Ġdiscover": 1497,
      "Ġrepublicans": 1498,
      "Ġrespon": 1499,
      "ward": 1500,
      "Ġfucking": 1501,
      "Ġjour": 1502,
      "Ġyoun": 1503,
      "cept": 1504,
      "Ġask": 1505,
      "Ġasks": 1506,
      "Ġrecord": 1507,
      "Ġmusic": 1508,
      "Ġmorning": 1509,
      "hip": 1510,
      "Ġfed": 1511,
      "Ġfoll": 1512,
      "Ġdri": 1513,
      "Ġtom": 1514,
      "Ġrights": 1515,
      "Ġryan": 1516,
      "Ġonce": 1517,
      "ury": 1518,
      "earing": 1519,
      "aph": 1520,
      "Ġ12": 1521,
      "Ġiran": 1522,
      "Ġearth": 1523,
      "Ġdemocrats": 1524,
      "Ġclaims": 1525,
      "Ġsuc": 1526,
      "Ġnom": 1527,
      "ley": 1528,
      "Ġstri": 1529,
      "ude": 1530,
      "Ġteacher": 1531,
      "Ġused": 1532,
      "iously": 1533,
      "Ġstrugg": 1534,
      "be": 1535,
      "erc": 1536,
      "Ġsure": 1537,
      "Ġcat": 1538,
      "Ġwall": 1539,
      "Ġwild": 1540,
      "Ġwish": 1541,
      "ense": 1542,
      "Ġhost": 1543,
      "Ġhuff": 1544,
      "Ġdies": 1545,
      "Ġgold": 1546,
      "ility": 1547,
      "eless": 1548,
      "Ġrace": 1549,
      "Ġforced": 1550,
      "Ġprison": 1551,
      "Ġunt": 1552,
      "Ġgoes": 1553,
      "Ġhero": 1554,
      "Ġvote": 1555,
      "Ġ2016": 1556,
      "Ġadmits": 1557,
      "Ġtravel": 1558,
      "bers": 1559,
      "min": 1560,
      "Ġwife": 1561,
      "Ġlot": 1562,
      "Ġdrug": 1563,
      "Ġspeak": 1564,
      "Ġmichael": 1565,
      "Ġviolence": 1566,
      "Ġdiffer": 1567,
      "side": 1568,
      "Ġpal": 1569,
      "Ġdiv": 1570,
      "Ġshot": 1571,
      "Ġfranc": 1572,
      "iforn": 1573,
      "Ġunivers": 1574,
      "Ġrepe": 1575,
      "Ġattem": 1576,
      "Ġkilled": 1577,
      "Ġbecause": 1578,
      "Ġdepartment": 1579,
      "Ġmarriage": 1580,
      "den": 1581,
      "ees": 1582,
      "mp": 1583,
      "med": 1584,
      "wood": 1585,
      "Ġchang": 1586,
      "Ġpro": 1587,
      "ific": 1588,
      "Ġleft": 1589,
      "ured": 1590,
      "Ġtimes": 1591,
      "Ġcaliforn": 1592,
      "gbt": 1593,
      "Ġcust": 1594,
      "ised": 1595,
      "aining": 1596,
      "Ġsurv": 1597,
      "Ġincre": 1598,
      "Ġtour": 1599,
      "Ġtoday": 1600,
      "Ġprop": 1601,
      "Ġconc": 1602,
      "Ġplans": 1603,
      "Ġsmall": 1604,
      "Ġtwitter": 1605,
      "Ġcontrol": 1606,
      "Ġcalifornia": 1607,
      "aud": 1608,
      "âĢ": 1609,
      "Ġca": 1610,
      "Ġment": 1611,
      "Ġhit": 1612,
      "Ġdin": 1613,
      "Ġlar": 1614,
      "Ġnon": 1615,
      "Ġapolog": 1616,
      "Ġinside": 1617,
      "Ġminutes": 1618,
      "Ġeduc": 1619,
      "Ġlooking": 1620,
      "Ġmilit": 1621,
      "Ġterror": 1622,
      "Ġbernie": 1623,
      "ault": 1624,
      "kes": 1625,
      "oice": 1626,
      "wh": 1627,
      "yn": 1628,
      "Ġtreat": 1629,
      "Ġsouth": 1630,
      "Ġmis": 1631,
      "Ġpush": 1632,
      "Ġden": 1633,
      "Ġdays": 1634,
      "stem": 1635,
      "ider": 1636,
      "Ġang": 1637,
      "Ġmany": 1638,
      "Ġalways": 1639,
      "Ġclos": 1640,
      "Ġdrop": 1641,
      "Ġjudge": 1642,
      "Ġuntil": 1643,
      "'ve": 1644,
      "Ġsun": 1645,
      "Ġcoun": 1646,
      "icy": 1647,
      "let": 1648,
      "Ġshop": 1649,
      "ular": 1650,
      "Ġtex": 1651,
      "Ġcontin": 1652,
      "Ġinsp": 1653,
      "Ġcandidate": 1654,
      "Ġfrancis": 1655,
      "Ġes": 1656,
      "Ġice": 1657,
      "Ġren": 1658,
      "Ġstor": 1659,
      "Ġking": 1660,
      "ored": 1661,
      "ages": 1662,
      "izing": 1663,
      "ship": 1664,
      "Ġleaders": 1665,
      "Ġrunning": 1666,
      "Ġadmin": 1667,
      "Ġemployee": 1668,
      "bl": 1669,
      "dr": 1670,
      "gn": 1671,
      "erry": 1672,
      "Ġwere": 1673,
      "Ġboo": 1674,
      "Ġpress": 1675,
      "Ġthous": 1676,
      "Ġeach": 1677,
      "Ġjim": 1678,
      "Ġvac": 1679,
      "aper": 1680,
      "Ġplace": 1681,
      "ments": 1682,
      "Ġorder": 1683,
      "Ġwarns": 1684,
      "Ġeverything": 1685,
      "Ġglob": 1686,
      "Ġphoto": 1687,
      "Ġpolitical": 1688,
      "Ġrestaur": 1689,
      "Ġsummer": 1690,
      "Ġhalf": 1691,
      "bor": 1692,
      "rup": 1693,
      "vel": 1694,
      "view": 1695,
      "Ġill": 1696,
      "Ġple": 1697,
      "Ġdav": 1698,
      "Ġstates": 1699,
      "Ġspr": 1700,
      "Ġreports": 1701,
      "Ġidea": 1702,
      "Ġfemale": 1703,
      "Ġdaughter": 1704,
      "Ġhuffp": 1705,
      "Ġadministr": 1706,
      "go": 1707,
      "Ã©": 1708,
      "Ġtar": 1709,
      "Ġtaking": 1710,
      "Ġaud": 1711,
      "Ġsaf": 1712,
      "Ġmu": 1713,
      "Ġpot": 1714,
      "Ġliving": 1715,
      "ama": 1716,
      "aps": 1717,
      "ement": 1718,
      "Ġworking": 1719,
      "Ġteach": 1720,
      "Ġeng": 1721,
      "Ġwrong": 1722,
      "Ġrefuge": 1723,
      "Ġtells": 1724,
      "Ġdoct": 1725,
      "bi": 1726,
      "Ġmike": 1727,
      "ency": 1728,
      "Ġpen": 1729,
      "Ġthought": 1730,
      "lear": 1731,
      "acare": 1732,
      "Ġroll": 1733,
      "Ġview": 1734,
      "estr": 1735,
      "ustr": 1736,
      "Ġfew": 1737,
      "Ġactiv": 1738,
      "Ġsystem": 1739,
      "Ġmusl": 1740,
      "Ġconfir": 1741,
      "Ġtown": 1742,
      "Ġrussia": 1743,
      "head": 1744,
      "Ġbiden": 1745,
      "Ġcowork": 1746,
      "Ġauth": 1747,
      "Ġsent": 1748,
      "Ġcut": 1749,
      "Ġfavor": 1750,
      "Ġpain": 1751,
      "Ġthree": 1752,
      "Ġlab": 1753,
      "icks": 1754,
      "Ġtrail": 1755,
      "urs": 1756,
      "Ġkey": 1757,
      "Ġshit": 1758,
      "berg": 1759,
      "Ġobamacare": 1760,
      "Ġmissing": 1761,
      "Ġsuccess": 1762,
      "aq": 1763,
      "ham": 1764,
      "tly": 1765,
      "Ġvery": 1766,
      "inds": 1767,
      "Ġtre": 1768,
      "Ġsu": 1769,
      "Ġsave": 1770,
      "Ġbom": 1771,
      "ister": 1772,
      "Ġecon": 1773,
      "Ġkind": 1774,
      "Ġexecut": 1775,
      "Ġ30": 1776,
      "Ġgirls": 1777,
      "Ġsecretary": 1778,
      "Ġlooks": 1779,
      "Ġmurder": 1780,
      "Ġcruz": 1781,
      "Ġservice": 1782,
      "Ġkorea": 1783,
      "Ġthousands": 1784,
      "Ġeconom": 1785,
      "ging": 1786,
      "ming": 1787,
      "Ġsong": 1788,
      "Ġfan": 1789,
      "Ġball": 1790,
      "Ġtot": 1791,
      "Ġrece": 1792,
      "Ġtrip": 1793,
      "osp": 1794,
      "Ġcancer": 1795,
      "rael": 1796,
      "Ġbillion": 1797,
      "Ġneeds": 1798,
      "Ġbox": 1799,
      "Ġmarket": 1800,
      "Ġhorr": 1801,
      "Ġgeorge": 1802,
      "ne": 1803,
      "nal": 1804,
      "off": 1805,
      "ps": 1806,
      "por": 1807,
      "ped": 1808,
      "Ġted": 1809,
      "Ġage": 1810,
      "Ġfuck": 1811,
      "Ġlives": 1812,
      "ices": 1813,
      "Ġinf": 1814,
      "imin": 1815,
      "ode": 1816,
      "Ġ15": 1817,
      "Ġjustice": 1818,
      "Ġpregn": 1819,
      "Ġaccident": 1820,
      "Ġsomeone": 1821,
      "Ġhistor": 1822,
      "Ġdirector": 1823,
      "Ġyoung": 1824,
      "oid": 1825,
      "Ġ#": 1826,
      "Ġwell": 1827,
      "Ġmet": 1828,
      "ening": 1829,
      "Ġtoget": 1830,
      "Ġgives": 1831,
      "Ġru": 1832,
      "Ġneigh": 1833,
      "Ġisrael": 1834,
      "iven": 1835,
      "ried": 1836,
      "Ġmarch": 1837,
      "ocked": 1838,
      "Ġrelation": 1839,
      "Ġofficials": 1840,
      "Ġconvers": 1841,
      "...": 1842,
      "Ġhours": 1843,
      "Ġstreet": 1844,
      "Ġtogether": 1845,
      "down": 1846,
      "ex": 1847,
      "ro": 1848,
      "tion": 1849,
      "Ġwashing": 1850,
      "atter": 1851,
      "isis": 1852,
      "ites": 1853,
      "omm": 1854,
      "Ġjack": 1855,
      "ills": 1856,
      "Ġshut": 1857,
      "Ġcomes": 1858,
      "Ġthanks": 1859,
      "Ġinterview": 1860,
      "Ġvisit": 1861,
      "Ġmeeting": 1862,
      "bre": 1863,
      "gan": 1864,
      "hood": 1865,
      "iver": 1866,
      "Ġhope": 1867,
      "Ġinj": 1868,
      "Ġready": 1869,
      "asy": 1870,
      "Ġroy": 1871,
      "oof": 1872,
      "ival": 1873,
      "que": 1874,
      "eller": 1875,
      "Ġarch": 1876,
      "Ġtalks": 1877,
      "Ġiraq": 1878,
      "Ġlaunch": 1879,
      "Ġbelieve": 1880,
      "Ġcustom": 1881,
      "Ġtexas": 1882,
      "Ġrestaurant": 1883,
      "Ġadministration": 1884,
      "Ġcam": 1885,
      "Ġposs": 1886,
      "Ġpull": 1887,
      "ators": 1888,
      "Ġgiving": 1889,
      "idence": 1890,
      "lywood": 1891,
      "Ġspot": 1892,
      "Ġbring": 1893,
      "Ġprep": 1894,
      "Ġphone": 1895,
      "Ġowner": 1896,
      "Ġpark": 1897,
      "Ġletter": 1898,
      "Ġprobably": 1899,
      "Ġpersonal": 1900,
      "gle": 1901,
      "iant": 1902,
      "time": 1903,
      "oring": 1904,
      "Ġny": 1905,
      "ask": 1906,
      "elle": 1907,
      "Ġeating": 1908,
      "Ġrub": 1909,
      "iful": 1910,
      "Ġ11": 1911,
      "Ġappr": 1912,
      "Ġreveal": 1913,
      "Ġexcited": 1914,
      "bing": 1915,
      "back": 1916,
      "Ġve": 1917,
      "Ġsad": 1918,
      "Ġwins": 1919,
      "Ġbow": 1920,
      "Ġpos": 1921,
      "Ġhold": 1922,
      "Ġhair": 1923,
      "ately": 1924,
      "Ġoly": 1925,
      "Ġstaff": 1926,
      "Ġequ": 1927,
      "irt": 1928,
      "aked": 1929,
      "Ġisis": 1930,
      "Ġleave": 1931,
      "fully": 1932,
      "Ġdesign": 1933,
      "Ġromney": 1934,
      "Ġolymp": 1935,
      "gest": 1936,
      "nc": 1937,
      "Ġfox": 1938,
      "Ġfbi": 1939,
      "ature": 1940,
      "Ġdou": 1941,
      "Ġlight": 1942,
      "Ġlgbt": 1943,
      "Ġstun": 1944,
      "Ġyet": 1945,
      "ghan": 1946,
      "key": 1947,
      "Ġmexic": 1948,
      "Ġflor": 1949,
      "Ġeducation": 1950,
      "Ġwashington": 1951,
      "ject": 1952,
      "lor": 1953,
      "ram": 1954,
      "ints": 1955,
      "Ġfour": 1956,
      "Ġmind": 1957,
      "asons": 1958,
      "eter": 1959,
      "Ġchief": 1960,
      "Ġprogr": 1961,
      "ounds": 1962,
      "Ġcrisis": 1963,
      "Ġcoll": 1964,
      "Ġwatching": 1965,
      "Ġassault": 1966,
      "Ġwalk": 1967,
      "Ġcomplet": 1968,
      "so": 1969,
      "yle": 1970,
      "Ġfig": 1971,
      "Ġmer": 1972,
      "Ġdie": 1973,
      "Ġlost": 1974,
      "Ġreason": 1975,
      "ida": 1976,
      "umber": 1977,
      "Ġchina": 1978,
      "Ġfront": 1979,
      "Ġconst": 1980,
      "Ġunc": 1981,
      "Ġuns": 1982,
      "uclear": 1983,
      "Ġnothing": 1984,
      "Ġarrest": 1985,
      "Ġdrunk": 1986,
      "Ġemb": 1987,
      "Ġelect": 1988,
      "Ġcolor": 1989,
      "Ġphil": 1990,
      "Ġpercent": 1991,
      "Ġturn": 1992,
      "Ġhollywood": 1993,
      "Ġbuy": 1994,
      "Ġattacks": 1995,
      "Ġinternet": 1996,
      "Ġjournal": 1997,
      "Ġdifferent": 1998,
      "Ġmilitary": 1999,
      "Ġauthor": 2000,
      "don": 2001,
      "nn": 2002,
      "work": 2003,
      "Ġtips": 2004,
      "Ġcard": 2005,
      "Ġmel": 2006,
      "Ġdam": 2007,
      "Ġdestr": 2008,
      "Ġland": 2009,
      "amed": 2010,
      "Ġanim": 2011,
      "Ġonline": 2012,
      "oph": 2013,
      "Ġoutside": 2014,
      "Ġweird": 2015,
      "Ġscott": 2016,
      "raight": 2017,
      "Ġgirlfriend": 2018,
      "Ġprotect": 2019,
      "Ġbecom": 2020,
      "ograph": 2021,
      "Ġmonths": 2022,
      "Ġspecial": 2023,
      "ai": 2024,
      "gy": 2025,
      "ved": 2026,
      "inc": 2027,
      "Ġpick": 2028,
      "Ġthird": 2029,
      "isk": 2030,
      "Ġgift": 2031,
      "ille": 2032,
      "Ġroad": 2033,
      "ortion": 2034,
      "Ġcompl": 2035,
      "ager": 2036,
      "Ġleaves": 2037,
      "Ġcrash": 2038,
      "Ġdisapp": 2039,
      "Ġresearch": 2040,
      "Ġimport": 2041,
      "Ġusing": 2042,
      "Ġremember": 2043,
      "Ġbreaking": 2044,
      "Ġchris": 2045,
      "Ġtalking": 2046,
      "Ġannounce": 2047,
      "Ġdemocratic": 2048,
      "Ġcommunity": 2049,
      "Ġfederal": 2050,
      "eer": 2051,
      "wor": 2052,
      "Ġsick": 2053,
      "Ġcast": 2054,
      "Ġmart": 2055,
      "ene": 2056,
      "Ġhate": 2057,
      "Ġthose": 2058,
      "Ġnuclear": 2059,
      "aken": 2060,
      "Ġpriv": 2061,
      "ago": 2062,
      "Ġblood": 2063,
      "ression": 2064,
      "Ġscre": 2065,
      "Ġrecall": 2066,
      "Ġguide": 2067,
      "Ġmoment": 2068,
      "Ġclean": 2069,
      "Ġcapt": 2070,
      "Ġbirthday": 2071,
      "Ġquestions": 2072,
      "Ġfollowing": 2073,
      "Ġflorida": 2074,
      "'d": 2075,
      "11": 2076,
      "joy": 2077,
      "oint": 2078,
      "Ġwind": 2079,
      "Ġbath": 2080,
      "Ġhil": 2081,
      "Ġreb": 2082,
      "iring": 2083,
      "Ġchin": 2084,
      "Ġdeep": 2085,
      "izz": 2086,
      "Ġrecomm": 2087,
      "Ġquiet": 2088,
      "Ġlaws": 2089,
      "Ġstars": 2090,
      "Ġbuild": 2091,
      "board": 2092,
      "Ġlatest": 2093,
      "Ġtweets": 2094,
      "Ġmajority": 2095,
      "Ġproblem": 2096,
      "Ġmueller": 2097,
      "iam": 2098,
      "mon": 2099,
      "more": 2100,
      "Ġsat": 2101,
      "Ġsince": 2102,
      "Ġsearch": 2103,
      "Ġpict": 2104,
      "Ġgoo": 2105,
      "Ġstat": 2106,
      "Ġstraight": 2107,
      "Ġrad": 2108,
      "acks": 2109,
      "Ġenjoy": 2110,
      "apped": 2111,
      "Ġknows": 2112,
      "Ġcongressman": 2113,
      "Ġissues": 2114,
      "Ġbeautiful": 2115,
      "Ġinvestigation": 2116,
      "Ġrules": 2117,
      "gers": 2118,
      "ij": 2119,
      "ium": 2120,
      "lish": 2121,
      "na": 2122,
      "Ġaut": 2123,
      "Ġsan": 2124,
      "Ġcool": 2125,
      "Ġbud": 2126,
      "Ġbatt": 2127,
      "Ġmatt": 2128,
      "Ġpence": 2129,
      "Ġlou": 2130,
      "Ġlow": 2131,
      "Ġrich": 2132,
      "und": 2133,
      "ended": 2134,
      "here": 2135,
      "Ġgrad": 2136,
      "Ġmean": 2137,
      "Ġapple": 2138,
      "ashion": 2139,
      "Ġsenator": 2140,
      "Ġseries": 2141,
      "Ġholiday": 2142,
      "Ġhappy": 2143,
      "dd": 2144,
      "ores": 2145,
      "sw": 2146,
      "sy": 2147,
      "uce": 2148,
      "Ġwest": 2149,
      "Ġfly": 2150,
      "orable": 2151,
      "Ġmot": 2152,
      "Ġham": 2153,
      "elly": 2154,
      "owd": 2155,
      "aylor": 2156,
      "Ġcheck": 2157,
      "Ġunion": 2158,
      "Ġspends": 2159,
      "Ġword": 2160,
      "ford": 2161,
      "Ġwait": 2162,
      "Ġcritic": 2163,
      "20": 2164,
      "cri": 2165,
      "mate": 2166,
      "Ġfac": 2167,
      "Ġbag": 2168,
      "Ġmad": 2169,
      "Ġhands": 2170,
      "Ġhuge": 2171,
      "Ġdom": 2172,
      "Ġtold": 2173,
      "Ġlate": 2174,
      "icide": 2175,
      "asing": 2176,
      "ece": 2177,
      "Ġchurch": 2178,
      "ective": 2179,
      "Ġoffers": 2180,
      "bert": 2181,
      "ancy": 2182,
      "Ġanything": 2183,
      "Ġcharl": 2184,
      "Ġindust": 2185,
      "Ġstephen": 2186,
      "Ġwaiting": 2187,
      "Ġaddress": 2188,
      "Ġavoid": 2189,
      "Ġdavid": 2190,
      "Ġrelationship": 2191,
      "oke": 2192,
      "Ġid": 2193,
      "Ġwearing": 2194,
      "Ġbul": 2195,
      "Ġlif": 2196,
      "asts": 2197,
      "aying": 2198,
      "Ġforg": 2199,
      "Ġchick": 2200,
      "Ġshort": 2201,
      "ational": 2202,
      "Ġisn": 2203,
      "Ġworth": 2204,
      "Ġworried": 2205,
      "Ġwhole": 2206,
      "Ġmillions": 2207,
      "Ġwonder": 2208,
      "Ġcandidates": 2209,
      "Ġesc": 2210,
      "Ġhuffpost": 2211,
      "Ġfavorite": 2212,
      "Ġneighbor": 2213,
      "Ġchinese": 2214,
      "life": 2215,
      "most": 2216,
      "pet": 2217,
      "ters": 2218,
      "Ġtaylor": 2219,
      "Ġside": 2220,
      "Ġcult": 2221,
      "Ġbed": 2222,
      "Ġband": 2223,
      "Ġreasons": 2224,
      "ote": 2225,
      "Ġrise": 2226,
      "Ġtrain": 2227,
      "Ġjen": 2228,
      "Ġchic": 2229,
      "Ġproc": 2230,
      "Ġprince": 2231,
      "aine": 2232,
      "obby": 2233,
      "Ġdraw": 2234,
      "Ġcarol": 2235,
      "Ġ2015": 2236,
      "Ġcoff": 2237,
      "Ġbank": 2238,
      "Ġlegal": 2239,
      "Ġcelebrates": 2240,
      "Ġreview": 2241,
      "Ġrussian": 2242,
      "Ġcurren": 2243,
      "Ġresponse": 2244,
      "Ġtrailer": 2245,
      "iot": 2246,
      "Ġ\"": 2247,
      "Ġsqu": 2248,
      "Ġcy": 2249,
      "Ġciv": 2250,
      "Ġmist": 2251,
      "Ġport": 2252,
      "Ġhus": 2253,
      "Ġgar": 2254,
      "ether": 2255,
      "Ġreported": 2256,
      "Ġemot": 2257,
      "Ġresc": 2258,
      "Ġresign": 2259,
      "Ġhimself": 2260,
      "Ġrelig": 2261,
      "Ġconserv": 2262,
      "Ġweekend": 2263,
      "Ġcareer": 2264,
      "Ġearly": 2265,
      "struct": 2266,
      "Ġmcc": 2267,
      "Ġemployees": 2268,
      "Ġimmigration": 2269,
      "Ġamazon": 2270,
      "lin": 2271,
      "lam": 2272,
      "Ġtable": 2273,
      "Ġfact": 2274,
      "Ġfashion": 2275,
      "Ġdate": 2276,
      "Ġther": 2277,
      "Ġrequ": 2278,
      "star": 2279,
      "Ġbey": 2280,
      "Ġunited": 2281,
      "usted": 2282,
      "allen": 2283,
      "Ġrepl": 2284,
      "rible": 2285,
      "Ġbrit": 2286,
      "ails": 2287,
      "Ġapartment": 2288,
      "Ġattend": 2289,
      "Ġthinking": 2290,
      "Ġleader": 2291,
      "Ġpoint": 2292,
      "Ġpolitics": 2293,
      "iety": 2294,
      "Ġcenter": 2295,
      "Ġstruggling": 2296,
      "Ġdivor": 2297,
      "?'": 2298,
      "hol": 2299,
      "pos": 2300,
      "uel": 2301,
      "ination": 2302,
      "read": 2303,
      "order": 2304,
      "itiz": 2305,
      "Ġstore": 2306,
      "Ġeat": 2307,
      "echn": 2308,
      "ifying": 2309,
      "ults": 2310,
      "Ġalb": 2311,
      "ocks": 2312,
      "Ġsports": 2313,
      "ries": 2314,
      "Ġleast": 2315,
      "elling": 2316,
      "Ġpolicy": 2317,
      "Ġopens": 2318,
      "Ġperfor": 2319,
      "Ġ50": 2320,
      "Ġaccused": 2321,
      "aught": 2322,
      "Ġbecome": 2323,
      "Ġstarting": 2324,
      "Ġmassive": 2325,
      "Ġvictims": 2326,
      "Ġhurric": 2327,
      "Ġsyria": 2328,
      "Ġmessage": 2329,
      "oes": 2330,
      "ross": 2331,
      "era": 2332,
      "rel": 2333,
      "Ġmir": 2334,
      "Ġdat": 2335,
      "oul": 2336,
      "Ġreach": 2337,
      "elves": 2338,
      "Ġstage": 2339,
      "imp": 2340,
      "Ġvows": 2341,
      "ained": 2342,
      "Ġspace": 2343,
      "Ġdoor": 2344,
      "Ġpeace": 2345,
      "Ġfeels": 2346,
      "Ġcommitt": 2347,
      "Ġkilling": 2348,
      "Ġdesper": 2349,
      "Ġlawy": 2350,
      "Ġfunn": 2351,
      "Ġcontrovers": 2352,
      "Ġdocument": 2353,
      "Ġexperts": 2354,
      "Ġgreen": 2355,
      "50": 2356,
      "fort": 2357,
      "gin": 2358,
      "ners": 2359,
      "pe": 2360,
      "pts": 2361,
      "Ġtechn": 2362,
      "Ġcash": 2363,
      "ester": 2364,
      "ences": 2365,
      "Ġhosp": 2366,
      "Ġdress": 2367,
      "aly": 2368,
      "itor": 2369,
      "ste": 2370,
      "Ġkard": 2371,
      "aker": 2372,
      "ems": 2373,
      "Ġcomed": 2374,
      "ously": 2375,
      "Ġwords": 2376,
      "Ġ200": 2377,
      "ization": 2378,
      "Ġarg": 2379,
      "Ġwars": 2380,
      "Ġfund": 2381,
      "Ġretire": 2382,
      "Ġturns": 2383,
      "Ġharass": 2384,
      "Ġboard": 2385,
      "Ġclearly": 2386,
      "Ġgener": 2387,
      "Ġreturns": 2388,
      "Ġjeff": 2389,
      "Ġjimmy": 2390,
      "Ġconversation": 2391,
      "Ġprogram": 2392,
      "Ġcivil": 2393,
      "Ġkardash": 2394,
      "da": 2395,
      "ders": 2396,
      "Ġale": 2397,
      "Ġairl": 2398,
      "Ġsud": 2399,
      "Ġcup": 2400,
      "Ġcitiz": 2401,
      "Ġfear": 2402,
      "Ġdating": 2403,
      "Ġok": 2404,
      "Ġtouch": 2405,
      "Ġtodd": 2406,
      "Ġnat": 2407,
      "Ġnob": 2408,
      "acter": 2409,
      "olution": 2410,
      "Ġrole": 2411,
      "ently": 2412,
      "Ġonion": 2413,
      "Ġwhether": 2414,
      "Ġkelly": 2415,
      "Ġprim": 2416,
      "istan": 2417,
      "ocking": 2418,
      "Ġafghan": 2419,
      "aging": 2420,
      "ipp": 2421,
      "Ġadds": 2422,
      "Ġadorable": 2423,
      "Ġjoe": 2424,
      "ction": 2425,
      "Ġreality": 2426,
      "Ġdecision": 2427,
      "Ġ40": 2428,
      "Ġmoving": 2429,
      "Ġartist": 2430,
      "Ġcops": 2431,
      "Ġlessons": 2432,
      "Ġquestion": 2433,
      "Ġwishes": 2434,
      "Ġcoworker": 2435,
      "Ġcompletely": 2436,
      "Ġindustry": 2437,
      "bol": 2438,
      "band": 2439,
      "gender": 2440,
      "mar": 2441,
      "zz": 2442,
      "Ġsug": 2443,
      "Ġcnn": 2444,
      "Ġwast": 2445,
      "orter": 2446,
      "Ġpurch": 2447,
      "Ġdan": 2448,
      "Ġdance": 2449,
      "aring": 2450,
      "alia": 2451,
      "iling": 2452,
      "Ġrid": 2453,
      "americ": 2454,
      "Ġtrue": 2455,
      "ades": 2456,
      "Ġjr": 2457,
      "Ġchallen": 2458,
      "using": 2459,
      "ops": 2460,
      "Ġproud": 2461,
      "Ġabs": 2462,
      "Ġabuse": 2463,
      "Ġexh": 2464,
      "Ġacross": 2465,
      "aven": 2466,
      "Ġfinal": 2467,
      "Ġiow": 2468,
      "Ġusers": 2469,
      "Ġcalled": 2470,
      "Ġcommerc": 2471,
      "Ġglass": 2472,
      "Ġbreaks": 2473,
      "Ġpowerful": 2474,
      "Ġgovernor": 2475,
      "Ġexperience": 2476,
      "Ġsigns": 2477,
      "Ġlearned": 2478,
      "Ġdinner": 2479,
      "Ġglobal": 2480,
      "Ġmuslim": 2481,
      "Ġtotally": 2482,
      "Ġrubio": 2483,
      "Ġhilar": 2484,
      "Ġchicago": 2485,
      "not": 2486,
      "oor": 2487,
      "ron": 2488,
      "sn": 2489,
      "ven": 2490,
      "ym": 2491,
      "you": 2492,
      "Ġsav": 2493,
      "Ġsix": 2494,
      "Ġsaud": 2495,
      "Ġfit": 2496,
      "Ġpu": 2497,
      "Ġpack": 2498,
      "Ġha": 2499,
      "Ġhell": 2500,
      "Ġoh": 2501,
      "Ġoil": 2502,
      "isc": 2503,
      "Ġlo": 2504,
      "Ġnames": 2505,
      "ili": 2506,
      "Ġform": 2507,
      "ural": 2508,
      "Ġvoice": 2509,
      "Ġfriday": 2510,
      "unt": 2511,
      "andal": 2512,
      "Ġenc": 2513,
      "Ġdemand": 2514,
      "Ġputs": 2515,
      "Ġmembers": 2516,
      "Ġkeeps": 2517,
      "Ġbegin": 2518,
      "Ġbegins": 2519,
      "Ġsyrian": 2520,
      "Ġhoping": 2521,
      "Ġfootball": 2522,
      "Ġsurviv": 2523,
      "Ġangel": 2524,
      "Ġvacation": 2525,
      "Ġdestroy": 2526,
      "Ġcub": 2527,
      "ania": 2528,
      "Ġfat": 2529,
      "Ġmach": 2530,
      "Ġhits": 2531,
      "Ġdi": 2532,
      "Ġdark": 2533,
      "Ġlim": 2534,
      "Ġlose": 2535,
      "Ġnb": 2536,
      "vey": 2537,
      "Ġnear": 2538,
      "Ġabortion": 2539,
      "Ġseen": 2540,
      "Ġcross": 2541,
      "Ġ13": 2542,
      "Ġ18": 2543,
      "Ġbrief": 2544,
      "Ġlik": 2545,
      "Ġresident": 2546,
      "Ġorgan": 2547,
      "Ġquick": 2548,
      "iction": 2549,
      "Ġawards": 2550,
      "Ġworkers": 2551,
      "Ġdecl": 2552,
      "Ġkills": 2553,
      "Ġdesp": 2554,
      "Ġschools": 2555,
      "Ġpoor": 2556,
      "ergy": 2557,
      "Ġdevel": 2558,
      "Ġprevent": 2559,
      "Ġmental": 2560,
      "Ġcoffee": 2561,
      "Ġhurricane": 2562,
      "de": 2563,
      "game": 2564,
      "how": 2565,
      "nes": 2566,
      "Ġboss": 2567,
      "Ġnumber": 2568,
      "ica": 2569,
      "Ġreform": 2570,
      "Ġrisk": 2571,
      "Ġwhich": 2572,
      "umer": 2573,
      "Ġislam": 2574,
      "Ġalmost": 2575,
      "Ġweight": 2576,
      "Ġwebs": 2577,
      "Ġimpr": 2578,
      "Ġslow": 2579,
      "Ġanyone": 2580,
      "ologists": 2581,
      "iversary": 2582,
      "Ġswift": 2583,
      "Ġlonger": 2584,
      "flix": 2585,
      "Ġsnow": 2586,
      "Ġrobert": 2587,
      "Ġfeeling": 2588,
      "Ġsales": 2589,
      "Ġnetflix": 2590,
      "Ġsurprise": 2591,
      "Ġtweet": 2592,
      "Ġhallow": 2593,
      "Ġalleg": 2594,
      "Ġeye": 2595,
      "Ġoscar": 2596,
      "Ġuniversity": 2597,
      "Ġspring": 2598,
      "Ġkardashian": 2599,
      "Ġcatch": 2600,
      "Ġfast": 2601,
      "ena": 2602,
      "Ġpsy": 2603,
      "Ġdist": 2604,
      "Ġtruth": 2605,
      "ume": 2606,
      "estin": 2607,
      "Ġafric": 2608,
      "Ġfinanc": 2609,
      "Ġobs": 2610,
      "Ġqueer": 2611,
      "Ġevidence": 2612,
      "Ġanniversary": 2613,
      "Ġexpect": 2614,
      "ucker": 2615,
      "Ġplane": 2616,
      "Ġplaying": 2617,
      "Ġofficial": 2618,
      "Ġgrandma": 2619,
      "Ġhomeless": 2620,
      "Ġsuspect": 2621,
      "Ġalleged": 2622,
      "Ġoscars": 2623,
      "Ġdriver": 2624,
      "Ġaudience": 2625,
      "Ġlouis": 2626,
      "Ġjenner": 2627,
      "Ġdata": 2628,
      "Ġhospital": 2629,
      "Ġiowa": 2630,
      "cle": 2631,
      "non": 2632,
      "row": 2633,
      "Ġx": 2634,
      "Ġiv": 2635,
      "inder": 2636,
      "Ġtyp": 2637,
      "Ġwel": 2638,
      "Ġbi": 2639,
      "Ġmic": 2640,
      "Ġlink": 2641,
      "Ġnas": 2642,
      "Ġnfl": 2643,
      "ided": 2644,
      "Ġtry": 2645,
      "urb": 2646,
      "Ġconn": 2647,
      "Ġworst": 2648,
      "Ġaff": 2649,
      "Ġcrowd": 2650,
      "Ġ100": 2651,
      "oved": 2652,
      "Ġrecip": 2653,
      "action": 2654,
      "azy": 2655,
      "azine": 2656,
      "Ġdemands": 2657,
      "Ġinterest": 2658,
      "Ġaward": 2659,
      "Ġ2014": 2660,
      "Ġapparen": 2661,
      "Ġboys": 2662,
      "Ġgeneral": 2663,
      "Ġmichelle": 2664,
      "Ġsteve": 2665,
      "Ġreturn": 2666,
      "Ġpropos": 2667,
      "Ġapologizes": 2668,
      "Ġdoctor": 2669,
      "Ġexecutive": 2670,
      "Ġimportant": 2671,
      "Ġgoogle": 2672,
      "Ġhalloween": 2673,
      "Ġpsych": 2674,
      "iams": 2675,
      "where": 2676,
      "Ġign": 2677,
      "ĠâĢ": 2678,
      "Ġcas": 2679,
      "Ġfive": 2680,
      "edi": 2681,
      "Ġstuff": 2682,
      "imes": 2683,
      "Ġjenn": 2684,
      "Ġkr": 2685,
      "Ġchance": 2686,
      "uson": 2687,
      "oods": 2688,
      "ify": 2689,
      "Ġcrack": 2690,
      "Ġcrime": 2691,
      "Ġ14": 2692,
      "oves": 2693,
      "Ġarr": 2694,
      "Ġpred": 2695,
      "Ġvoter": 2696,
      "Ġtransgender": 2697,
      "Ġmemor": 2698,
      "Ġpassen": 2699,
      "erguson": 2700,
      "Ġclaim": 2701,
      "Ġurges": 2702,
      "Ġmagazine": 2703,
      "Ġvirgin": 2704,
      "Ġprofess": 2705,
      "Ġpossible": 2706,
      "Ġnyc": 2707,
      "Ġbathroom": 2708,
      "Ġpicture": 2709,
      "Ġgradu": 2710,
      "Ġreportedly": 2711,
      "ially": 2712,
      "oe": 2713,
      "ving": 2714,
      "Ġsound": 2715,
      "Ġsuit": 2716,
      "Ġmoo": 2717,
      "atives": 2718,
      "Ġdying": 2719,
      "Ġdanger": 2720,
      "Ġgiven": 2721,
      "aced": 2722,
      "Ġround": 2723,
      "Ġforce": 2724,
      "Ġjew": 2725,
      "Ġkerry": 2726,
      "Ġchair": 2727,
      "Ġveter": 2728,
      "Ġaccept": 2729,
      "Ġdoz": 2730,
      "Ġground": 2731,
      "Ġcanc": 2732,
      "Ġbrings": 2733,
      "Ġwilliams": 2734,
      "Ġliber": 2735,
      "achel": 2736,
      "Ġmoms": 2737,
      "Ġsoon": 2738,
      "Ġplanet": 2739,
      "Ġ2017": 2740,
      "Ġincl": 2741,
      "Ġincred": 2742,
      "Ġparis": 2743,
      "ology": 2744,
      "Ġofficer": 2745,
      "Ġsupporters": 2746,
      "Ġadvice": 2747,
      "Ġeyes": 2748,
      "ield": 2749,
      "Ġrepeal": 2750,
      "Ġbowl": 2751,
      "Ġwebsite": 2752,
      "cc": 2753,
      "gu": 2754,
      "mel": 2755,
      "tle": 2756,
      "uary": 2757,
      "erem": 2758,
      "Ġsold": 2759,
      "rec": 2760,
      "Ġcook": 2761,
      "Ġfoc": 2762,
      "Ġferguson": 2763,
      "Ġbal": 2764,
      "itive": 2765,
      "Ġeasy": 2766,
      "Ġbeat": 2767,
      "Ġyouth": 2768,
      "ulation": 2769,
      "abeth": 2770,
      "anta": 2771,
      "Ġ17": 2772,
      "Ġteens": 2773,
      "Ġqueen": 2774,
      "Ġplanned": 2775,
      "Ġbiggest": 2776,
      "Ġchristian": 2777,
      "Ġskin": 2778,
      "Ġboyfriend": 2779,
      "Ġcorpor": 2780,
      "Ġlearn": 2781,
      "Ġepis": 2782,
      "Ġideas": 2783,
      "Ġprotesters": 2784,
      "Ġconcern": 2785,
      "Ġsuicide": 2786,
      "Ġaccidentally": 2787,
      "Ġcarolina": 2788,
      "Ġallegations": 2789,
      "rick": 2790,
      "Ġic": 2791,
      "Ġver": 2792,
      "Ġip": 2793,
      "Ġeric": 2794,
      "inking": 2795,
      "Ġcab": 2796,
      "Ġpi": 2797,
      "Ġpizz": 2798,
      "Ġlady": 2799,
      "Ġger": 2800,
      "etic": 2801,
      "olf": 2802,
      "Ġstock": 2803,
      "Ġrally": 2804,
      "Ġansw": 2805,
      "them": 2806,
      "ucks": 2807,
      "Ġreporter": 2808,
      "Ġclose": 2809,
      "Ġupd": 2810,
      "Ġbrown": 2811,
      "izabeth": 2812,
      "Ġallow": 2813,
      "Ġfinding": 2814,
      "Ġdriving": 2815,
      "Ġelizabeth": 2816,
      "Ġuses": 2817,
      "rench": 2818,
      "Ġmyster": 2819,
      "Ġreminds": 2820,
      "Ġappear": 2821,
      "Ġjobs": 2822,
      "others": 2823,
      "Ġfighting": 2824,
      "Ġlabor": 2825,
      "Ġpregnant": 2826,
      "Ġquietly": 2827,
      "Ġbattle": 2828,
      "Ġhusband": 2829,
      "Ġalbum": 2830,
      "Ġperforman": 2831,
      "stein": 2832,
      "Ġsudden": 2833,
      "Ġapparently": 2834,
      "':": 2835,
      "care": 2836,
      "dy": 2837,
      "ered": 2838,
      "erence": 2839,
      "rets": 2840,
      "Ġfa": 2841,
      "Ġfest": 2842,
      "Ġbase": 2843,
      "Ġdig": 2844,
      "Ġdied": 2845,
      "Ġlets": 2846,
      "Ġinfl": 2847,
      "Ġinform": 2848,
      "Ġstay": 2849,
      "Ġric": 2850,
      "Ġrap": 2851,
      "Ġul": 2852,
      "Ġtrack": 2853,
      "Ġjones": 2854,
      "usive": 2855,
      "akers": 2856,
      "Ġasking": 2857,
      "aint": 2858,
      "ressive": 2859,
      "ished": 2860,
      "Ġelse": 2861,
      "Ġstrate": 2862,
      "Ġmayor": 2863,
      "Ġhumans": 2864,
      "gests": 2865,
      "Ġcelebrate": 2866,
      "Ġwalking": 2867,
      "Ġdeter": 2868,
      "Ġbenef": 2869,
      "Ġracist": 2870,
      "Ġsimple": 2871,
      "Ġattempt": 2872,
      "Ġtarget": 2873,
      "Ġeconomy": 2874,
      "Ġmartin": 2875,
      "Ġchicken": 2876,
      "Ġsuggests": 2877,
      "american": 2878,
      "Ġsaudi": 2879,
      "Ġmoore": 2880,
      "ca": 2881,
      "la": 2882,
      "mates": 2883,
      "mother": 2884,
      "ta": 2885,
      "ery": 2886,
      "Ġaver": 2887,
      "Ġari": 2888,
      "Ġsuff": 2889,
      "Ġsaid": 2890,
      "reds": 2891,
      "onds": 2892,
      "Ġcir": 2893,
      "Ġcame": 2894,
      "Ġcred": 2895,
      "Ġmal": 2896,
      "Ġpaper": 2897,
      "ota": 2898,
      "ots": 2899,
      "Ġrick": 2900,
      "ential": 2901,
      "Ġjes": 2902,
      "Ġshares": 2903,
      "Ġprog": 2904,
      "istic": 2905,
      "Ġund": 2906,
      "Ġexact": 2907,
      "Ġdisney": 2908,
      "Ġenergy": 2909,
      "Ġthrows": 2910,
      "Ġannoy": 2911,
      "Ġvoting": 2912,
      "Ġstrong": 2913,
      "Ġcharacter": 2914,
      "Ġleads": 2915,
      "Ġleading": 2916,
      "Ġmuse": 2917,
      "Ġhappens": 2918,
      "Ġhappened": 2919,
      "Ġpasses": 2920,
      "Ġolder": 2921,
      "Ġepa": 2922,
      "Ġbeauty": 2923,
      "Ġproblems": 2924,
      "Ġconstit": 2925,
      "Ġprivate": 2926,
      "Ġrecalls": 2927,
      "Ġmccain": 2928,
      "Ġcitizens": 2929,
      "Ġdevelop": 2930,
      "Ġperformance": 2931,
      "bling": 2932,
      "ev": 2933,
      "gl": 2934,
      "giving": 2935,
      "par": 2936,
      "sp": 2937,
      "uana": 2938,
      "Ġwent": 2939,
      "Ġfif": 2940,
      "Ġbob": 2941,
      "Ġbott": 2942,
      "Ġhaw": 2943,
      "Ġdone": 2944,
      "isl": 2945,
      "Ġlad": 2946,
      "Ġnra": 2947,
      "ilies": 2948,
      "Ġreun": 2949,
      "Ġeast": 2950,
      "Ġrand": 2951,
      "Ġtrad": 2952,
      "iment": 2953,
      "Ġju": 2954,
      "illing": 2955,
      "illed": 2956,
      "Ġvol": 2957,
      "resh": 2958,
      "Ġcloth": 2959,
      "Ġleaving": 2960,
      "Ġbroad": 2961,
      "Ġdisg": 2962,
      "Ġdrag": 2963,
      "Ġhasn": 2964,
      "Ġresults": 2965,
      "Ġflag": 2966,
      "Ġenv": 2967,
      "Ġcolbert": 2968,
      "Ġthank": 2969,
      "Ġactor": 2970,
      "Ġevent": 2971,
      "Ġfamilies": 2972,
      "Ġrealizes": 2973,
      "Ġinsur": 2974,
      "Ġhealthy": 2975,
      "Ġmedic": 2976,
      "ertain": 2977,
      "Ġdefense": 2978,
      "Ġtelling": 2979,
      "Ġplayer": 2980,
      "Ġlegisl": 2981,
      "Ġtoward": 2982,
      "Ġhotel": 2983,
      "Ġfails": 2984,
      "Ġlearning": 2985,
      "coming": 2986,
      "Ġperfectly": 2987,
      "Ġloses": 2988,
      "Ġhopes": 2989,
      "Ġamazing": 2990,
      "arrass": 2991,
      "minute": 2992,
      "Ġreceives": 2993,
      "Ġholding": 2994,
      "Ġbuilding": 2995,
      "ijuana": 2996,
      "Ġculture": 2997,
      "Ġemotional": 2998,
      "Ġdesperate": 2999,
      "Ġlikely": 3000,
      "Ġepisode": 3001,
      "Ġpizza": 3002,
      "bur": 3003,
      "cast": 3004,
      "light": 3005,
      "new": 3006,
      "inks": 3007,
      "Ġaid": 3008,
      "Ġsar": 3009,
      "Ġsour": 3010,
      "Ġmast": 3011,
      "Ġmix": 3012,
      "Ġpur": 3013,
      "Ġhack": 3014,
      "Ġloss": 3015,
      "icle": 3016,
      "Ġgal": 3017,
      "Ġgas": 3018,
      "Ġgave": 3019,
      "stand": 3020,
      "olut": 3021,
      "Ġstress": 3022,
      "Ġebol": 3023,
      "Ġforward": 3024,
      "Ġuk": 3025,
      "Ġwhe": 3026,
      "Ġjon": 3027,
      "anda": 3028,
      "Ġmanager": 3029,
      "Ġspend": 3030,
      "Ġspending": 3031,
      "Ġsean": 3032,
      "Ġworse": 3033,
      "Ġamid": 3034,
      "Ġweap": 3035,
      "Ġbrother": 3036,
      "Ġscr": 3037,
      "Ġmarijuana": 3038,
      "Ġago": 3039,
      "Ġelder": 3040,
      "Ġattr": 3041,
      "ission": 3042,
      "Ġslams": 3043,
      "Ġclear": 3044,
      "Ġexplains": 3045,
      "Ġairport": 3046,
      "trump": 3047,
      "Ġpopular": 3048,
      "oken": 3049,
      "Ġhund": 3050,
      "Ġextra": 3051,
      "Ġforeign": 3052,
      "Ġproduct": 3053,
      "Ġconfirm": 3054,
      "Ġthanksgiving": 3055,
      "Ġhilarious": 3056,
      "Ġresidents": 3057,
      "Ġdespite": 3058,
      "Ġnasa": 3059,
      "Ġdozens": 3060,
      "Ġjesus": 3061,
      "Ġmuseum": 3062,
      "Ġebola": 3063,
      "ky": 3064,
      "mal": 3065,
      "no": 3066,
      "nell": 3067,
      "win": 3068,
      "Ġq": 3069,
      "Ġest": 3070,
      "Ġtem": 3071,
      "erve": 3072,
      "Ġahead": 3073,
      "Ġsam": 3074,
      "Ġcerem": 3075,
      "Ġwood": 3076,
      "Ġfake": 3077,
      "Ġmatter": 3078,
      "Ġporn": 3079,
      "arian": 3080,
      "Ġnice": 3081,
      "icious": 3082,
      "Ġinn": 3083,
      "Ġrush": 3084,
      "idge": 3085,
      "Ġtrou": 3086,
      "Ġjump": 3087,
      "Ġkick": 3088,
      "Ġshr": 3089,
      "Ġbear": 3090,
      "Ġpract": 3091,
      "Ġfrank": 3092,
      "Ġcomey": 3093,
      "Ġcomments": 3094,
      "Ġsea": 3095,
      "Ġpled": 3096,
      "Ġgrow": 3097,
      "Ġprem": 3098,
      "angers": 3099,
      "Ġthrones": 3100,
      "Ġaccess": 3101,
      "Ġmovies": 3102,
      "Ġhearing": 3103,
      "Ġdeadly": 3104,
      "Ġharry": 3105,
      "Ġdiscuss": 3106,
      "Ġwinter": 3107,
      "Ġrespons": 3108,
      "grad": 3109,
      "Ġopening": 3110,
      "Ġsteps": 3111,
      "Ġreading": 3112,
      "Ġimmigrants": 3113,
      "Ġhonor": 3114,
      "Ġfarm": 3115,
      "Ġfreed": 3116,
      "Ġresponds": 3117,
      "Ġrefugees": 3118,
      "Ġwondering": 3119,
      "Ġreligious": 3120,
      "Ġdocumentary": 3121,
      "Ġharassment": 3122,
      "come": 3123,
      "cious": 3124,
      "kin": 3125,
      "night": 3126,
      "ugh": 3127,
      "ining": 3128,
      "Ġtele": 3129,
      "Ġsend": 3130,
      "reg": 3131,
      "Ġfur": 3132,
      "Ġfant": 3133,
      "Ġfaces": 3134,
      "inger": 3135,
      "Ġmult": 3136,
      "Ġmale": 3137,
      "Ġpul": 3138,
      "Ġdoll": 3139,
      "itions": 3140,
      "Ġlunch": 3141,
      "Ġlobby": 3142,
      "icking": 3143,
      "Ġgames": 3144,
      "ado": 3145,
      "Ġjan": 3146,
      "Ġnearly": 3147,
      "Ġken": 3148,
      "Ġchuck": 3149,
      "Ġbeach": 3150,
      "Ġalso": 3151,
      "Ġamong": 3152,
      "agram": 3153,
      "Ġacqu": 3154,
      "Ġwee": 3155,
      "Ġbrain": 3156,
      "ovel": 3157,
      "Ġscandal": 3158,
      "sex": 3159,
      "Ġemerg": 3160,
      "Ġguest": 3161,
      "Ġfeat": 3162,
      "Ġdesk": 3163,
      "Ġmedical": 3164,
      "Ġturkey": 3165,
      "Ġharvey": 3166,
      "Ġseeing": 3167,
      "Ġputin": 3168,
      "Ġrelease": 3169,
      "Ġpromises": 3170,
      "Ġvalent": 3171,
      "Ġcreep": 3172,
      "Ġdrive": 3173,
      "Ġnomine": 3174,
      "Ġhistorical": 3175,
      "Ġcustomers": 3176,
      "Ġarrested": 3177,
      "Ġscreen": 3178,
      "Ġbudget": 3179,
      "Ġtherap": 3180,
      "Ġcommittee": 3181,
      "Ġtoddler": 3182,
      "Ġcommercial": 3183,
      "cing": 3184,
      "gg": 3185,
      "sa": 3186,
      "wr": 3187,
      "wide": 3188,
      "yr": 3189,
      "ined": 3190,
      "Ġtree": 3191,
      "Ġtired": 3192,
      "Ġsoul": 3193,
      "Ġcold": 3194,
      "Ġfish": 3195,
      "Ġfda": 3196,
      "Ġmigr": 3197,
      "Ġpub": 3198,
      "Ġpath": 3199,
      "Ġdnc": 3200,
      "Ġgif": 3201,
      "Ġgym": 3202,
      "Ġro": 3203,
      "Ġanx": 3204,
      "Ġtrade": 3205,
      "Ġkav": 3206,
      "vert": 3207,
      "Ġbeer": 3208,
      "Ġvan": 3209,
      "Ġfrustr": 3210,
      "ively": 3211,
      "rib": 3212,
      "Ġaren": 3213,
      "antly": 3214,
      "Ġ25": 3215,
      "Ġmeat": 3216,
      "aily": 3217,
      "Ġguil": 3218,
      "Ġwarning": 3219,
      "Ġjoh": 3220,
      "Ġaction": 3221,
      "ption": 3222,
      "Ġaccord": 3223,
      "Ġworker": 3224,
      "Ġkiller": 3225,
      "Ġsmith": 3226,
      "Ġenters": 3227,
      "Ġsaying": 3228,
      "Ġpoints": 3229,
      "Ġputting": 3230,
      "Ġguns": 3231,
      "Ġdreams": 3232,
      "Ġfemin": 3233,
      "Ġjeb": 3234,
      "Ġsweet": 3235,
      "Ġrefugee": 3236,
      "Ġactivists": 3237,
      "Ġroyal": 3238,
      "Ġolympic": 3239,
      "Ġembarrass": 3240,
      "Ġlawsuit": 3241,
      "Ġohio": 3242,
      "Ġfinancial": 3243,
      "Ġaverage": 3244,
      "Ġelderly": 3245,
      "Ġhundreds": 3246,
      "eh": 3247,
      "hone": 3248,
      "kward": 3249,
      "ville": 3250,
      "wich": 3251,
      "Ġident": 3252,
      "iny": 3253,
      "Ġsel": 3254,
      "Ġcath": 3255,
      "Ġcaught": 3256,
      "anaugh": 3257,
      "Ġfle": 3258,
      "Ġfair": 3259,
      "Ġbol": 3260,
      "Ġbell": 3261,
      "Ġhab": 3262,
      "Ġdivers": 3263,
      "arm": 3264,
      "arks": 3265,
      "iles": 3266,
      "olic": 3267,
      "Ġrow": 3268,
      "Ġrape": 3269,
      "ammy": 3270,
      "Ġtries": 3271,
      "Ġtrial": 3272,
      "Ġtrib": 3273,
      "Ġkh": 3274,
      "Ġchann": 3275,
      "Ġshirt": 3276,
      "usion": 3277,
      "oper": 3278,
      "thood": 3279,
      "Ġvatic": 3280,
      "Ġpra": 3281,
      "apt": 3282,
      "Ġunable": 3283,
      "Ġspir": 3284,
      "Ġexist": 3285,
      "upid": 3286,
      "astic": 3287,
      "Ġ16": 3288,
      "Ġscience": 3289,
      "ples": 3290,
      "Ġflight": 3291,
      "Ġii": 3292,
      "Ġopt": 3293,
      "Ġawkward": 3294,
      "ondon": 3295,
      "Ġsomehow": 3296,
      "Ġlawm": 3297,
      "Ġmonday": 3298,
      "Ġfunding": 3299,
      "erto": 3300,
      "Ġdefends": 3301,
      "Ġcongressional": 3302,
      "Ġprobe": 3303,
      "Ġfired": 3304,
      "Ġbird": 3305,
      "Ġsandwich": 3306,
      "Ġmccon": 3307,
      "Ġadvis": 3308,
      "Ġraise": 3309,
      "Ġasked": 3310,
      "Ġbooks": 3311,
      "donald": 3312,
      "Ġresearchers": 3313,
      "Ġdivorce": 3314,
      "Ġpuerto": 3315,
      "Ġenvir": 3316,
      "Ġtelev": 3317,
      "Ġweeks": 3318,
      "Ġkavanaugh": 3319,
      "Ġvatican": 3320,
      "ever": 3321,
      "fire": 3322,
      "kn": 3323,
      "part": 3324,
      "inal": 3325,
      "Ġton": 3326,
      "Ġtaken": 3327,
      "Ġaustr": 3328,
      "Ġcia": 3329,
      "Ġwil": 3330,
      "Ġwear": 3331,
      "Ġfix": 3332,
      "orm": 3333,
      "Ġbreat": 3334,
      "Ġbull": 3335,
      "Ġborder": 3336,
      "Ġpep": 3337,
      "Ġdut": 3338,
      "Ġdaily": 3339,
      "Ġol": 3340,
      "Ġov": 3341,
      "aling": 3342,
      "Ġnumb": 3343,
      "Ġgiant": 3344,
      "Ġeur": 3345,
      "Ġride": 3346,
      "chool": 3347,
      "Ġshare": 3348,
      "ifer": 3349,
      "apan": 3350,
      "Ġassh": 3351,
      "usting": 3352,
      "Ġamb": 3353,
      "Ġbrand": 3354,
      "Ġscream": 3355,
      "Ġscene": 3356,
      "Ġagre": 3357,
      "Ġimag": 3358,
      "ensive": 3359,
      "Ġorig": 3360,
      "Ġorders": 3361,
      "Ġcarpet": 3362,
      "Ġoper": 3363,
      "forms": 3364,
      "ucky": 3365,
      "Ġvotes": 3366,
      "Ġparent": 3367,
      "Ġassures": 3368,
      "Ġcompet": 3369,
      "Ġendors": 3370,
      "Ġimmedi": 3371,
      "Ġgrandmother": 3372,
      "Ġconvention": 3373,
      "Ġcreate": 3374,
      "Ġissue": 3375,
      "Ġeffort": 3376,
      "Ġgolden": 3377,
      "Ġconfirms": 3378,
      "Ġbomb": 3379,
      "Ġmarketing": 3380,
      "breaking": 3381,
      "Ġmexico": 3382,
      "Ġbecoming": 3383,
      "ointed": 3384,
      "Ġretirement": 3385,
      "snl": 3386,
      "Ġencour": 3387,
      "Ġmachine": 3388,
      "Ġincredible": 3389,
      "Ġconcerned": 3390,
      "Ġinflu": 3391,
      "Ġvalentine": 3392,
      "Ġaccording": 3393,
      "cr": 3394,
      "men": 3395,
      "ny": 3396,
      "well": 3397,
      "zer": 3398,
      "Ġess": 3399,
      "Ġeth": 3400,
      "Ġtech": 3401,
      "Ġsends": 3402,
      "rew": 3403,
      "onc": 3404,
      "onment": 3405,
      "Ġmatch": 3406,
      "Ġmouth": 3407,
      "Ġpool": 3408,
      "Ġhers": 3409,
      "Ġlondon": 3410,
      "Ġnick": 3411,
      "illy": 3412,
      "Ġstyle": 3413,
      "Ġonto": 3414,
      "ada": 3415,
      "Ġjapan": 3416,
      "ulian": 3417,
      "estic": 3418,
      "Ġali": 3419,
      "Ġspent": 3420,
      "Ġexec": 3421,
      "Ġafford": 3422,
      "Ġcrimin": 3423,
      "Ġblue": 3424,
      "Ġarab": 3425,
      "Ġdisab": 3426,
      "Ġempt": 3427,
      "ashes": 3428,
      "Ġfloor": 3429,
      "Ġwarren": 3430,
      "Ġopin": 3431,
      "Ġsenators": 3432,
      "Ġsmart": 3433,
      "Ġshouldn": 3434,
      "Ġmoves": 3435,
      "Ġindian": 3436,
      "Ġconsider": 3437,
      "Ġcourse": 3438,
      "Ġdepression": 3439,
      "Ġhelping": 3440,
      "Ġ60": 3441,
      "Ġguys": 3442,
      "Ġexplain": 3443,
      "Ġcheese": 3444,
      "Ġextrem": 3445,
      "Ġmovement": 3446,
      "Ġdoctors": 3447,
      "Ġcustomer": 3448,
      "Ġstunning": 3449,
      "Ġneighborhood": 3450,
      "Ġprocess": 3451,
      "Ġalex": 3452,
      "Ġprimary": 3453,
      "Ġafghanistan": 3454,
      "Ġcabin": 3455,
      "Ġult": 3456,
      "Ġenvironment": 3457,
      "Ġeurope": 3458,
      ".'": 3459,
      "born": 3460,
      "ead": 3461,
      "fr": 3462,
      "fast": 3463,
      "mad": 3464,
      "nam": 3465,
      "power": 3466,
      "Ġtear": 3467,
      "Ġtick": 3468,
      "Ġsess": 3469,
      "rep": 3470,
      "Ġcord": 3471,
      "Ġcities": 3472,
      "Ġmac": 3473,
      "Ġmol": 3474,
      "Ġmount": 3475,
      "Ġhang": 3476,
      "Ġdip": 3477,
      "Ġdanc": 3478,
      "ara": 3479,
      "itation": 3480,
      "eding": 3481,
      "Ġles": 3482,
      "Ġlaugh": 3483,
      "Ġnerv": 3484,
      "Ġstuck": 3485,
      "Ġring": 3486,
      "Ġrat": 3487,
      "Ġforces": 3488,
      "Ġuber": 3489,
      "Ġjail": 3490,
      "Ġbee": 3491,
      "Ġpros": 3492,
      "Ġspl": 3493,
      "ansas": 3494,
      "Ġclub": 3495,
      "Ġsees": 3496,
      "udes": 3497,
      "Ġworks": 3498,
      "ellig": 3499,
      "Ġmeans": 3500,
      "Ġseconds": 3501,
      "Ġopp": 3502,
      "icted": 3503,
      "Ġremind": 3504,
      "Ġaccount": 3505,
      "Ġcommon": 3506,
      "Ġterrible": 3507,
      "Ġpolitic": 3508,
      "Ġspecies": 3509,
      "Ġsurprised": 3510,
      "Ġloved": 3511,
      "Ġcondem": 3512,
      "Ġpalestin": 3513,
      "Ġincreasing": 3514,
      "Ġcontinues": 3515,
      "Ġlaunches": 3516,
      "Ġmexican": 3517,
      "Ġanimals": 3518,
      "Ġbecomes": 3519,
      "Ġwindow": 3520,
      "Ġjennifer": 3521,
      "Ġvirginia": 3522,
      "Ġdangerous": 3523,
      "Ġfifth": 3524,
      "Ġceremony": 3525,
      "Ġfreedom": 3526,
      "Ġguilty": 3527,
      "Ġjohns": 3528,
      "Ġnumbers": 3529,
      "gal": 3530,
      "ius": 3531,
      "ients": 3532,
      "mart": 3533,
      "pting": 3534,
      "ued": 3535,
      "war": 3536,
      "Ġends": 3537,
      "Ġtort": 3538,
      "Ġsite": 3539,
      "Ġcos": 3540,
      "Ġfrench": 3541,
      "Ġmos": 3542,
      "Ġmoon": 3543,
      "enced": 3544,
      "Ġpod": 3545,
      "Ġhyp": 3546,
      "Ġdiet": 3547,
      "Ġthom": 3548,
      "arre": 3549,
      "Ġlas": 3550,
      "Ġnarr": 3551,
      "Ġnamed": 3552,
      "icul": 3553,
      "ety": 3554,
      "Ġrain": 3555,
      "Ġrare": 3556,
      "uter": 3557,
      "tern": 3558,
      "Ġship": 3559,
      "thr": 3560,
      "ooking": 3561,
      "une": 3562,
      "Ġcomfort": 3563,
      "Ġsever": 3564,
      "Ġplaces": 3565,
      "Ġweather": 3566,
      "Ġoffer": 3567,
      "Ġjustin": 3568,
      "Ġfinish": 3569,
      "Ġdise": 3570,
      "Ġmarco": 3571,
      "Ġappl": 3572,
      "Ġagent": 3573,
      "Ġwarn": 3574,
      "apping": 3575,
      "Ġthrow": 3576,
      "Ġ2018": 3577,
      "Ġanymore": 3578,
      "Ġminor": 3579,
      "Ġturning": 3580,
      "Ġrefuses": 3581,
      "Ġzucker": 3582,
      "Ġchristie": 3583,
      "Ġdogs": 3584,
      "Ġlegend": 3585,
      "Ġitself": 3586,
      "Ġpatient": 3587,
      "Ġhorse": 3588,
      "Ġlisten": 3589,
      "Ġsubway": 3590,
      "Ġimmigrant": 3591,
      "Ġmagical": 3592,
      "Ġinstagram": 3593,
      "Ġmodel": 3594,
      "Ġstrip": 3595,
      "Ġspeaks": 3596,
      "Ġchanges": 3597,
      "Ġproject": 3598,
      "Ġincrease": 3599,
      "Ġstories": 3600,
      "Ġpregnancy": 3601,
      "Ġarchives": 3602,
      "Ġlawyer": 3603,
      "Ġairlines": 3604,
      "Ġobsess": 3605,
      "Ġfocus": 3606,
      "Ġsuddenly": 3607,
      "Ġinsurance": 3608,
      "Ġsarah": 3609,
      "aug": 3610,
      "boy": 3611,
      "dam": 3612,
      "house": 3613,
      "mo": 3614,
      "py": 3615,
      "vin": 3616,
      "instein": 3617,
      "Ġach": 3618,
      "Ġsets": 3619,
      "Ġcell": 3620,
      "anks": 3621,
      "Ġwake": 3622,
      "Ġfresh": 3623,
      "Ġber": 3624,
      "Ġpac": 3625,
      "Ġhy": 3626,
      "Ġhuck": 3627,
      "alian": 3628,
      "Ġloud": 3629,
      "Ġnovel": 3630,
      "Ġine": 3631,
      "Ġtheory": 3632,
      "Ġstupid": 3633,
      "Ġrh": 3634,
      "lyn": 3635,
      "iger": 3636,
      "aks": 3637,
      "Ġfrance": 3638,
      "ung": 3639,
      "ighter": 3640,
      "Ġasian": 3641,
      "abee": 3642,
      "aret": 3643,
      "Ġoutr": 3644,
      "Ġplant": 3645,
      "ague": 3646,
      "Ġupcoming": 3647,
      "Ġintellig": 3648,
      "Ġdish": 3649,
      "Ġdrink": 3650,
      "Ġphys": 3651,
      "ibly": 3652,
      "ooth": 3653,
      "Ġdecides": 3654,
      "ances": 3655,
      "Ġ45": 3656,
      "Ġwriting": 3657,
      "Ġwriter": 3658,
      "Ġprotests": 3659,
      "Ġinvol": 3660,
      "Ġholds": 3661,
      "Ġbarb": 3662,
      "Ġwinning": 3663,
      "Ġwanted": 3664,
      "Ġmember": 3665,
      "Ġreleased": 3666,
      "Ġexcl": 3667,
      "uction": 3668,
      "box": 3669,
      "Ġthreatens": 3670,
      "Ġcomplete": 3671,
      "Ġhurt": 3672,
      "Ġloves": 3673,
      "Ġlgbtq": 3674,
      "Ġrecommend": 3675,
      "Ġcharlott": 3676,
      "Ġcontroversial": 3677,
      "Ġnobody": 3678,
      "Ġsurvivors": 3679,
      "Ġslowly": 3680,
      "Ġroundup": 3681,
      "Ġcredit": 3682,
      "Ġmcconnell": 3683,
      "Ġjohnson": 3684,
      "Ġhuckabee": 3685,
      "**": 3686,
      "do": 3687,
      "girl": 3688,
      "list": 3689,
      "pan": 3690,
      "Ġtor": 3691,
      "Ġten": 3692,
      "Ġtit": 3693,
      "Ġtren": 3694,
      "Ġsanta": 3695,
      "real": 3696,
      "Ġbas": 3697,
      "Ġmo": 3698,
      "Ġpun": 3699,
      "Ġpants": 3700,
      "Ġdick": 3701,
      "aries": 3702,
      "isher": 3703,
      "ito": 3704,
      "outs": 3705,
      "Ġinaug": 3706,
      "ett": 3707,
      "Ġstation": 3708,
      "Ġstone": 3709,
      "iding": 3710,
      "Ġford": 3711,
      "Ġtruck": 3712,
      "ches": 3713,
      "Ġvers": 3714,
      "ither": 3715,
      "Ġisland": 3716,
      "resent": 3717,
      "Ġalone": 3718,
      "ivity": 3719,
      "aped": 3720,
      "Ġaband": 3721,
      "Ġcrazy": 3722,
      "Ġgrammy": 3723,
      "Ġnote": 3724,
      "Ġ21": 3725,
      "oving": 3726,
      "Ġarm": 3727,
      "epend": 3728,
      "ogn": 3729,
      "agement": 3730,
      "Ġmeal": 3731,
      "rying": 3732,
      "Ġguests": 3733,
      "Ġcars": 3734,
      "Ġschumer": 3735,
      "Ġcalling": 3736,
      "Ġplanning": 3737,
      "Ġaccus": 3738,
      "Ġparking": 3739,
      "Ġheard": 3740,
      "Ġrelie": 3741,
      "Ġdebt": 3742,
      "Ġrefle": 3743,
      "Ġtook": 3744,
      "Ġboeh": 3745,
      "Ġhappen": 3746,
      "Ġothers": 3747,
      "Ġcelebrity": 3748,
      "Ġmcdonald": 3749,
      "Ġfailed": 3750,
      "Ġfailure": 3751,
      "anka": 3752,
      "Ġmarried": 3753,
      "Ġinternational": 3754,
      "Ġnetwork": 3755,
      "Ġstanding": 3756,
      "Ġlosing": 3757,
      "Ġforever": 3758,
      "Ġ199": 3759,
      "Ġmodern": 3760,
      "Ġviral": 3761,
      "Ġsitting": 3762,
      "Ġdiscovered": 3763,
      "Ġtreatment": 3764,
      "Ġcontinue": 3765,
      "Ġfourth": 3766,
      "Ġfigures": 3767,
      "Ġauthorities": 3768,
      "Ġfestival": 3769,
      "Ġexactly": 3770,
      "Ġtelevision": 3771,
      "Ġimmediately": 3772,
      "Ġzuckerberg": 3773,
      "Ġboehner": 3774,
      "dom": 3775,
      "free": 3776,
      "gia": 3777,
      "me": 3778,
      "mit": 3779,
      "pa": 3780,
      "paren": 3781,
      "ris": 3782,
      "ray": 3783,
      "vor": 3784,
      "ze": 3785,
      "Ġtast": 3786,
      "Ġsens": 3787,
      "Ġcart": 3788,
      "Ġfal": 3789,
      "Ġbin": 3790,
      "Ġbare": 3791,
      "esome": 3792,
      "Ġmort": 3793,
      "Ġmitch": 3794,
      "Ġmaster": 3795,
      "Ġpaid": 3796,
      "Ġhat": 3797,
      "Ġder": 3798,
      "Ġdump": 3799,
      "Ġdumb": 3800,
      "Ġdistr": 3801,
      "Ġlam": 3802,
      "Ġlack": 3803,
      "Ġlower": 3804,
      "Ġnav": 3805,
      "Ġgall": 3806,
      "Ġrej": 3807,
      "Ġtheater": 3808,
      "etime": 3809,
      "acle": 3810,
      "otes": 3811,
      "Ġrog": 3812,
      "utr": 3813,
      "Ġjong": 3814,
      "change": 3815,
      "Ġdear": 3816,
      "Ġprin": 3817,
      "Ġwithin": 3818,
      "ifies": 3819,
      "Ġnewly": 3820,
      "Ġalab": 3821,
      "Ġheaven": 3822,
      "Ġunl": 3823,
      "Ġcry": 3824,
      "Ġcrush": 3825,
      "Ġgrowing": 3826,
      "Ġoffering": 3827,
      "Ġallows": 3828,
      "Ġmeas": 3829,
      "Ġguard": 3830,
      "Ġuser": 3831,
      "Ġnoah": 3832,
      "ibility": 3833,
      "itten": 3834,
      "Ġsurge": 3835,
      "Ġmillenn": 3836,
      "Ġconflic": 3837,
      "Ġindia": 3838,
      "Ġhelps": 3839,
      "Ġnewsp": 3840,
      "Ġeditor": 3841,
      "itional": 3842,
      "Ġsinger": 3843,
      "Ġheads": 3844,
      "Ġsoccer": 3845,
      "anna": 3846,
      "Ġpolls": 3847,
      "Ġcreated": 3848,
      "Ġsweat": 3849,
      "Ġracism": 3850,
      "Ġstrike": 3851,
      "Ġuniverse": 3852,
      "Ġrepeated": 3853,
      "Ġattempts": 3854,
      "Ġchanging": 3855,
      "Ġmisc": 3856,
      "Ġsafe": 3857,
      "Ġteachers": 3858,
      "Ġmuslims": 3859,
      "Ġtrevor": 3860,
      "Ġdouble": 3861,
      "Ġdisappointed": 3862,
      "Ġdomestic": 3863,
      "Ġidiot": 3864,
      "Ġdeclares": 3865,
      "Ġrecipes": 3866,
      "Ġveteran": 3867,
      "Ġicon": 3868,
      "Ġiphone": 3869,
      "Ġfaith": 3870,
      "Ġweapons": 3871,
      "Ġemergency": 3872,
      "Ġnominee": 3873,
      "Ġfrustrated": 3874,
      "Ġcatholic": 3875,
      "Ġchannel": 3876,
      "Ġempty": 3877,
      "Ġalabama": 3878,
      "!'": 3879,
      "ban": 3880,
      "fer": 3881,
      "rimin": 3882,
      "ini": 3883,
      "Ġastr": 3884,
      "Ġsort": 3885,
      "Ġsell": 3886,
      "Ġcause": 3887,
      "Ġcuts": 3888,
      "Ġful": 3889,
      "Ġbuff": 3890,
      "Ġmour": 3891,
      "Ġpup": 3892,
      "acing": 3893,
      "Ġeas": 3894,
      "Ġegg": 3895,
      "Ġrate": 3896,
      "Ġrnc": 3897,
      "Ġforget": 3898,
      "ador": 3899,
      "Ġwhate": 3900,
      "Ġneg": 3901,
      "Ġkate": 3902,
      "Ġchoice": 3903,
      "ched": 3904,
      "Ġshocked": 3905,
      "tha": 3906,
      "Ġpray": 3907,
      "Ġprice": 3908,
      "Ġash": 3909,
      "agon": 3910,
      "Ġlevel": 3911,
      "Ġblast": 3912,
      "Ġblock": 3913,
      "Ġtext": 3914,
      "Ġyourself": 3915,
      "Ġembr": 3916,
      "Ġpresent": 3917,
      "Ġcontent": 3918,
      "Ġannual": 3919,
      "Ġexpos": 3920,
      "Ġsense": 3921,
      "Ġparenthood": 3922,
      "Ġcoach": 3923,
      "Ġbannon": 3924,
      "Ġdebuts": 3925,
      "Ġruns": 3926,
      "Ġzoo": 3927,
      "Ġmemo": 3928,
      "Ġdeliver": 3929,
      "Ġbreakfast": 3930,
      "Ġsociety": 3931,
      "grade": 3932,
      "Ġgreatest": 3933,
      "Ġregul": 3934,
      "Ġgroups": 3935,
      "Ġinstead": 3936,
      "Ġcostume": 3937,
      "Ġcritics": 3938,
      "Ġsilence": 3939,
      "Ġnomin": 3940,
      "Ġdenies": 3941,
      "Ġsafety": 3942,
      "Ġcoworkers": 3943,
      "Ġrecommends": 3944,
      "Ġcurrently": 3945,
      "Ġcomedy": 3946,
      "Ġchallenge": 3947,
      "Ġexha": 3948,
      "Ġallegedly": 3949,
      "Ġmemorial": 3950,
      "Ġpassengers": 3951,
      "Ġgerman": 3952,
      "Ġrico": 3953,
      "Ġclothes": 3954,
      "Ġmasturb": 3955,
      "olutely": 3956,
      "Ġdiversity": 3957,
      "Ġasshole": 3958,
      "Ġherself": 3959,
      "Ġabandon": 3960,
      "Ġrelieved": 3961,
      "Ġwhatever": 3962,
      "10": 3963,
      "face": 3964,
      "gth": 3965,
      "ror": 3966,
      "video": 3967,
      "Ġtues": 3968,
      "Ġfine": 3969,
      "Ġbiz": 3970,
      "Ġborn": 3971,
      "Ġpers": 3972,
      "Ġpays": 3973,
      "Ġpiss": 3974,
      "Ġdol": 3975,
      "Ġdun": 3976,
      "Ġthen": 3977,
      "iti": 3978,
      "Ġlie": 3979,
      "Ġlog": 3980,
      "Ġliter": 3981,
      "Ġnurs": 3982,
      "Ġnaked": 3983,
      "Ġgh": 3984,
      "Ġgi": 3985,
      "Ġgender": 3986,
      "Ġrestr": 3987,
      "Ġthems": 3988,
      "Ġeaster": 3989,
      "Ġrum": 3990,
      "Ġrip": 3991,
      "Ġraid": 3992,
      "igan": 3993,
      "Ġtro": 3994,
      "Ġtroll": 3995,
      "Ġjay": 3996,
      "Ġjoy": 3997,
      "Ġyes": 3998,
      "Ġkat": 3999,
      "Ġkiss": 4000,
      "Ġkitch": 4001,
      "Ġalong": 4002,
      "apher": 4003,
      "Ġabr": 4004,
      "Ġcomb": 4005,
      "Ġlee": 4006,
      "quality": 4007,
      "Ġweb": 4008,
      "Ġweak": 4009,
      "play": 4010,
      "Ġdisaster": 4011,
      "Ġdrinking": 4012,
      "ension": 4013,
      "Ġflu": 4014,
      "apper": 4015,
      "Ġperform": 4016,
      "Ġawesome": 4017,
      "portation": 4018,
      "Ġrealize": 4019,
      "Ġdecades": 4020,
      "Ġsenior": 4021,
      "Ġparenting": 4022,
      "orney": 4023,
      "Ġserious": 4024,
      "Ġcomputer": 4025,
      "Ġcharges": 4026,
      "Ġconference": 4027,
      "Ġindepend": 4028,
      "Ġconsid": 4029,
      "Ġconsum": 4030,
      "Ġdefin": 4031,
      "Ġrefer": 4032,
      "Ġdepressed": 4033,
      "Ġbusy": 4034,
      "Ġshooter": 4035,
      "anye": 4036,
      "Ġburger": 4037,
      "cohol": 4038,
      "Ġvictim": 4039,
      "Ġchanged": 4040,
      "Ġsunday": 4041,
      "Ġshutdown": 4042,
      "break": 4043,
      "Ġradio": 4044,
      "Ġreplace": 4045,
      "Ġfunniest": 4046,
      "Ġivanka": 4047,
      "Ġcancel": 4048,
      "Ġhawai": 4049,
      "Ġthemselves": 4050,
      "60": 4051,
      "80": 4052,
      "gas": 4053,
      "hear": 4054,
      "hold": 4055,
      "ih": 4056,
      "iation": 4057,
      "ker": 4058,
      "ring": 4059,
      "set": 4060,
      "xual": 4061,
      "Ġty": 4062,
      "Ġtank": 4063,
      "Ġsor": 4064,
      "ona": 4065,
      "Ġbon": 4066,
      "Ġbunch": 4067,
      "Ġmat": 4068,
      "Ġmall": 4069,
      "Ġpage": 4070,
      "Ġdu": 4071,
      "Ġoce": 4072,
      "arp": 4073,
      "icer": 4074,
      "Ġgam": 4075,
      "Ġgap": 4076,
      "asc": 4077,
      "Ġstamp": 4078,
      "Ġrout": 4079,
      "idays": 4080,
      "Ġanger": 4081,
      "lying": 4082,
      "Ġtrash": 4083,
      "Ġkush": 4084,
      "Ġkanye": 4085,
      "Ġchec": 4086,
      "Ġchap": 4087,
      "Ġchem": 4088,
      "Ġshel": 4089,
      "Ġshower": 4090,
      "Ġvice": 4091,
      "Ġpride": 4092,
      "Ġfraud": 4093,
      "unity": 4094,
      "Ġalcohol": 4095,
      "ived": 4096,
      "Ġunp": 4097,
      "Ġbraz": 4098,
      "Ġblow": 4099,
      "Ġmeets": 4100,
      "aware": 4101,
      "Ġemer": 4102,
      "Ġattention": 4103,
      "Ġattorney": 4104,
      "Ġsecrets": 4105,
      "Ġperry": 4106,
      "Ġrealizing": 4107,
      "Ġinsists": 4108,
      "Ġcampus": 4109,
      "Ġhealthcare": 4110,
      "Ġhigher": 4111,
      "Ġcharged": 4112,
      "Ġfuneral": 4113,
      "Ġholidays": 4114,
      "Ġhelped": 4115,
      "Ġmissile": 4116,
      "Ġsky": 4117,
      "Ġthroughout": 4118,
      "Ġowners": 4119,
      "oft": 4120,
      "Ġvision": 4121,
      "Ġvisiting": 4122,
      "Ġmemory": 4123,
      "Ġdemocracy": 4124,
      "Ġarticle": 4125,
      "Ġterrified": 4126,
      "Ġfalls": 4127,
      "Ġthreats": 4128,
      "okes": 4129,
      "Ġhonors": 4130,
      "Ġcrew": 4131,
      "Ġpeter": 4132,
      "Ġgeorgia": 4133,
      "Ġproves": 4134,
      "Ġera": 4135,
      "Ġruling": 4136,
      "Ġnomination": 4137,
      "Ġconcert": 4138,
      "Ġboost": 4139,
      "Ġrule": 4140,
      "Ġisraeli": 4141,
      "Ġjackson": 4142,
      "Ġinjured": 4143,
      "Ġolympics": 4144,
      "Ġjournalist": 4145,
      "Ġmotor": 4146,
      "Ġportra": 4147,
      "Ġnba": 4148,
      "Ġafrican": 4149,
      "Ġpiece": 4150,
      "Ġappearance": 4151,
      "Ġstrategy": 4152,
      "Ġspirit": 4153,
      "Ġdisease": 4154,
      "Ġkitchen": 4155,
      "Ġkushner": 4156,
      "aire": 4157,
      "bed": 4158,
      "gre": 4159,
      "ki": 4160,
      "law": 4161,
      "ses": 4162,
      "school": 4163,
      "wal": 4164,
      "ya": 4165,
      "Ġtears": 4166,
      "Ġtiny": 4167,
      "Ġsale": 4168,
      "Ġwid": 4169,
      "Ġwine": 4170,
      "ingly": 4171,
      "Ġbit": 4172,
      "Ġbri": 4173,
      "Ġbask": 4174,
      "Ġmand": 4175,
      "Ġmary": 4176,
      "Ġmeth": 4177,
      "Ġpit": 4178,
      "Ġpip": 4179,
      "Ġpicks": 4180,
      "Ġhous": 4181,
      "Ġdar": 4182,
      "Ġocc": 4183,
      "Ġnude": 4184,
      "icip": 4185,
      "Ġinstruct": 4186,
      "Ġgone": 4187,
      "ilities": 4188,
      "elt": 4189,
      "Ġstew": 4190,
      "idden": 4191,
      "idency": 4192,
      "Ġut": 4193,
      "Ġanc": 4194,
      "igen": 4195,
      "Ġtraff": 4196,
      "Ġtraining": 4197,
      "ading": 4198,
      "Ġjared": 4199,
      "uration": 4200,
      "irty": 4201,
      "illion": 4202,
      "Ġchen": 4203,
      "Ġchoo": 4204,
      "Ġvs": 4205,
      "Ġvill": 4206,
      "Ġprize": 4207,
      "abs": 4208,
      "abor": 4209,
      "Ġseem": 4210,
      "astr": 4211,
      "Ġweigh": 4212,
      "Ġbrut": 4213,
      "Ġbroken": 4214,
      "ube": 4215,
      "Ġarmy": 4216,
      "ept": 4217,
      "Ġmeg": 4218,
      "Ġlikes": 4219,
      "Ġagree": 4220,
      "Ġrecogn": 4221,
      "Ġfeet": 4222,
      "Ġcontest": 4223,
      "azz": 4224,
      "Ġreminder": 4225,
      "Ġbreast": 4226,
      "onduct": 4227,
      "Ġcouldn": 4228,
      "Ġheld": 4229,
      "Ġstarts": 4230,
      "Ġcohen": 4231,
      "Ġdefe": 4232,
      "Ġdefend": 4233,
      "Ġplayers": 4234,
      "Ġappe": 4235,
      "Ġbuying": 4236,
      "Ġ90": 4237,
      "Ġstops": 4238,
      "Ġcouples": 4239,
      "Ġnormal": 4240,
      "Ġfiref": 4241,
      "Ġdelivers": 4242,
      "Ġexplos": 4243,
      "ground": 4244,
      "ographer": 4245,
      "Ġcapital": 4246,
      "Ġbehav": 4247,
      "Ġvictory": 4248,
      "ika": 4249,
      "Ġlatin": 4250,
      "Ġsurprising": 4251,
      "Ġfreak": 4252,
      "Ġkimmel": 4253,
      "Ġsilver": 4254,
      "Ġfootage": 4255,
      "Ġjourney": 4256,
      "Ġlarge": 4257,
      "Ġeconomic": 4258,
      "Ġhorrified": 4259,
      "Ġfigure": 4260,
      "Ġjournalists": 4261,
      "Ġmelania": 4262,
      "Ġcurrent": 4263,
      "Ġabsolutely": 4264,
      "Ġcorporate": 4265,
      "Ġcirc": 4266,
      "Ġconstitution": 4267,
      "Ġdisgusting": 4268,
      "grader": 4269,
      "Ġfeatures": 4270,
      "Ġcriminal": 4271,
      "Ġsessions": 4272,
      "Ġachie": 4273,
      "Ġinequality": 4274,
      "Ġintelligence": 4275,
      "Ġmisconduct": 4276,
      "Ġtuesday": 4277,
      "Ġbizarre": 4278,
      "Ġgiulian": 4279,
      "ae": 4280,
      "body": 4281,
      "cil": 4282,
      "cons": 4283,
      "hop": 4284,
      "hour": 4285,
      "iers": 4286,
      "ique": 4287,
      "oices": 4288,
      "pers": 4289,
      "pir": 4290,
      "rich": 4291,
      "Ġell": 4292,
      "Ġille": 4293,
      "erate": 4294,
      "onom": 4295,
      "Ġcake": 4296,
      "Ġcream": 4297,
      "Ġfet": 4298,
      "Ġmr": 4299,
      "Ġtoil": 4300,
      "Ġlu": 4301,
      "Ġlies": 4302,
      "Ġgor": 4303,
      "eld": 4304,
      "eline": 4305,
      "owers": 4306,
      "otic": 4307,
      "Ġrud": 4308,
      "Ġtrust": 4309,
      "Ġtried": 4310,
      "Ġjer": 4311,
      "Ġjury": 4312,
      "Ġkansas": 4313,
      "Ġfrant": 4314,
      "emen": 4315,
      "Ġitems": 4316,
      "Ġrepresent": 4317,
      "arters": 4318,
      "Ġlev": 4319,
      "obb": 4320,
      "Ġacce": 4321,
      "Ġcrimes": 4322,
      "Ġadop": 4323,
      "Ġ23": 4324,
      "Ġblame": 4325,
      "Ġblasts": 4326,
      "place": 4327,
      "Ġdrone": 4328,
      "icked": 4329,
      "Ġresist": 4330,
      "Ġimage": 4331,
      "Ġstudio": 4332,
      "Ġprescri": 4333,
      "Ġwarm": 4334,
      "Ġfeature": 4335,
      "Ġcontain": 4336,
      "Ġjoke": 4337,
      "itty": 4338,
      "Ġfamous": 4339,
      "Ġslight": 4340,
      "Ġdescri": 4341,
      "Ġtale": 4342,
      "Ġwouldn": 4343,
      "Ġassist": 4344,
      "Ġwrite": 4345,
      "ahu": 4346,
      "aham": 4347,
      "Ġbarack": 4348,
      "otted": 4349,
      "Ġvisits": 4350,
      "Ġcontract": 4351,
      "Ġburning": 4352,
      "Ġcelebrities": 4353,
      "Ġrevolution": 4354,
      "Ġfailing": 4355,
      "Ġclassic": 4356,
      "Ġviolent": 4357,
      "Ġvalue": 4358,
      "Ġraises": 4359,
      "Ġdrops": 4360,
      "Ġviewers": 4361,
      "Ġtotal": 4362,
      "Ġhistoric": 4363,
      "Ġcamera": 4364,
      "Ġpulls": 4365,
      "Ġequality": 4366,
      "Ġunsure": 4367,
      "ophob": 4368,
      "Ġmatters": 4369,
      "Ġdomin": 4370,
      "Ġlifetime": 4371,
      "Ġtechnology": 4372,
      "Ġwaste": 4373,
      "Ġsaved": 4374,
      "Ġbeginning": 4375,
      "themed": 4376,
      "Ġbaseball": 4377,
      "Ġattract": 4378,
      "Ġcreepy": 4379,
      "Ġgifts": 4380,
      "Ġtribute": 4381,
      "Ġtonight": 4382,
      "Ġopinion": 4383,
      "Ġcabinet": 4384,
      "Ġprosecut": 4385,
      "Ġsplit": 4386,
      "Ġinauguration": 4387,
      "Ġnewspaper": 4388,
      "Ġexhausted": 4389,
      "Ġstewart": 4390,
      "Ġgiuliani": 4391,
      "15": 4392,
      "can": 4393,
      "fe": 4394,
      "father": 4395,
      "ios": 4396,
      "iels": 4397,
      "met": 4398,
      "och": 4399,
      "overy": 4400,
      "pson": 4401,
      "roll": 4402,
      "uing": 4403,
      "inary": 4404,
      "Ġtel": 4405,
      "Ġtip": 4406,
      "Ġsection": 4407,
      "Ġcock": 4408,
      "anch": 4409,
      "Ġbat": 4410,
      "Ġpil": 4411,
      "Ġhamp": 4412,
      "itely": 4413,
      "Ġlay": 4414,
      "Ġlands": 4415,
      "Ġlater": 4416,
      "Ġgaz": 4417,
      "oma": 4418,
      "ston": 4419,
      "stone": 4420,
      "Ġros": 4421,
      "Ġrising": 4422,
      "igaret": 4423,
      "ads": 4424,
      "uments": 4425,
      "Ġyog": 4426,
      "Ġchamp": 4427,
      "Ġprime": 4428,
      "Ġprove": 4429,
      "Ġunex": 4430,
      "Ġunaware": 4431,
      "Ġable": 4432,
      "employ": 4433,
      "Ġspread": 4434,
      "Ġexerc": 4435,
      "Ġexchange": 4436,
      "Ġclar": 4437,
      "Ġsepar": 4438,
      "Ġplastic": 4439,
      "quarters": 4440,
      "Ġwealth": 4441,
      "ellow": 4442,
      "Ġadam": 4443,
      "Ġblind": 4444,
      "Ġscar": 4445,
      "Ġpolic": 4446,
      "Ġmars": 4447,
      "Ġobv": 4448,
      "Ġrecent": 4449,
      "Ġflood": 4450,
      "Ġremem": 4451,
      "ollster": 4452,
      "shire": 4453,
      "insp": 4454,
      "Ġbutter": 4455,
      "Ġincident": 4456,
      "Ġcompan": 4457,
      "airs": 4458,
      "Ġcooper": 4459,
      "Ġminister": 4460,
      "ologist": 4461,
      "otten": 4462,
      "Ġadmit": 4463,
      "Ġlegacy": 4464,
      "Ġheadquarters": 4465,
      "Ġkeeping": 4466,
      "Ġadvoc": 4467,
      "Ġregret": 4468,
      "Ġexperiment": 4469,
      "ledge": 4470,
      "Ġcountries": 4471,
      "Ġroommate": 4472,
      "Ġfalling": 4473,
      "Ġcreator": 4474,
      "Ġhung": 4475,
      "Ġlatino": 4476,
      "Ġkorean": 4477,
      "Ġcouncil": 4478,
      "Ġleadership": 4479,
      "black": 4480,
      "Ġvacc": 4481,
      "Ġhuffpollster": 4482,
      "Ġpotential": 4483,
      "Ġsentence": 4484,
      "Ġsongs": 4485,
      "Ġprepares": 4486,
      "Ġanimal": 4487,
      "ography": 4488,
      "Ġstatue": 4489,
      "Ġrichard": 4490,
      "Ġmeaning": 4491,
      "Ġrescue": 4492,
      "Ġresigns": 4493,
      "Ġconservative": 4494,
      "Ġconservatives": 4495,
      "Ġbeyond": 4496,
      "Ġlawyers": 4497,
      "Ġcontroversy": 4498,
      "Ġgeneration": 4499,
      "Ġnbc": 4500,
      "Ġmicr": 4501,
      "Ġconnect": 4502,
      "ĠâĢĶ": 4503,
      "Ġdigital": 4504,
      "Ġbenefits": 4505,
      "Ġlegislation": 4506,
      "Ġukr": 4507,
      "Ġanxiety": 4508,
      "Ġcorden": 4509,
      "Ġincreasingly": 4510,
      "Ġhawaii": 4511,
      "Ġbrazil": 4512,
      "Ġcheney": 4513,
      "cut": 4514,
      "har": 4515,
      "iod": 4516,
      "oil": 4517,
      "right": 4518,
      "uly": 4519,
      "wom": 4520,
      "erts": 4521,
      "Ġsaw": 4522,
      "Ġselling": 4523,
      "Ġwage": 4524,
      "Ġwolf": 4525,
      "Ġfield": 4526,
      "orrow": 4527,
      "Ġboom": 4528,
      "Ġbik": 4529,
      "Ġpin": 4530,
      "Ġpap": 4531,
      "itzer": 4532,
      "Ġlon": 4533,
      "Ġlyn": 4534,
      "Ġgag": 4535,
      "Ġgather": 4536,
      "Ġstick": 4537,
      "Ġeither": 4538,
      "Ġanaly": 4539,
      "Ġones": 4540,
      "Ġjess": 4541,
      "Ġsher": 4542,
      "oping": 4543,
      "thy": 4544,
      "emic": 4545,
      "Ġspoof": 4546,
      "Ġspotted": 4547,
      "Ġseat": 4548,
      "Ġseek": 4549,
      "Ġamy": 4550,
      "Ġweinstein": 4551,
      "oston": 4552,
      "Ġbrad": 4553,
      "Ġadult": 4554,
      "Ġadvert": 4555,
      "Ġ24": 4556,
      "oval": 4557,
      "ogue": 4558,
      "Ġimpl": 4559,
      "Ġpresidency": 4560,
      "Ġcarson": 4561,
      "Ġopport": 4562,
      "Ġperiod": 4563,
      "Ġactual": 4564,
      "acters": 4565,
      "azi": 4566,
      "Ġdemon": 4567,
      "prof": 4568,
      "Ġremain": 4569,
      "onders": 4570,
      "Ġdecide": 4571,
      "osexual": 4572,
      "Ġneeded": 4573,
      "Ġseriously": 4574,
      "Ġcharity": 4575,
      "Ġcharacters": 4576,
      "Ġcoast": 4577,
      "Ġsym": 4578,
      "Ġmeditation": 4579,
      "Ġmusical": 4580,
      "Ġminute": 4581,
      "Ġspeaking": 4582,
      "Ġunderstand": 4583,
      "Ġdiscrimin": 4584,
      "Ġskills": 4585,
      "Ġposter": 4586,
      "Ġmiles": 4587,
      "Ġpatr": 4588,
      "Ġterrifying": 4589,
      "onym": 4590,
      "Ġpopulation": 4591,
      "Ġcreating": 4592,
      "Ġmagic": 4593,
      "Ġemails": 4594,
      "Ġcentury": 4595,
      "Ġcosts": 4596,
      "Ġstrikes": 4597,
      "Ġstruggle": 4598,
      "Ġdrugs": 4599,
      "Ġterrorism": 4600,
      "Ġstorm": 4601,
      "Ġrolls": 4602,
      "Ġapproves": 4603,
      "Ġposition": 4604,
      "Ġcolorado": 4605,
      "Ġescape": 4606,
      "struction": 4607,
      "Ġquickly": 4608,
      "Ġwelcome": 4609,
      "Ġanswer": 4610,
      "Ġmysterious": 4611,
      "Ġbroadway": 4612,
      "Ġfantasy": 4613,
      "Ġultimate": 4614,
      "Ġexclusive": 4615,
      "Ġprincess": 4616,
      "Ġhampshire": 4617,
      "bon": 4618,
      "bian": 4619,
      "gay": 4620,
      "hum": 4621,
      "iere": 4622,
      "long": 4623,
      "mine": 4624,
      "mark": 4625,
      "oking": 4626,
      "pound": 4627,
      "yard": 4628,
      "Ġing": 4629,
      "Ġtill": 4630,
      "Ġtun": 4631,
      "Ġtack": 4632,
      "Ġties": 4633,
      "Ġtatt": 4634,
      "Ġtony": 4635,
      "Ġtape": 4636,
      "Ġsin": 4637,
      "Ġsight": 4638,
      "Ġsister": 4639,
      "Ġsounds": 4640,
      "rect": 4641,
      "Ġcorn": 4642,
      "Ġcases": 4643,
      "Ġfears": 4644,
      "Ġfires": 4645,
      "Ġfinger": 4646,
      "Ġfisher": 4647,
      "ords": 4648,
      "Ġble": 4649,
      "Ġbond": 4650,
      "Ġboth": 4651,
      "Ġboston": 4652,
      "Ġmail": 4653,
      "Ġpent": 4654,
      "Ġpounds": 4655,
      "Ġhiv": 4656,
      "Ġhide": 4657,
      "ato": 4658,
      "Ġdak": 4659,
      "Ġdressed": 4660,
      "Ġtool": 4661,
      "Ġtough": 4662,
      "eds": 4663,
      "Ġlines": 4664,
      "icit": 4665,
      "Ġinmates": 4666,
      "Ġgps": 4667,
      "etch": 4668,
      "aco": 4669,
      "Ġron": 4670,
      "Ġrod": 4671,
      "Ġrose": 4672,
      "ented": 4673,
      "ecess": 4674,
      "Ġyemen": 4675,
      "Ġkyl": 4676,
      "ander": 4677,
      "Ġunf": 4678,
      "oret": 4679,
      "Ġspicer": 4680,
      "Ġclim": 4681,
      "Ġseems": 4682,
      "odies": 4683,
      "Ġgraham": 4684,
      "Ġbrothers": 4685,
      "Ġblames": 4686,
      "ressing": 4687,
      "Ġorland": 4688,
      "Ġcards": 4689,
      "Ġknew": 4690,
      "Ġoppos": 4691,
      "issy": 4692,
      "Ġpartner": 4693,
      "Ġremains": 4694,
      "Ġsole": 4695,
      "Ġsexist": 4696,
      "Ġchrissy": 4697,
      "Ġparade": 4698,
      "Ġconspir": 4699,
      "Ġdeput": 4700,
      "Ġ70": 4701,
      "Ġboat": 4702,
      "Ġkevin": 4703,
      "Ġofficers": 4704,
      "Ġpassing": 4705,
      "Ġartists": 4706,
      "anyahu": 4707,
      "Ġmichigan": 4708,
      "Ġimpression": 4709,
      "Ġexperi": 4710,
      "Ġpromot": 4711,
      "Ġpromise": 4712,
      "Ġurban": 4713,
      "Ġfoundation": 4714,
      "Ġepid": 4715,
      "Ġsettle": 4716,
      "Ġsolar": 4717,
      "Ġavail": 4718,
      "Ġpreviously": 4719,
      "inois": 4720,
      "Ġlargest": 4721,
      "Ġangry": 4722,
      "Ġdropped": 4723,
      "Ġcounter": 4724,
      "Ġinspires": 4725,
      "ruption": 4726,
      "Ġillinois": 4727,
      "Ġactivist": 4728,
      "Ġhorror": 4729,
      "Ġcamer": 4730,
      "Ġvegas": 4731,
      "ographic": 4732,
      "Ġflying": 4733,
      "Ġreaches": 4734,
      "Ġhaun": 4735,
      "Ġcuba": 4736,
      "Ġislamic": 4737,
      "Ġimprove": 4738,
      "Ġafrica": 4739,
      "Ġlinked": 4740,
      "Ġinformation": 4741,
      "Ġpremiere": 4742,
      "Ġpublish": 4743,
      "Ġembarrassed": 4744,
      "Ġlawmakers": 4745,
      "Ġscreaming": 4746,
      "Ġcondemns": 4747,
      "Ġtorture": 4748,
      "Ġyoga": 4749,
      "inspired": 4750,
      "Ġcompanies": 4751,
      "Ġorlando": 4752,
      "100": 4753,
      "col": 4754,
      "cover": 4755,
      "kel": 4756,
      "lers": 4757,
      "po": 4758,
      "ral": 4759,
      "sec": 4760,
      "uf": 4761,
      "uation": 4762,
      "wear": 4763,
      "word": 4764,
      "zen": 4765,
      "zona": 4766,
      "Ġsob": 4767,
      "Ġsuch": 4768,
      "Ġsaving": 4769,
      "Ġcd": 4770,
      "Ġcute": 4771,
      "Ġwire": 4772,
      "ories": 4773,
      "Ġbets": 4774,
      "Ġbored": 4775,
      "esville": 4776,
      "Ġmain": 4777,
      "Ġmob": 4778,
      "Ġmitt": 4779,
      "Ġpig": 4780,
      "Ġpump": 4781,
      "aron": 4782,
      "Ġtoy": 4783,
      "Ġlang": 4784,
      "Ġlights": 4785,
      "icult": 4786,
      "Ġgard": 4787,
      "eland": 4788,
      "sters": 4789,
      "oles": 4790,
      "Ġray": 4791,
      "aming": 4792,
      "Ġanch": 4793,
      "Ġtrick": 4794,
      "imum": 4795,
      "Ġprinc": 4796,
      "Ġyout": 4797,
      "Ġaltern": 4798,
      "ivid": 4799,
      "ustain": 4800,
      "ounder": 4801,
      "rip": 4802,
      "Ġamend": 4803,
      "agn": 4804,
      "Ġacting": 4805,
      "Ġcraw": 4806,
      "Ġ22": 4807,
      "Ġblog": 4808,
      "oyal": 4809,
      "Ġteigen": 4810,
      "Ġapart": 4811,
      "ached": 4812,
      "Ġsupp": 4813,
      "Ġquit": 4814,
      "ugs": 4815,
      "rength": 4816,
      "Ġjoin": 4817,
      "Ġactress": 4818,
      "Ġremove": 4819,
      "Ġwasn": 4820,
      "Ġsexually": 4821,
      "Ġsurr": 4822,
      "Ġsurve": 4823,
      "Ġsurger": 4824,
      "Ġassoc": 4825,
      "Ġstatement": 4826,
      "Ġturned": 4827,
      "Ġhumili": 4828,
      "Ġswim": 4829,
      "Ġswitch": 4830,
      "Ġhappiness": 4831,
      "Ġbuil": 4832,
      "Ġedge": 4833,
      "Ġofficially": 4834,
      "aft": 4835,
      "Ġfilms": 4836,
      "Ġrespect": 4837,
      "Ġdetro": 4838,
      "Ġdetails": 4839,
      "Ġhomes": 4840,
      "Ġhorrible": 4841,
      "Ġlistening": 4842,
      "Ġbusinesses": 4843,
      "Ġurge": 4844,
      "Ġcreative": 4845,
      "Ġthreatened": 4846,
      "Ġhandle": 4847,
      "Ġnetanyahu": 4848,
      "Ġinstit": 4849,
      "Ġcovered": 4850,
      "ylv": 4851,
      "Ġfollow": 4852,
      "Ġattempting": 4853,
      "âĢĶ": 4854,
      "Ġcauses": 4855,
      "Ġcloser": 4856,
      "Ġrenew": 4857,
      "rupt": 4858,
      "Ġplease": 4859,
      "Ġpotter": 4860,
      "Ġenglish": 4861,
      "Ġtreas": 4862,
      "Ġstaffers": 4863,
      "Ġequal": 4864,
      "Ġdesigner": 4865,
      "gypt": 4866,
      "month": 4867,
      "Ġbeyonc": 4868,
      "Ġfunny": 4869,
      "Ġargument": 4870,
      "Ġnatural": 4871,
      "Ġpurchase": 4872,
      "Ġexhib": 4873,
      "Ġtype": 4874,
      "Ġmystery": 4875,
      "Ġarizona": 4876,
      "Ġprogressive": 4877,
      "Ġannoyed": 4878,
      "Ġrandom": 4879,
      "Ġwheel": 4880,
      "Ġmolest": 4881,
      "Ġnervous": 4882,
      "Ġpalestinian": 4883,
      "Ġseveral": 4884,
      "Ġcharlottesville": 4885,
      "Ġconflict": 4886,
      "Ġrepeatedly": 4887,
      "Ġpersp": 4888,
      "Ġocean": 4889,
      "Ġbehavior": 4890,
      "Ġillegal": 4891,
      "Ġremembers": 4892,
      "Ġkylie": 4893,
      "Ġconspiracy": 4894,
      "Ġdetroit": 4895,
      "ĠbeyoncÃ©": 4896,
      "30": 4897,
      "bled": 4898,
      "ck": 4899,
      "die": 4900,
      "lgbt": 4901,
      "mission": 4902,
      "pected": 4903,
      "iner": 4904,
      "Ġtenn": 4905,
      "ero": 4906,
      "Ġath": 4907,
      "Ġaims": 4908,
      "Ġseth": 4909,
      "Ġsaves": 4910,
      "Ġsending": 4911,
      "Ġcous": 4912,
      "Ġcens": 4913,
      "Ġcigaret": 4914,
      "Ġwisc": 4915,
      "Ġfame": 4916,
      "Ġfool": 4917,
      "Ġbans": 4918,
      "Ġboring": 4919,
      "Ġmath": 4920,
      "encing": 4921,
      "Ġpic": 4922,
      "Ġpile": 4923,
      "atory": 4924,
      "Ġthough": 4925,
      "itude": 4926,
      "eda": 4927,
      "Ġled": 4928,
      "Ġlake": 4929,
      "Ġlaid": 4930,
      "Ġneck": 4931,
      "Ġgent": 4932,
      "Ġriver": 4933,
      "Ġtrag": 4934,
      "Ġtrapped": 4935,
      "Ġtruly": 4936,
      "uther": 4937,
      "umes": 4938,
      "urday": 4939,
      "irm": 4940,
      "Ġkend": 4941,
      "term": 4942,
      "Ġshad": 4943,
      "Ġshift": 4944,
      "Ġshark": 4945,
      "ther": 4946,
      "this": 4947,
      "Ġproof": 4948,
      "Ġanderson": 4949,
      "Ġunemploy": 4950,
      "ability": 4951,
      "ustin": 4952,
      "emy": 4953,
      "Ġcomment": 4954,
      "Ġaffect": 4955,
      "rier": 4956,
      "Ġamount": 4957,
      "Ġplays": 4958,
      "Ġupon": 4959,
      "Ġgrave": 4960,
      "Ġgross": 4961,
      "Ġscalia": 4962,
      "Ġdism": 4963,
      "Ġtea": 4964,
      "Ġmarvel": 4965,
      "away": 4966,
      "iana": 4967,
      "Ġemmy": 4968,
      "ounded": 4969,
      "ashed": 4970,
      "Ġquar": 4971,
      "Ġflavor": 4972,
      "Ġknown": 4973,
      "Ġcontact": 4974,
      "weight": 4975,
      "raid": 4976,
      "Ġjoins": 4977,
      "nsylv": 4978,
      "Ġexpand": 4979,
      "Ġexpert": 4980,
      "Ġexpected": 4981,
      "onsin": 4982,
      "Ġremaining": 4983,
      "Ġmoments": 4984,
      "Ġinterior": 4985,
      "shirt": 4986,
      "Ġslam": 4987,
      "Ġlawn": 4988,
      "Ġmiller": 4989,
      "Ġglad": 4990,
      "Ġbanks": 4991,
      "Ġbecame": 4992,
      "ological": 4993,
      "Ġtransform": 4994,
      "Ġendanger": 4995,
      "Ġmissed": 4996,
      "Ġearl": 4997,
      "Ġedition": 4998,
      "Ġshoots": 4999,
      "Ġdads": 5000,
      "Ġlooked": 5001,
      "Ġdelicious": 5002,
      "Ġburst": 5003,
      "Ġsne": 5004,
      "Ġdetail": 5005,
      "phone": 5006,
      "Ġstarted": 5007,
      "Ġcorner": 5008,
      "anny": 5009,
      "Ġcheap": 5010,
      "Ġaddiction": 5011,
      "Ġpopul": 5012,
      "Ġdevos": 5013,
      "Ġsummit": 5014,
      "Ġhonest": 5015,
      "Ġhonored": 5016,
      "Ġharder": 5017,
      "Ġloser": 5018,
      "Ġracial": 5019,
      "Ġprofile": 5020,
      "Ġpanicked": 5021,
      "Ġyounger": 5022,
      "Ġheroin": 5023,
      "Ġspeaker": 5024,
      "Ġesp": 5025,
      "Ġdavis": 5026,
      "Ġpenis": 5027,
      "Ġpennsylv": 5028,
      "Ġsuccessful": 5029,
      "Ġbombing": 5030,
      "Ġbringing": 5031,
      "Ġpositive": 5032,
      "Ġelections": 5033,
      "Ġsearching": 5034,
      "Ġenjoys": 5035,
      "Ġcriticism": 5036,
      "Ġfacts": 5037,
      "Ġmistakes": 5038,
      "Ġmistaken": 5039,
      "Ġbritish": 5040,
      "Ġokay": 5041,
      "Ġsoldier": 5042,
      "Ġdetermin": 5043,
      "Ġprogress": 5044,
      "Ġladen": 5045,
      "Ġsources": 5046,
      "Ġtrouble": 5047,
      "Ġpractice": 5048,
      "Ġpledges": 5049,
      "Ġoriginal": 5050,
      "Ġdancing": 5051,
      "Ġthomas": 5052,
      "Ġapplic": 5053,
      "Ġtitle": 5054,
      "Ġroger": 5055,
      "Ġliterally": 5056,
      "Ġtrolls": 5057,
      "Ġsorry": 5058,
      "Ġbasket": 5059,
      "Ġtraffic": 5060,
      "conscious": 5061,
      "Ġtoilet": 5062,
      "Ġfrantically": 5063,
      "Ġunexpected": 5064,
      "Ġopportunity": 5065,
      "Ġtattoo": 5066,
      "Ġdakota": 5067,
      "Ġepidemic": 5068,
      "Ġavailable": 5069,
      "Ġwisconsin": 5070,
      "aig": 5071,
      "bc": 5072,
      "bors": 5073,
      "bles": 5074,
      "egr": 5075,
      "fw": 5076,
      "fun": 5077,
      "foot": 5078,
      "gic": 5079,
      "ha": 5080,
      "like": 5081,
      "mus": 5082,
      "sar": 5083,
      "tur": 5084,
      "vent": 5085,
      "ware": 5086,
      "wards": 5087,
      "yers": 5088,
      "Ġtamp": 5089,
      "Ġtaco": 5090,
      "Ġaides": 5091,
      "Ġsac": 5092,
      "Ġsugg": 5093,
      "onna": 5094,
      "Ġcode": 5095,
      "Ġbot": 5096,
      "Ġboun": 5097,
      "Ġbold": 5098,
      "Ġbald": 5099,
      "Ġmut": 5100,
      "Ġmap": 5101,
      "Ġmothers": 5102,
      "ener": 5103,
      "Ġpy": 5104,
      "Ġped": 5105,
      "Ġhors": 5106,
      "aters": 5107,
      "Ġdue": 5108,
      "armed": 5109,
      "Ġlock": 5110,
      "Ġlinds": 5111,
      "Ġlocked": 5112,
      "Ġlena": 5113,
      "Ġlucky": 5114,
      "Ġloyal": 5115,
      "Ġnun": 5116,
      "Ġgum": 5117,
      "Ġgates": 5118,
      "oms": 5119,
      "Ġrex": 5120,
      "election": 5121,
      "lets": 5122,
      "acts": 5123,
      "Ġster": 5124,
      "Ġstream": 5125,
      "Ġstrength": 5126,
      "Ġegypt": 5127,
      "Ġram": 5128,
      "Ġrather": 5129,
      "Ġrips": 5130,
      "Ġrachel": 5131,
      "Ġug": 5132,
      "Ġanthem": 5133,
      "Ġanonym": 5134,
      "ersey": 5135,
      "umn": 5136,
      "Ġjos": 5137,
      "Ġjerry": 5138,
      "Ġjersey": 5139,
      "Ġneil": 5140,
      "Ġchip": 5141,
      "ching": 5142,
      "opol": 5143,
      "Ġpriest": 5144,
      "resp": 5145,
      "Ġalive": 5146,
      "Ġalert": 5147,
      "istry": 5148,
      "Ġheav": 5149,
      "ables": 5150,
      "empt": 5151,
      "Ġspan": 5152,
      "Ġoutbreak": 5153,
      "anted": 5154,
      "antic": 5155,
      "Ġplat": 5156,
      "Ġplot": 5157,
      "Ġplun": 5158,
      "Ġacad": 5159,
      "Ġweed": 5160,
      "Ġbright": 5161,
      "Ġbrought": 5162,
      "assador": 5163,
      "eph": 5164,
      "Ġscen": 5165,
      "Ġdisp": 5166,
      "Ġmarine": 5167,
      "iance": 5168,
      "Ġaging": 5169,
      "athy": 5170,
      "Ġrecords": 5171,
      "Ġflip": 5172,
      "Ġcarter": 5173,
      "rene": 5174,
      "oots": 5175,
      "Ġmyth": 5176,
      "overty": 5177,
      "Ġmakeup": 5178,
      "ships": 5179,
      "Ġanyway": 5180,
      "Ġentrep": 5181,
      "Ġhighway": 5182,
      "ordan": 5183,
      "Ġcharge": 5184,
      "Ġwritten": 5185,
      "Ġconfed": 5186,
      "Ġspeed": 5187,
      "Ġrelief": 5188,
      "Ġmisses": 5189,
      "Ġmission": 5190,
      "Ġbuys": 5191,
      "Ġshootings": 5192,
      "Ġbabies": 5193,
      "Ġburns": 5194,
      "Ġrespond": 5195,
      "Ġreduce": 5196,
      "Ġpatients": 5197,
      "Ġcapable": 5198,
      "enny": 5199,
      "Ġdirectly": 5200,
      "Ġlaur": 5201,
      "comes": 5202,
      "Ġwednes": 5203,
      "oker": 5204,
      "Ġhumanity": 5205,
      "Ġreturning": 5206,
      "Ġvictor": 5207,
      "Ġstreets": 5208,
      "Ġcruise": 5209,
      "Ġsleeping": 5210,
      "Ġwildlife": 5211,
      "Ġsurvive": 5212,
      "Ġmentally": 5213,
      "Ġlarry": 5214,
      "Ġapology": 5215,
      "Ġinspired": 5216,
      "Ġglobes": 5217,
      "Ġpleas": 5218,
      "Ġengine": 5219,
      "Ġsentenced": 5220,
      "ursday": 5221,
      "Ġiraqi": 5222,
      "Ġwalker": 5223,
      "Ġelectric": 5224,
      "Ġprotecting": 5225,
      "Ġcyber": 5226,
      "Ġfactory": 5227,
      "Ġbritney": 5228,
      "posed": 5229,
      "related": 5230,
      "Ġcomedian": 5231,
      "Ġtouching": 5232,
      "Ġdaniels": 5233,
      "Ġpassenger": 5234,
      "Ġprofessor": 5235,
      "Ġjewish": 5236,
      "reck": 5237,
      "Ġbottle": 5238,
      "ertainment": 5239,
      "Ġpulling": 5240,
      "Ġtherapy": 5241,
      "Ġhabit": 5242,
      "Ġovers": 5243,
      "Ġambassador": 5244,
      "Ġagrees": 5245,
      "Ġexecution": 5246,
      "Ġoppon": 5247,
      "Ġcosby": 5248,
      "damn": 5249,
      "Ġoutraged": 5250,
      "Ġpunish": 5251,
      "Ġtaste": 5252,
      "Ġfalse": 5253,
      "Ġbarely": 5254,
      "Ġfully": 5255,
      "Ġabandoned": 5256,
      "Ġnursing": 5257,
      "Ġconsidering": 5258,
      "Ġchecks": 5259,
      "Ġportrait": 5260,
      "Ġancient": 5261,
      "Ġgorge": 5262,
      "Ġrudy": 5263,
      "Ġpolicies": 5264,
      "Ġukraine": 5265,
      "Ġpentagon": 5266,
      "Ġyoutube": 5267,
      "Ġperspective": 5268,
      "Ġpennsylvania": 5269,
      "Ġsuggest": 5270,
      "Ġentreprene": 5271,
      "aeda": 5272,
      "bel": 5273,
      "bus": 5274,
      "bucks": 5275,
      "def": 5276,
      "fc": 5277,
      "fish": 5278,
      "gate": 5279,
      "hand": 5280,
      "hab": 5281,
      "iors": 5282,
      "jo": 5283,
      "lings": 5284,
      "mob": 5285,
      "ril": 5286,
      "rie": 5287,
      "uitt": 5288,
      "zy": 5289,
      "Âł": 5290,
      "inting": 5291,
      "Ġtaught": 5292,
      "erves": 5293,
      "Ġaunt": 5294,
      "Ġcu": 5295,
      "Ġcin": 5296,
      "Ġcaf": 5297,
      "Ġwrest": 5298,
      "oral": 5299,
      "oric": 5300,
      "Ġbust": 5301,
      "Ġbang": 5302,
      "Ġbible": 5303,
      "Ġmention": 5304,
      "Ġpad": 5305,
      "Ġpour": 5306,
      "Ġpunch": 5307,
      "Ġhip": 5308,
      "Ġhates": 5309,
      "Ġhann": 5310,
      "Ġdirty": 5311,
      "Ġthursday": 5312,
      "arily": 5313,
      "Ġtos": 5314,
      "Ġtoll": 5315,
      "Ġlying": 5316,
      "Ġnu": 5317,
      "Ġnur": 5318,
      "Ġnap": 5319,
      "Ġnost": 5320,
      "Ġnecess": 5321,
      "icated": 5322,
      "Ġinner": 5323,
      "Ġgors": 5324,
      "Ġreaction": 5325,
      "elph": 5326,
      "store": 5327,
      "eton": 5328,
      "ette": 5329,
      "olds": 5330,
      "Ġrot": 5331,
      "Ġrab": 5332,
      "ayed": 5333,
      "adium": 5334,
      "adelph": 5335,
      "eces": 5336,
      "urbing": 5337,
      "Ġkaine": 5338,
      "Ġchew": 5339,
      "child": 5340,
      "check": 5341,
      "Ġshape": 5342,
      "Ġpruitt": 5343,
      "Ġnewborn": 5344,
      "Ġconce": 5345,
      "Ġmanaf": 5346,
      "Ġalt": 5347,
      "aping": 5348,
      "apes": 5349,
      "apse": 5350,
      "alled": 5351,
      "Ġcomic": 5352,
      "Ġexcept": 5353,
      "Ġworry": 5354,
      "Ġoutf": 5355,
      "oda": 5356,
      "oduce": 5357,
      "Ġupset": 5358,
      "Ġcrying": 5359,
      "Ġcraig": 5360,
      "ells": 5361,
      "Ġbruce": 5362,
      "Ġbroke": 5363,
      "Ġintended": 5364,
      "Ġblows": 5365,
      "Ġdrama": 5366,
      "Ġmeals": 5367,
      "Ġmeghan": 5368,
      "Ġwilliam": 5369,
      "Ġempower": 5370,
      "eyed": 5371,
      "Ġrecr": 5372,
      "Ġflash": 5373,
      "Ġeverywhere": 5374,
      "Ġcarl": 5375,
      "Ġknife": 5376,
      "angel": 5377,
      "Ġjokes": 5378,
      "areness": 5379,
      "ocket": 5380,
      "aze": 5381,
      "ictions": 5382,
      "Ġsoft": 5383,
      "reek": 5384,
      "Ġmont": 5385,
      "Ġserial": 5386,
      "ulture": 5387,
      "Ġshowing": 5388,
      "Ġsyn": 5389,
      "Ġknowledge": 5390,
      "Ġconfidence": 5391,
      "attle": 5392,
      "Ġdeaths": 5393,
      "Ġzero": 5394,
      "Ġtransportation": 5395,
      "Ġplayed": 5396,
      "Ġappears": 5397,
      "Ġletting": 5398,
      "Ġcollect": 5399,
      "Ġcollection": 5400,
      "Ġbuzz": 5401,
      "Ġ80": 5402,
      "Ġwinner": 5403,
      "Ġwinners": 5404,
      "Ġdeli": 5405,
      "Ġposts": 5406,
      "Ġloose": 5407,
      "Ġmilk": 5408,
      "Ġnightm": 5409,
      "Ġwalks": 5410,
      "Ġsteven": 5411,
      "heim": 5412,
      "Ġimpact": 5413,
      "anne": 5414,
      "Ġcheer": 5415,
      "Ġmaher": 5416,
      "Ġfallon": 5417,
      "Ġcreates": 5418,
      "Ġepic": 5419,
      "Ġsuspended": 5420,
      "class": 5421,
      "Ġsetting": 5422,
      "Ġvalley": 5423,
      "Ġdifficult": 5424,
      "Ġcoverage": 5425,
      "Ġcommunities": 5426,
      "Ġbelieves": 5427,
      "Ġprovides": 5428,
      "Ġdaughters": 5429,
      "Ġeffect": 5430,
      "Ġproper": 5431,
      "Ġhitting": 5432,
      "what": 5433,
      "white": 5434,
      "Ġshopping": 5435,
      "Ġillness": 5436,
      "Ġteaches": 5437,
      "Ġpainful": 5438,
      "Ġreceive": 5439,
      "Ġcollaps": 5440,
      "Ġrebels": 5441,
      "Ġstatus": 5442,
      "Ġreligion": 5443,
      "estern": 5444,
      "Ġfundra": 5445,
      "Ġglasses": 5446,
      "Ġgraduates": 5447,
      "Ġupdate": 5448,
      "Ġannoying": 5449,
      "Ġbottom": 5450,
      "Ġsource": 5451,
      "Ġinnoc": 5452,
      "Ġmigrants": 5453,
      "Ġaustralia": 5454,
      "Ġwilson": 5455,
      "Ġjapanese": 5456,
      "Ġdipl": 5457,
      "Ġpoliticians": 5458,
      "Ġiconic": 5459,
      "Ġpuppy": 5460,
      "Ġdolph": 5461,
      "Ġghost": 5462,
      "Ġroutine": 5463,
      "Ġslightly": 5464,
      "Ġmicros": 5465,
      "Ġgaga": 5466,
      "profit": 5467,
      "Ġtillerson": 5468,
      "Ġbetsy": 5469,
      "Ġlangu": 5470,
      "Ġamendment": 5471,
      "agnos": 5472,
      "Ġsurgery": 5473,
      "Ġconfederate": 5474,
      "Ġwednesday": 5475,
      "Ġnostal": 5476,
      "Ġmanafort": 5477,
      "90": 5478,
      "bit": 5479,
      "based": 5480,
      "car": 5481,
      "cra": 5482,
      "dis": 5483,
      "gar": 5484,
      "han": 5485,
      "iece": 5486,
      "just": 5487,
      "jects": 5488,
      "lim": 5489,
      "oach": 5490,
      "sing": 5491,
      "sen": 5492,
      "sel": 5493,
      "tv": 5494,
      "wing": 5495,
      "Ġet": 5496,
      "Ġ...": 5497,
      "Ġtorn": 5498,
      "Ġsues": 5499,
      "oner": 5500,
      "anes": 5501,
      "Ġward": 5502,
      "Ġwears": 5503,
      "Ġwonders": 5504,
      "Ġfer": 5505,
      "Ġfol": 5506,
      "Ġfill": 5507,
      "Ġbuck": 5508,
      "Ġbachel": 5509,
      "Ġpak": 5510,
      "Ġpitch": 5511,
      "Ġpurs": 5512,
      "Ġhook": 5513,
      "Ġhiring": 5514,
      "Ġditch": 5515,
      "Ġoreg": 5516,
      "iser": 5517,
      "isions": 5518,
      "Ġtooth": 5519,
      "Ġtoxic": 5520,
      "ita": 5521,
      "itol": 5522,
      "Ġlin": 5523,
      "Ġlord": 5524,
      "Ġnic": 5525,
      "Ġnail": 5526,
      "icing": 5527,
      "omo": 5528,
      "leep": 5529,
      "state": 5530,
      "eted": 5531,
      "acon": 5532,
      "olen": 5533,
      "olate": 5534,
      "Ġstance": 5535,
      "Ġstadium": 5536,
      "Ġstolen": 5537,
      "Ġeu": 5538,
      "Ġeve": 5539,
      "Ġran": 5540,
      "Ġrup": 5541,
      "Ġrates": 5542,
      "ental": 5543,
      "idly": 5544,
      "utions": 5545,
      "Ġwhose": 5546,
      "Ġjet": 5547,
      "Ġjason": 5548,
      "Ġjordan": 5549,
      "Ġkept": 5550,
      "illa": 5551,
      "Ġcha": 5552,
      "Ġchain": 5553,
      "Ġshame": 5554,
      "Ġshoes": 5555,
      "Ġshitty": 5556,
      "usal": 5557,
      "Ġven": 5558,
      "Ġvul": 5559,
      "unte": 5560,
      "Ġandrew": 5561,
      "ateful": 5562,
      "eston": 5563,
      "Ġconcl": 5564,
      "Ġatl": 5565,
      "Ġmanuf": 5566,
      "ablish": 5567,
      "allas": 5568,
      "Ġspect": 5569,
      "Ġexam": 5570,
      "ounts": 5571,
      "Ġclip": 5572,
      "Ġseaw": 5573,
      "agan": 5574,
      "iper": 5575,
      "Ġgrown": 5576,
      "Ġgraph": 5577,
      "Ġ27": 5578,
      "Ġbloom": 5579,
      "Ġallowing": 5580,
      "Ġscram": 5581,
      "Ġmaria": 5582,
      "awn": 5583,
      "Ġoverweight": 5584,
      "Ġlibr": 5585,
      "Ġliby": 5586,
      "Ġagents": 5587,
      "Ġrecover": 5588,
      "Ġelected": 5589,
      "Ġquality": 5590,
      "Ġguess": 5591,
      "Ġ35": 5592,
      "Ġactors": 5593,
      "Ġthrown": 5594,
      "Ġevac": 5595,
      "Ġevolution": 5596,
      "Ġchildhood": 5597,
      "bridge": 5598,
      "shit": 5599,
      "ctic": 5600,
      "Ġstranger": 5601,
      "Ġdeserve": 5602,
      "Ġmonster": 5603,
      "Ġbutt": 5604,
      "Ġstarbucks": 5605,
      "Ġparody": 5606,
      "Ġenter": 5607,
      "Ġentertainment": 5608,
      "Ġcharles": 5609,
      "Ġmoved": 5610,
      "Ġminnes": 5611,
      "Ġminimum": 5612,
      "Ġconfident": 5613,
      "Ġconfused": 5614,
      "Ġindivid": 5615,
      "Ġharm": 5616,
      "Ġtransition": 5617,
      "Ġending": 5618,
      "Ġgunman": 5619,
      "Ġcouch": 5620,
      "Ġpersonality": 5621,
      "Ġgenius": 5622,
      "Ġbeloved": 5623,
      "bye": 5624,
      "Ġtower": 5625,
      "Ġpatrick": 5626,
      "Ġteenage": 5627,
      "Ġimpressed": 5628,
      "Ġcapitol": 5629,
      "Ġcurt": 5630,
      "Ġregrets": 5631,
      "Ġrobot": 5632,
      "Ġcease": 5633,
      "Ġceiling": 5634,
      "Ġfriendship": 5635,
      "Ġsuspects": 5636,
      "Ġheartbreaking": 5637,
      "Ġtaxes": 5638,
      "Ġpaying": 5639,
      "Ġcentral": 5640,
      "Ġsweep": 5641,
      "Ġerup": 5642,
      "Ġcondition": 5643,
      "Ġconditions": 5644,
      "Ġpanel": 5645,
      "Ġproduction": 5646,
      "Ġtraveling": 5647,
      "Ġcait": 5648,
      "Ġterrorist": 5649,
      "Ġcounsel": 5650,
      "Ġpressure": 5651,
      "Ġengagement": 5652,
      "Ġneighbors": 5653,
      "Ġhopeful": 5654,
      "Ġarchae": 5655,
      "Ġapproach": 5656,
      "Ġveget": 5657,
      "Ġphiladelph": 5658,
      "Ġimportance": 5659,
      "Ġcleaning": 5660,
      "Ġpictures": 5661,
      "Ġenjoying": 5662,
      "Ġsanct": 5663,
      "Ġforgot": 5664,
      "Ġdivorced": 5665,
      "Ġmiracle": 5666,
      "Ġmirror": 5667,
      "Ġnobel": 5668,
      "Ġridicul": 5669,
      "Ġchallenges": 5670,
      "Ġsurvivor": 5671,
      "Ġdisturbing": 5672,
      "Ġaffair": 5673,
      "Ġproposal": 5674,
      "Ġkrist": 5675,
      "Ġupdates": 5676,
      "Ġhackers": 5677,
      "Ġestate": 5678,
      "Ġinnov": 5679,
      "Ġpledge": 5680,
      "Ġresponsible": 5681,
      "Ġidentity": 5682,
      "Ġhabits": 5683,
      "Ġbreath": 5684,
      "Ġduty": 5685,
      "Ġethics": 5686,
      "Ġenvironmental": 5687,
      "Ġgrammys": 5688,
      "Ġprayers": 5689,
      "Ġmemoir": 5690,
      "Ġdunham": 5691,
      "Ġshelter": 5692,
      "Ġdefeat": 5693,
      "Ġachieve": 5694,
      "Ġprescription": 5695,
      "Ġgaza": 5696,
      "Ġexercise": 5697,
      "Ġjessica": 5698,
      "Ġdetermined": 5699,
      "Ġbasketball": 5700,
      "Ġacademy": 5701,
      "Ġgorgeous": 5702,
      "Ġgorsuch": 5703,
      "heimer": 5704,
      "Ġpakistan": 5705,
      "Ġoregon": 5706,
      "Ġmanufact": 5707,
      "Ġminnesota": 5708,
      "aj": 5709,
      "aun": 5710,
      "bu": 5711,
      "bal": 5712,
      "cts": 5713,
      "des": 5714,
      "date": 5715,
      "ez": 5716,
      "eing": 5717,
      "fires": 5718,
      "gor": 5719,
      "gets": 5720,
      "iating": 5721,
      "lah": 5722,
      "lights": 5723,
      "pack": 5724,
      "pret": 5725,
      "point": 5726,
      "rase": 5727,
      "su": 5728,
      "sup": 5729,
      "tes": 5730,
      "tim": 5731,
      "vd": 5732,
      "water": 5733,
      "zheimer": 5734,
      "Ġtiger": 5735,
      "Ġax": 5736,
      "Ġads": 5737,
      "Ġaide": 5738,
      "Ġsib": 5739,
      "Ġsustain": 5740,
      "rey": 5741,
      "Ġcovers": 5742,
      "Ġcooking": 5743,
      "antha": 5744,
      "Ġwakes": 5745,
      "Ġfred": 5746,
      "Ġfier": 5747,
      "Ġfcc": 5748,
      "orld": 5749,
      "orse": 5750,
      "Ġbodies": 5751,
      "Ġmood": 5752,
      "Ġmug": 5753,
      "Ġmater": 5754,
      "Ġmiam": 5755,
      "Ġpill": 5756,
      "Ġpair": 5757,
      "Ġpoverty": 5758,
      "Ġho": 5759,
      "Ġhug": 5760,
      "Ġhaz": 5761,
      "Ġhole": 5762,
      "atar": 5763,
      "Ġdor": 5764,
      "Ġdangers": 5765,
      "isf": 5766,
      "isy": 5767,
      "iters": 5768,
      "itors": 5769,
      "Ġlone": 5770,
      "Ġna": 5771,
      "iced": 5772,
      "Ġgore": 5773,
      "Ġgov": 5774,
      "Ġgang": 5775,
      "Ġgolf": 5776,
      "omb": 5777,
      "omatic": 5778,
      "Ġrein": 5779,
      "aser": 5780,
      "ela": 5781,
      "acement": 5782,
      "Ġstays": 5783,
      "Ġstares": 5784,
      "Ġstaying": 5785,
      "Ġec": 5786,
      "iders": 5787,
      "Ġanth": 5788,
      "Ġwhis": 5789,
      "Ġjam": 5790,
      "irts": 5791,
      "Ġkas": 5792,
      "tery": 5793,
      "Ġshocking": 5794,
      "Ġsharp": 5795,
      "opri": 5796,
      "Ġbeating": 5797,
      "Ġbeef": 5798,
      "Ġvom": 5799,
      "Ġvide": 5800,
      "Ġvoices": 5801,
      "Ġfruit": 5802,
      "under": 5803,
      "Ġconstruction": 5804,
      "Ġalzheimer": 5805,
      "Ġunless": 5806,
      "Ġability": 5807,
      "emb": 5808,
      "emon": 5809,
      "Ġspears": 5810,
      "Ġitaly": 5811,
      "Ġclo": 5812,
      "Ġclock": 5813,
      "Ġsept": 5814,
      "Ġseattle": 5815,
      "Ġplus": 5816,
      "Ġlew": 5817,
      "Ġleague": 5818,
      "Ġcracks": 5819,
      "Ġgrace": 5820,
      "Ġnotice": 5821,
      "Ġbride": 5822,
      "Ġbrook": 5823,
      "keep": 5824,
      "Ġarms": 5825,
      "Ġallen": 5826,
      "Ġallies": 5827,
      "sequ": 5828,
      "Ġfinale": 5829,
      "Ġdrum": 5830,
      "Ġdrake": 5831,
      "Ġmeyers": 5832,
      "Ġwilling": 5833,
      "Ġemp": 5834,
      "Ġimages": 5835,
      "Ġflo": 5836,
      "Ġguit": 5837,
      "Ġusa": 5838,
      "Ġ2020": 5839,
      "Ġfeud": 5840,
      "Ġopio": 5841,
      "Ġbackl": 5842,
      "iban": 5843,
      "Ġ34": 5844,
      "rence": 5845,
      "Ġschol": 5846,
      "force": 5847,
      "Ġremoves": 5848,
      "Ġawareness": 5849,
      "Ġworkout": 5850,
      "Ġworkplace": 5851,
      "Ġdecember": 5852,
      "Ġvoted": 5853,
      "Ġcommission": 5854,
      "Ġstrangers": 5855,
      "Ġsmiling": 5856,
      "Ġtaliban": 5857,
      "Ġbutton": 5858,
      "ernity": 5859,
      "Ġknowing": 5860,
      "Ġglimp": 5861,
      "Ġfunds": 5862,
      "Ġrelax": 5863,
      "elson": 5864,
      "Ġpoet": 5865,
      "Ġiron": 5866,
      "Ġterm": 5867,
      "Ġcolleges": 5868,
      "Ġphotographer": 5869,
      "Ġskip": 5870,
      "Ġpassed": 5871,
      "Ġsecretly": 5872,
      "Ġgrandfather": 5873,
      "Ġpatri": 5874,
      "Ġgoddamn": 5875,
      "Ġcorruption": 5876,
      "Ġadvent": 5877,
      "Ġentirely": 5878,
      "Ġfeelings": 5879,
      "Ġgreece": 5880,
      "Ġsolve": 5881,
      "Ġcruel": 5882,
      "Ġraising": 5883,
      "Ġpanic": 5884,
      "Ġsituation": 5885,
      "Ġhosts": 5886,
      "Ġdifference": 5887,
      "Ġpalin": 5888,
      "ification": 5889,
      "Ġincreases": 5890,
      "whel": 5891,
      "Ġrent": 5892,
      "Ġviews": 5893,
      "Ġrelationships": 5894,
      "Ġpulled": 5895,
      "Ġapproval": 5896,
      "Ġrevealed": 5897,
      "Ġprograms": 5898,
      "Ġcompletes": 5899,
      "Ġconstantly": 5900,
      "Ġdamage": 5901,
      "Ġannouncement": 5902,
      "worth": 5903,
      "Ġdeeply": 5904,
      "Ġsatisf": 5905,
      "Ġhammer": 5906,
      "Ġwaitress": 5907,
      "Ġrescued": 5908,
      "Ġrequest": 5909,
      "Ġcommitted": 5910,
      "Ġnato": 5911,
      "Ġpurchases": 5912,
      "Ġfitness": 5913,
      "Ġdiagnos": 5914,
      "Ġorganization": 5915,
      "Ġcatches": 5916,
      "Ġliberty": 5917,
      "Ġreunion": 5918,
      "Ġvolunte": 5919,
      "Ġthankful": 5920,
      "Ġmedicine": 5921,
      "Ġestablish": 5922,
      "Ġsamantha": 5923,
      "Ġmultip": 5924,
      "Ġdollar": 5925,
      "Ġtherapist": 5926,
      "Ġpathetic": 5927,
      "Ġbolton": 5928,
      "Ġadviser": 5929,
      "Ġaustralian": 5930,
      "Ġarabia": 5931,
      "Ġlesbian": 5932,
      "Ġcomfortable": 5933,
      "Ġtrend": 5934,
      "Ġversion": 5935,
      "Ġcartoon": 5936,
      "Ġnavy": 5937,
      "Ġpissed": 5938,
      "Ġtroops": 5939,
      "Ġchemical": 5940,
      "Ġmethod": 5941,
      "Ġlatinos": 5942,
      "Ġbikini": 5943,
      "Ġanchor": 5944,
      "Ġendangered": 5945,
      "Ġbaldwin": 5946,
      "Ġentrepreneur": 5947,
      "Ġmicrosoft": 5948,
      "Ġseaworld": 5949,
      "lahoma": 5950,
      "Ġmiami": 5951,
      "Ġopioid": 5952,
      "Ġglimpse": 5953,
      "ba": 5954,
      "eating": 5955,
      "ext": 5956,
      "feld": 5957,
      "hs": 5958,
      "hus": 5959,
      "kins": 5960,
      "mers": 5961,
      "mind": 5962,
      "making": 5963,
      "nast": 5964,
      "pot": 5965,
      "rus": 5966,
      "sl": 5967,
      "watch": 5968,
      "Ġtall": 5969,
      "Ġtests": 5970,
      "erk": 5971,
      "Ġah": 5972,
      "Ġaz": 5973,
      "Ġsab": 5974,
      "Ġsue": 5975,
      "Ġsoda": 5976,
      "Ġwip": 5977,
      "Ġwave": 5978,
      "Ġfiring": 5979,
      "Ġfuel": 5980,
      "Ġfilled": 5981,
      "Ġfasc": 5982,
      "inge": 5983,
      "ingrich": 5984,
      "Ġbilly": 5985,
      "Ġbacon": 5986,
      "Ġml": 5987,
      "Ġmaint": 5988,
      "enc": 5989,
      "Ġpel": 5990,
      "Ġpant": 5991,
      "Ġpure": 5992,
      "Ġhud": 5993,
      "Ġhatch": 5994,
      "Ġhires": 5995,
      "Ġhints": 5996,
      "Ġdave": 5997,
      "Ġdread": 5998,
      "Ġdallas": 5999,
      "Ġdvd": 6000,
      "itos": 6001,
      "Ġlen": 6002,
      "Ġlion": 6003,
      "Ġloom": 6004,
      "Ġlinks": 6005,
      "Ġluther": 6006,
      "Ġnancy": 6007,
      "Ġinmate": 6008,
      "Ġgingrich": 6009,
      "ilton": 6010,
      "ilmore": 6011,
      "asion": 6012,
      "stop": 6013,
      "stream": 6014,
      "eting": 6015,
      "etown": 6016,
      "Ġeats": 6017,
      "Ġrant": 6018,
      "Ġrice": 6019,
      "Ġrough": 6020,
      "Ġroof": 6021,
      "entucky": 6022,
      "imony": 6023,
      "Ġjun": 6024,
      "Ġkentucky": 6025,
      "iller": 6026,
      "illance": 6027,
      "chang": 6028,
      "chair": 6029,
      "Ġsham": 6030,
      "Ġshake": 6031,
      "Ġnewt": 6032,
      "Ġconcer": 6033,
      "Ġabc": 6034,
      "Ġspin": 6035,
      "Ġitalian": 6036,
      "Ġexit": 6037,
      "Ġafraid": 6038,
      "quake": 6039,
      "Ġgrat": 6040,
      "Ġgrass": 6041,
      "Ġgrateful": 6042,
      "Ġcannot": 6043,
      "Ġcanada": 6044,
      "Ġbrag": 6045,
      "Ġadele": 6046,
      "izer": 6047,
      "asses": 6048,
      "kings": 6049,
      "Ġhoward": 6050,
      "Ġarmed": 6051,
      "Ġscores": 6052,
      "plays": 6053,
      "Ġdisorder": 6054,
      "Ġdry": 6055,
      "Ġdrivers": 6056,
      "Ġteeth": 6057,
      "aws": 6058,
      "Ġoverwhel": 6059,
      "Ġapril": 6060,
      "Ġagend": 6061,
      "athers": 6062,
      "Ġsupposed": 6063,
      "Ġelon": 6064,
      "Ġflint": 6065,
      "Ġcolin": 6066,
      "appr": 6067,
      "Ġbacks": 6068,
      "issipp": 6069,
      "Ġ32": 6070,
      "rent": 6071,
      "Ġthrowing": 6072,
      "Ġparticip": 6073,
      "Ġexpensive": 6074,
      "bruary": 6075,
      "Ġsexy": 6076,
      "ossible": 6077,
      "Ġaccom": 6078,
      "Ġworked": 6079,
      "Ġwatched": 6080,
      "Ġinsane": 6081,
      "Ġcommence": 6082,
      "Ġsmooth": 6083,
      "Ġtwist": 6084,
      "Ġmaybe": 6085,
      "Ġhighly": 6086,
      "Ġmusk": 6087,
      "Ġgoodbye": 6088,
      "Ġconsumer": 6089,
      "Ġdefiant": 6090,
      "ahl": 6091,
      "Ġzone": 6092,
      "Ġzika": 6093,
      "Ġmississipp": 6094,
      "ocrisy": 6095,
      "Ġseeks": 6096,
      "ixon": 6097,
      "Ġ87": 6098,
      "nedy": 6099,
      "Ġclevel": 6100,
      "Ġlongtime": 6101,
      "Ġcontroll": 6102,
      "Ġburn": 6103,
      "Ġsinging": 6104,
      "Ġcandy": 6105,
      "Ġreven": 6106,
      "Ġrevers": 6107,
      "Ġtheme": 6108,
      "Ġmarkle": 6109,
      "Ġsupporting": 6110,
      "Ġstartup": 6111,
      "Ġcorrect": 6112,
      "Ġdocuments": 6113,
      "Ġhometown": 6114,
      "Ġchef": 6115,
      "Ġdreamers": 6116,
      "Ġthreatening": 6117,
      "Ġhunt": 6118,
      "Ġsolid": 6119,
      "Ġsolution": 6120,
      "Ġunveil": 6121,
      "Ġprevious": 6122,
      "Ġmoder": 6123,
      "Ġtesting": 6124,
      "Ġtestimony": 6125,
      "Ġprovide": 6126,
      "Ġeffects": 6127,
      "Ġeffective": 6128,
      "Ġlots": 6129,
      "Ġlottery": 6130,
      "Ġcaused": 6131,
      "Ġcausing": 6132,
      "Ġtreats": 6133,
      "Ġpushes": 6134,
      "Ġcloset": 6135,
      "Ġinspiring": 6136,
      "Ġplea": 6137,
      "Ġmuham": 6138,
      "Ġroller": 6139,
      "Ġpainting": 6140,
      "Ġhorrifying": 6141,
      "Ġruin": 6142,
      "Ġparkland": 6143,
      "Ġcomplain": 6144,
      "Ġcrashes": 6145,
      "works": 6146,
      "Ġradical": 6147,
      "Ġforgotten": 6148,
      "Ġcyrus": 6149,
      "Ġbritain": 6150,
      "Ġmiranda": 6151,
      "Ġcashier": 6152,
      "Ġoklahoma": 6153,
      "Ġdaniel": 6154,
      "Ġcommercials": 6155,
      "Ġsixth": 6156,
      "Ġangeles": 6157,
      "Ġconnection": 6158,
      "Ġproposed": 6159,
      "Ġcasual": 6160,
      "Ġveterans": 6161,
      "guard": 6162,
      "Ġbaltim": 6163,
      "Ġpieces": 6164,
      "Ġsuffer": 6165,
      "Ġgala": 6166,
      "Ġgalax": 6167,
      "Ġfurious": 6168,
      "Ġfeminist": 6169,
      "Ġpraise": 6170,
      "Ġoptions": 6171,
      "Ġlawmaker": 6172,
      "party": 6173,
      "Ġoliver": 6174,
      "Ġendorsement": 6175,
      "Ġessay": 6176,
      "Ġaffordable": 6177,
      "Ġdisabled": 6178,
      "Ġnarrow": 6179,
      "Ġminority": 6180,
      "Ġfreshman": 6181,
      "Ġlamar": 6182,
      "Ġsurgeon": 6183,
      "Ġmillennials": 6184,
      "Ġastronom": 6185,
      "Ġregularly": 6186,
      "Ġabrams": 6187,
      "Ġindependent": 6188,
      "Ġpipeline": 6189,
      "Ġbrutal": 6190,
      "Ġellen": 6191,
      "Ġresistance": 6192,
      "Ġassistant": 6193,
      "Ġattractive": 6194,
      "woman": 6195,
      "Ġdemonstr": 6196,
      "Ġdiscrimination": 6197,
      "Ġhaunted": 6198,
      "Ġgarden": 6199,
      "Ġsurveillance": 6200,
      "Ġthoughts": 6201,
      "Ġshadow": 6202,
      "Ġunemployed": 6203,
      "Ġanonymous": 6204,
      "Ġplatform": 6205,
      "Ġcuomo": 6206,
      "Ġnurse": 6207,
      "Ġnecessary": 6208,
      "Ġevacu": 6209,
      "Ġcaitlyn": 6210,
      "Ġphiladelphia": 6211,
      "Ġmississippi": 6212,
      "Ġcleveland": 6213,
      "Ġbaltimore": 6214,
      "'-": 6215,
      "'?": 6216,
      "400": 6217,
      "big": 6218,
      "dad": 6219,
      "dog": 6220,
      "fam": 6221,
      "gi": 6222,
      "hl": 6223,
      "ias": 6224,
      "look": 6225,
      "love": 6226,
      "load": 6227,
      "lines": 6228,
      "loe": 6229,
      "looking": 6230,
      "mes": 6231,
      "mber": 6232,
      "nic": 6233,
      "piece": 6234,
      "sm": 6235,
      "ten": 6236,
      "tag": 6237,
      "uous": 6238,
      "will": 6239,
      "wearing": 6240,
      "inct": 6241,
      "Ġsize": 6242,
      "reh": 6243,
      "once": 6244,
      "Ġcert": 6245,
      "Ġcats": 6246,
      "Ġcbs": 6247,
      "ani": 6248,
      "Ġwit": 6249,
      "Ġfond": 6250,
      "Ġfelt": 6251,
      "Ġfirm": 6252,
      "ington": 6253,
      "Ġbart": 6254,
      "Ġbast": 6255,
      "Ġbike": 6256,
      "Ġmate": 6257,
      "Ġmax": 6258,
      "Ġmask": 6259,
      "Ġpom": 6260,
      "Ġpist": 6261,
      "Ġpard": 6262,
      "Ġpills": 6263,
      "Ġhbo": 6264,
      "Ġox": 6265,
      "arch": 6266,
      "ales": 6267,
      "Ġtoys": 6268,
      "itan": 6269,
      "itting": 6270,
      "Ġluc": 6271,
      "Ġlob": 6272,
      "Ġlip": 6273,
      "Ġnose": 6274,
      "Ġnyp": 6275,
      "Ġnature": 6276,
      "Ġinforms": 6277,
      "Ġgw": 6278,
      "Ġgear": 6279,
      "Ġreject": 6280,
      "Ġreagan": 6281,
      "leck": 6282,
      "style": 6283,
      "etnam": 6284,
      "acre": 6285,
      "acting": 6286,
      "Ġstom": 6287,
      "Ġstab": 6288,
      "Ġstall": 6289,
      "Ġstere": 6290,
      "Ġstands": 6291,
      "otyp": 6292,
      "Ġris": 6293,
      "Ġriot": 6294,
      "Ġrapper": 6295,
      "Ġtraged": 6296,
      "uters": 6297,
      "Ġwhale": 6298,
      "umm": 6299,
      "vember": 6300,
      "Ġjake": 6301,
      "Ġneutr": 6302,
      "Ġkfc": 6303,
      "Ġcher": 6304,
      "Ġchoc": 6305,
      "oped": 6306,
      "that": 6307,
      "Ġvin": 6308,
      "Ġvet": 6309,
      "Ġdeploy": 6310,
      "Ġprint": 6311,
      "Ġalan": 6312,
      "Ġalask": 6313,
      "endy": 6314,
      "enders": 6315,
      "oca": 6316,
      "Ġaside": 6317,
      "Ġheat": 6318,
      "abortion": 6319,
      "Ġspill": 6320,
      "Ġspiel": 6321,
      "Ġspider": 6322,
      "Ġrepr": 6323,
      "Ġsequ": 6324,
      "ector": 6325,
      "ecting": 6326,
      "Ġcrow": 6327,
      "ella": 6328,
      "elled": 6329,
      "Ġgrie": 6330,
      "Ġgrands": 6331,
      "aved": 6332,
      "Ġcanad": 6333,
      "Ġbridge": 6334,
      "Ġadj": 6335,
      "Ġ26": 6336,
      "Ġintegr": 6337,
      "Ġblas": 6338,
      "Ġblank": 6339,
      "Ġarctic": 6340,
      "ourt": 6341,
      "Ġscot": 6342,
      "Ġscout": 6343,
      "Ġdonors": 6344,
      "Ġdisplay": 6345,
      "Ġgoal": 6346,
      "Ġdrown": 6347,
      "Ġdrinks": 6348,
      "Ġpolling": 6349,
      "Ġreporters": 6350,
      "Ġnationwide": 6351,
      "Ġsuppor": 6352,
      "Ġrecently": 6353,
      "Ġrecovery": 6354,
      "Ġelimin": 6355,
      "Ġnovember": 6356,
      "Ġcarry": 6357,
      "Ġcarrying": 6358,
      "Ġoption": 6359,
      "Ġbackground": 6360,
      "Ġbackyard": 6361,
      "week": 6362,
      "Ġ37": 6363,
      "Ġ38": 6364,
      "Ġworldwide": 6365,
      "Ġanne": 6366,
      "Ġdemographic": 6367,
      "Ġbillions": 6368,
      "Ġawful": 6369,
      "shot": 6370,
      "Ġwatches": 6371,
      "Ġstrange": 6372,
      "Ġsomewhere": 6373,
      "Ġtwins": 6374,
      "Ġ400": 6375,
      "Ġlawrence": 6376,
      "Ġassass": 6377,
      "Ġincom": 6378,
      "Ġkidn": 6379,
      "Ġcompares": 6380,
      "Ġbigger": 6381,
      "Ġsymp": 6382,
      "Ġmostly": 6383,
      "Ġhearts": 6384,
      "Ġretired": 6385,
      "Ġconfess": 6386,
      "Ġrefusing": 6387,
      "Ġharr": 6388,
      "Ġdiscl": 6389,
      "Ġdiscovers": 6390,
      "attan": 6391,
      "Ġphotograph": 6392,
      "Ġsniper": 6393,
      "Ġevening": 6394,
      "Ġcelebrating": 6395,
      "Ġvietnam": 6396,
      "Ġdetective": 6397,
      "Ġgrandparen": 6398,
      "Ġexciting": 6399,
      "Ġtops": 6400,
      "Ġsuperher": 6401,
      "Ġimpe": 6402,
      "Ġimpossible": 6403,
      "Ġhomosexual": 6404,
      "Ġcurry": 6405,
      "Ġtimber": 6406,
      "Ġcopy": 6407,
      "Ġregular": 6408,
      "Ġsupremac": 6409,
      "comfort": 6410,
      "Ġcalm": 6411,
      "Ġdevast": 6412,
      "Ġlesson": 6413,
      "oked": 6414,
      "Ġscientist": 6415,
      "Ġgrey": 6416,
      "Ġhunger": 6417,
      "Ġservices": 6418,
      "Ġfreaking": 6419,
      "Ġvirus": 6420,
      "Ġproducts": 6421,
      "Ġsites": 6422,
      "Ġtomorrow": 6423,
      "Ġearthquake": 6424,
      "Ġstruggles": 6425,
      "Ġheroes": 6426,
      "Ġtourist": 6427,
      "Ġpushed": 6428,
      "Ġcounty": 6429,
      "Ġfrancisco": 6430,
      "goer": 6431,
      "going": 6432,
      "Ġbomber": 6433,
      "Ġexecutives": 6434,
      "Ġbillionaire": 6435,
      "Ġprepare": 6436,
      "Ġmindful": 6437,
      "Ġcollabor": 6438,
      "Ġdestruction": 6439,
      "Ġremembering": 6440,
      "world": 6441,
      "Ġcapture": 6442,
      "Ġcaptures": 6443,
      "Ġmotiv": 6444,
      "Ġescal": 6445,
      "Ġdrawer": 6446,
      "Ġdrawing": 6447,
      "Ġsquare": 6448,
      "Ġdesperately": 6449,
      "Ġgenerations": 6450,
      "Ġairline": 6451,
      "Ġriding": 6452,
      "Ġhairst": 6453,
      "Ġbriefly": 6454,
      "Ġexpecting": 6455,
      "Ġwelcomes": 6456,
      "Ġaffleck": 6457,
      "Ġcrackdown": 6458,
      "Ġprofessional": 6459,
      "Ġallowed": 6460,
      "Ġdetermine": 6461,
      "Ġbenefit": 6462,
      "Ġcircle": 6463,
      "Ġdeveloping": 6464,
      "Ġtraditional": 6465,
      "Ġjuly": 6466,
      "Ġdisgusted": 6467,
      "burg": 6468,
      "Ġfranken": 6469,
      "Ġgrowth": 6470,
      "Ġkennedy": 6471,
      "Ġacquires": 6472,
      "Ġendorses": 6473,
      "Ġencouraging": 6474,
      "Ġinfluence": 6475,
      "Ġextremely": 6476,
      "Ġticket": 6477,
      "Ġpodcast": 6478,
      "Ġhypocrisy": 6479,
      "Ġdishes": 6480,
      "Ġdistrict": 6481,
      "Ġeasier": 6482,
      "Ġeggs": 6483,
      "Ġconsumers": 6484,
      "Ġemerges": 6485,
      "Ġchoose": 6486,
      "Ġexplosion": 6487,
      "Ġlevels": 6488,
      "Ġaccepts": 6489,
      "Ġprosecutor": 6490,
      "Ġpilot": 6491,
      "Ġadvocates": 6492,
      "Ġtools": 6493,
      "Ġdeputy": 6494,
      "Ġprincip": 6495,
      "Ġexhibit": 6496,
      "Ġcousin": 6497,
      "Ġcensus": 6498,
      "Ġquarter": 6499,
      "Ġsterling": 6500,
      "Ġhannity": 6501,
      "Ġdelivery": 6502,
      "Ġnightmare": 6503,
      "Ġfundraising": 6504,
      "Ġnostalgic": 6505,
      "Ġvulner": 6506,
      "Ġgraphic": 6507,
      "Ġarchaeologists": 6508,
      "Ġkasich": 6509,
      "Ġbrooklyn": 6510,
      "Ġagenda": 6511,
      "Ġcommencement": 6512,
      "Ġmuhammad": 6513,
      "Ġgalaxy": 6514,
      "Ġastronomers": 6515,
      "Ġwitness": 6516,
      "Ġnypd": 6517,
      "Ġchocolate": 6518,
      "Ġsupporter": 6519,
      "comfortable": 6520,
      "bell": 6521,
      "case": 6522,
      "good": 6523,
      "gage": 6524,
      "iat": 6525,
      "kish": 6526,
      "lake": 6527,
      "oat": 6528,
      "pal": 6529,
      "person": 6530,
      "rig": 6531,
      "sat": 6532,
      "sem": 6533,
      "size": 6534,
      "spe": 6535,
      "tt": 6536,
      "tive": 6537,
      "uable": 6538,
      "vers": 6539,
      "west": 6540,
      "xon": 6541,
      "xit": 6542,
      "zed": 6543,
      "Ã¡": 6544,
      "Ġens": 6545,
      "inter": 6546,
      "Ġtes": 6547,
      "Ġtied": 6548,
      "Ġsant": 6549,
      "Ġsons": 6550,
      "Ġsuck": 6551,
      "Ġcore": 6552,
      "Ġwi": 6553,
      "Ġwet": 6554,
      "Ġwore": 6555,
      "Ġfing": 6556,
      "Ġfate": 6557,
      "Ġfab": 6558,
      "Ġfights": 6559,
      "Ġfoods": 6560,
      "Ġfounder": 6561,
      "Ġbay": 6562,
      "Ġbie": 6563,
      "Ġbound": 6564,
      "Ġbother": 6565,
      "Ġbitch": 6566,
      "Ġmish": 6567,
      "Ġmouse": 6568,
      "Ġpitt": 6569,
      "Ġpink": 6570,
      "Ġhou": 6571,
      "Ġhog": 6572,
      "Ġholl": 6573,
      "Ġhipp": 6574,
      "Ġduck": 6575,
      "Ġdorm": 6576,
      "aled": 6577,
      "isa": 6578,
      "Ġtouts": 6579,
      "Ġlun": 6580,
      "Ġload": 6581,
      "Ġlazy": 6582,
      "Ġlapt": 6583,
      "Ġner": 6584,
      "Ġnails": 6585,
      "icts": 6586,
      "ician": 6587,
      "Ġiniti": 6588,
      "omy": 6589,
      "Ġreact": 6590,
      "stit": 6591,
      "olves": 6592,
      "Ġstan": 6593,
      "Ġstir": 6594,
      "Ġstret": 6595,
      "Ġrit": 6596,
      "Ġrating": 6597,
      "Ġross": 6598,
      "Ġrivers": 6599,
      "Ġrises": 6600,
      "Ġrocks": 6601,
      "Ġfort": 6602,
      "amin": 6603,
      "uted": 6604,
      "immer": 6605,
      "Ġjunk": 6606,
      "Ġjazz": 6607,
      "Ġyellow": 6608,
      "Ġka": 6609,
      "Ġkoch": 6610,
      "illiant": 6611,
      "tering": 6612,
      "Ġcham": 6613,
      "Ġchase": 6614,
      "cher": 6615,
      "Ġshred": 6616,
      "Ġshuts": 6617,
      "Ġbeats": 6618,
      "Ġbears": 6619,
      "Ġvar": 6620,
      "Ġvag": 6621,
      "Ġdeals": 6622,
      "ooks": 6623,
      "Ġfrat": 6624,
      "andering": 6625,
      "ulf": 6626,
      "uls": 6627,
      "Ġnewest": 6628,
      "estyle": 6629,
      "Ġconcept": 6630,
      "Ġconsequ": 6631,
      "osi": 6632,
      "Ġally": 6633,
      "isters": 6634,
      "ivia": 6635,
      "ocal": 6636,
      "Ġunw": 6637,
      "Ġunarmed": 6638,
      "Ġabove": 6639,
      "uster": 6640,
      "ria": 6641,
      "rial": 6642,
      "update": 6643,
      "Ġleon": 6644,
      "Ġlebr": 6645,
      "Ġleaked": 6646,
      "Ġdole": 6647,
      "Ġcrown": 6648,
      "Ġgray": 6649,
      "Ġgrill": 6650,
      "Ġgroc": 6651,
      "Ġgrief": 6652,
      "assy": 6653,
      "Ġblocks": 6654,
      "Ġscore": 6655,
      "Ġdonation": 6656,
      "sea": 6657,
      "Ġgoals": 6658,
      "Ġdram": 6659,
      "Ġdrives": 6660,
      "Ġmeant": 6661,
      "Ġpolar": 6662,
      "Ġprefer": 6663,
      "Ġagency": 6664,
      "athan": 6665,
      "Ġorange": 6666,
      "Ġquotes": 6667,
      "Ġflames": 6668,
      "Ġphrase": 6669,
      "Ġpresents": 6670,
      "Ġcarly": 6671,
      "Ġcarbon": 6672,
      "Ġfeed": 6673,
      "Ġfebruary": 6674,
      "Ġcontains": 6675,
      "Ġcontrib": 6676,
      "ibr": 6677,
      "Ġjoan": 6678,
      "Ġexpress": 6679,
      "Ġremark": 6680,
      "Ġremote": 6681,
      "Ġbread": 6682,
      "Ġslip": 6683,
      "Ġdecor": 6684,
      "ancing": 6685,
      "Ġstring": 6686,
      "Ġdeserves": 6687,
      "Ġsmell": 6688,
      "Ġsmoking": 6689,
      "Ġtwice": 6690,
      "Ġmonument": 6691,
      "Ġstaring": 6692,
      "Ġassure": 6693,
      "Ġincome": 6694,
      "Ġhighlights": 6695,
      "orders": 6696,
      "Ġcoal": 6697,
      "Ġwriters": 6698,
      "Ġturkish": 6699,
      "Ġunderwear": 6700,
      "Ġbanana": 6701,
      "Ġindicted": 6702,
      "Ġcourage": 6703,
      "Ġdebates": 6704,
      "Ġholoca": 6705,
      "Ġdepressing": 6706,
      "Ġpoison": 6707,
      "Ġbars": 6708,
      "Ġseeking": 6709,
      "Ġselfie": 6710,
      "Ġlocation": 6711,
      "Ġvisible": 6712,
      "Ġjohnny": 6713,
      "contr": 6714,
      "Ġdelight": 6715,
      "Ġbirds": 6716,
      "Ġbreakup": 6717,
      "Ġsnap": 6718,
      "Ġmiley": 6719,
      "Ġgrandpa": 6720,
      "Ġpatron": 6721,
      "Ġopenly": 6722,
      "scri": 6723,
      "Ġregister": 6724,
      "Ġrobin": 6725,
      "Ġmassacre": 6726,
      "umbles": 6727,
      "Ġsuspected": 6728,
      "Ġsuspicious": 6729,
      "Ġspecif": 6730,
      "Ġscientific": 6731,
      "Ġsalad": 6732,
      "Ġcomplex": 6733,
      "Ġstreep": 6734,
      "Ġsurprises": 6735,
      "Ġvaluable": 6736,
      "Ġraised": 6737,
      "Ġpete": 6738,
      "Ġloving": 6739,
      "Ġsimpson": 6740,
      "Ġproducers": 6741,
      "Ġwildfire": 6742,
      "Ġprisoners": 6743,
      "Ġheroic": 6744,
      "Ġrepeat": 6745,
      "Ġsmaller": 6746,
      "Ġapologize": 6747,
      "Ġterrorists": 6748,
      "Ġstormy": 6749,
      "Ġtargets": 6750,
      "Ġruins": 6751,
      "Ġinjury": 6752,
      "Ġcambridge": 6753,
      "Ġveh": 6754,
      "Ġsadly": 6755,
      "Ġuncle": 6756,
      "Ġuncover": 6757,
      "Ġmelt": 6758,
      "Ġdamn": 6759,
      "Ġwindows": 6760,
      "Ġrebel": 6761,
      "Ġflynn": 6762,
      "Ġcriticized": 6763,
      "Ġfacing": 6764,
      "Ġbedroom": 6765,
      "Ġbankrupt": 6766,
      "Ġsquad": 6767,
      "Ġrequires": 6768,
      "Ġcivilians": 6769,
      "Ġwasted": 6770,
      "Ġdestroyed": 6771,
      "Ġlimit": 6772,
      "Ġbriefing": 6773,
      "Ġislamophob": 6774,
      "Ġignore": 6775,
      "Ġkris": 6776,
      "Ġacceptance": 6777,
      "Ġliberal": 6778,
      "Ġanswers": 6779,
      "Ġstrateg": 6780,
      "Ġundoc": 6781,
      "Ġwheels": 6782,
      "Ġtempor": 6783,
      "Ġjumps": 6784,
      "Ġshrimp": 6785,
      "Ġmulti": 6786,
      "Ġjanuary": 6787,
      "writer": 6788,
      "Ġmigrant": 6789,
      "Ġfeminism": 6790,
      "Ġpraises": 6791,
      "Ġexistence": 6792,
      "Ġoptim": 6793,
      "Ġpepper": 6794,
      "Ġagreement": 6795,
      "Ġorigin": 6796,
      "Ġencourages": 6797,
      "Ġconsidered": 6798,
      "Ġmountain": 6799,
      "Ġnervously": 6800,
      "Ġpolitician": 6801,
      "Ġpalestinians": 6802,
      "Ġobsessed": 6803,
      "girlfriend": 6804,
      "Ġnegot": 6805,
      "Ġnegative": 6806,
      "Ġnominations": 6807,
      "Ġindependence": 6808,
      "walk": 6809,
      "Ġbrian": 6810,
      "Ġclarifies": 6811,
      "Ġobviously": 6812,
      "Ġsheriff": 6813,
      "second": 6814,
      "Ġalternative": 6815,
      "Ġathlet": 6816,
      "Ġgentr": 6817,
      "Ġkendrick": 6818,
      "Ġhorses": 6819,
      "Ġlindsey": 6820,
      "Ġugly": 6821,
      "Ġlaura": 6822,
      "Ġrecruit": 6823,
      "Ġmontana": 6824,
      "Ġinnocent": 6825,
      "Ġlanguage": 6826,
      "Ġchaos": 6827,
      "Ġanthony": 6828,
      "Ġvideos": 6829,
      "Ġguitar": 6830,
      "Ġbacklash": 6831,
      "Ġpelosi": 6832,
      "Ġstereotyp": 6833,
      "Ġtragedy": 6834,
      "Ġspielberg": 6835,
      "Ġgrieving": 6836,
      "Ġgrandson": 6837,
      "Ġcanadian": 6838,
      "Ġgrandparents": 6839,
      "Ġtimberlake": 6840,
      "Ġtesla": 6841,
      "Ġbieber": 6842,
      "Ġhouston": 6843,
      "Ġlaptop": 6844,
      "Ġlebron": 6845,
      "Ġholocaust": 6846,
      ".,": 6847,
      "14": 6848,
      "200": 6849,
      "40": 6850,
      "bac": 6851,
      "but": 6852,
      "bir": 6853,
      "bab": 6854,
      "bie": 6855,
      "bage": 6856,
      "cas": 6857,
      "dep": 6858,
      "eor": 6859,
      "fi": 6860,
      "fly": 6861,
      "got": 6862,
      "gilmore": 6863,
      "hist": 6864,
      "jud": 6865,
      "ka": 6866,
      "kind": 6867,
      "lie": 6868,
      "mn": 6869,
      "maid": 6870,
      "nel": 6871,
      "oj": 6872,
      "ozen": 6873,
      "pol": 6874,
      "pse": 6875,
      "page": 6876,
      "qaeda": 6877,
      "rum": 6878,
      "rob": 6879,
      "top": 6880,
      "tail": 6881,
      "za": 6882,
      "zuel": 6883,
      "Ġtum": 6884,
      "erable": 6885,
      "Ġaqu": 6886,
      "Ġske": 6887,
      "Ġsau": 6888,
      "Ġcere": 6889,
      "Ġcertain": 6890,
      "anmar": 6891,
      "Ġwis": 6892,
      "Ġwik": 6893,
      "Ġwoods": 6894,
      "Ġwestern": 6895,
      "Ġfu": 6896,
      "Ġfare": 6897,
      "Ġfior": 6898,
      "ora": 6899,
      "Ġbip": 6900,
      "Ġbash": 6901,
      "Ġbacter": 6902,
      "esc": 6903,
      "Ġmas": 6904,
      "Ġpace": 6905,
      "Ġpets": 6906,
      "Ġhay": 6907,
      "Ġhut": 6908,
      "Ġdy": 6909,
      "Ġdac": 6910,
      "Ġdod": 6911,
      "Ġdyn": 6912,
      "Ġoath": 6913,
      "Ġoct": 6914,
      "alo": 6915,
      "isan": 6916,
      "itable": 6917,
      "itating": 6918,
      "Ġlap": 6919,
      "Ġlift": 6920,
      "Ġlane": 6921,
      "Ġlived": 6922,
      "Ġnative": 6923,
      "Ġnsa": 6924,
      "Ġnutr": 6925,
      "Ġnelson": 6926,
      "icon": 6927,
      "icate": 6928,
      "Ġgig": 6929,
      "Ġgab": 6930,
      "Ġreid": 6931,
      "Ġreop": 6932,
      "elsea": 6933,
      "leans": 6934,
      "step": 6935,
      "etimes": 6936,
      "acc": 6937,
      "oln": 6938,
      "Ġsty": 6939,
      "Ġstole": 6940,
      "Ġstressed": 6941,
      "Ġeight": 6942,
      "Ġramp": 6943,
      "idel": 6944,
      "Ġanal": 6945,
      "Ġtri": 6946,
      "Ġtracks": 6947,
      "ader": 6948,
      "imm": 6949,
      "umed": 6950,
      "Ġjill": 6951,
      "Ġneur": 6952,
      "Ġkit": 6953,
      "Ġkur": 6954,
      "Ġshout": 6955,
      "Ġshell": 6956,
      "Ġsharing": 6957,
      "opter": 6958,
      "opher": 6959,
      "opard": 6960,
      "opping": 6961,
      "there": 6962,
      "Ġvl": 6963,
      "Ġvp": 6964,
      "Ġvene": 6965,
      "Ġprost": 6966,
      "Ġprank": 6967,
      "Ġfrozen": 6968,
      "ifts": 6969,
      "ula": 6970,
      "ulate": 6971,
      "earth": 6972,
      "osaur": 6973,
      "Ġunkn": 6974,
      "Ġabused": 6975,
      "emed": 6976,
      "Ġsport": 6977,
      "Ġspain": 6978,
      "Ġspice": 6979,
      "Ġsparks": 6980,
      "Ġextr": 6981,
      "Ġexxon": 6982,
      "Ġclerk": 6983,
      "odes": 6984,
      "Ġplate": 6985,
      "agues": 6986,
      "Ġdoors": 6987,
      "Ġcruc": 6988,
      "oster": 6989,
      "Ġadding": 6990,
      "ubble": 6991,
      "Ġscri": 6992,
      "Ġscary": 6993,
      "Ġscouts": 6994,
      "plane": 6995,
      "Ġdiss": 6996,
      "Ġmarks": 6997,
      "Ġobese": 6998,
      "Ġobjects": 6999,
      "Ġresort": 7000,
      "Ġresolution": 7001,
      "Ġresolut": 7002,
      "bery": 7003,
      "Ġpean": 7004,
      "Ġorleans": 7005,
      "ishing": 7006,
      "Ġrecess": 7007,
      "Ġeleph": 7008,
      "Ġquiz": 7009,
      "Ġflat": 7010,
      "Ġfloods": 7011,
      "Ġphase": 7012,
      "Ġeverybody": 7013,
      "ample": 7014,
      "Ġcarn": 7015,
      "mann": 7016,
      "manuel": 7017,
      "issions": 7018,
      "Ġ300": 7019,
      "Ġmyanmar": 7020,
      "Ġ500": 7021,
      "Ġevil": 7022,
      "Ġevents": 7023,
      "Ġevangel": 7024,
      "Ġbills": 7025,
      "Ġbillboard": 7026,
      "Ġmakeover": 7027,
      "Ġinterf": 7028,
      "Ġinterrup": 7029,
      "Ġawak": 7030,
      "Ġsurf": 7031,
      "Ġsheer": 7032,
      "Ġaccuses": 7033,
      "Ġslide": 7034,
      "Ġrealized": 7035,
      "Ġdece": 7036,
      "Ġassaul": 7037,
      "Ġparl": 7038,
      "Ġbigot": 7039,
      "thew": 7040,
      "Ġglor": 7041,
      "Ġwrote": 7042,
      "Ġmini": 7043,
      "Ġconsecut": 7044,
      "Ġinvent": 7045,
      "Ġholy": 7046,
      "Ġ75": 7047,
      "Ġirma": 7048,
      "Ġswims": 7049,
      "Ġswears": 7050,
      "Ġletters": 7051,
      "Ġhappening": 7052,
      "Ġearn": 7053,
      "Ġ85": 7054,
      "Ġ98": 7055,
      "Ġstopped": 7056,
      "Ġskull": 7057,
      "Ġsketch": 7058,
      "Ġboyc": 7059,
      "Ġfiles": 7060,
      "Ġdaddy": 7061,
      "Ġdelays": 7062,
      "Ġburned": 7063,
      "Ġexploring": 7064,
      "Ġdetained": 7065,
      "Ġtowards": 7066,
      "phy": 7067,
      "Ġexcuse": 7068,
      "Ġmenu": 7069,
      "friends": 7070,
      "Ġsteal": 7071,
      "Ġstealing": 7072,
      "health": 7073,
      "Ġhomeland": 7074,
      "Ġairplane": 7075,
      "Ġregistry": 7076,
      "Ġroberts": 7077,
      "Ġnorthern": 7078,
      "Ġclassified": 7079,
      "Ġclassmate": 7080,
      "Ġpromised": 7081,
      "Ġlaure": 7082,
      "Ġurged": 7083,
      "clad": 7084,
      "Ġhonoring": 7085,
      "Ġvalues": 7086,
      "Ġinstall": 7087,
      "Ġ198": 7088,
      "hingya": 7089,
      "umented": 7090,
      "Ġinvestigating": 7091,
      "Ġsilent": 7092,
      "Ġefforts": 7093,
      "Ġdiscovering": 7094,
      "Ġiranian": 7095,
      "Ġshots": 7096,
      "Ġcustody": 7097,
      "Ġtourists": 7098,
      "Ġcauc": 7099,
      "Ġclosed": 7100,
      "Ġdropping": 7101,
      "Ġinspir": 7102,
      "Ġordered": 7103,
      "Ġpleads": 7104,
      "Ġspray": 7105,
      "Ġteaching": 7106,
      "Ġpaint": 7107,
      "Ġkeys": 7108,
      "Ġballot": 7109,
      "Ġballoon": 7110,
      "Ġinfr": 7111,
      "Ġinfant": 7112,
      "Ġruined": 7113,
      "iveness": 7114,
      "Ġrevealing": 7115,
      "Ġstunt": 7116,
      "Ġcollapse": 7117,
      "Ġmeryl": 7118,
      "incoln": 7119,
      "Ġcompliment": 7120,
      "Ġcastle": 7121,
      "Ġprivacy": 7122,
      "Ġrebu": 7123,
      "Ġsatell": 7124,
      "Ġautism": 7125,
      "Ġbags": 7126,
      "Ġbully": 7127,
      "Ġbullying": 7128,
      "Ġproced": 7129,
      "Ġdraws": 7130,
      "Ġreviews": 7131,
      "Ġgarbage": 7132,
      "Ġemotion": 7133,
      "Ġattendant": 7134,
      "Ġattendees": 7135,
      "holds": 7136,
      "Ġcitizen": 7137,
      "Ġhilariously": 7138,
      "Ġlouisiana": 7139,
      "Ġinteresting": 7140,
      "Ġcasually": 7141,
      "Ġarrives": 7142,
      "Ġpredict": 7143,
      "Ġgraduation": 7144,
      "Ġinclud": 7145,
      "Ġinclude": 7146,
      "Ġsoldiers": 7147,
      "Ġsuffering": 7148,
      "Ġconstitu": 7149,
      "Ġladies": 7150,
      "Ġtradition": 7151,
      "Ġresponsibility": 7152,
      "Ġfarmers": 7153,
      "Ġfantas": 7154,
      "Ġrohingya": 7155,
      "Ġembarrassing": 7156,
      "Ġkhloe": 7157,
      "know": 7158,
      "Ġimagine": 7159,
      "Ġaliens": 7160,
      "Ġdisabilities": 7161,
      "Ġsmartphone": 7162,
      "Ġindiana": 7163,
      "Ġeuropean": 7164,
      "front": 7165,
      "Ġtearful": 7166,
      "Ġtickets": 7167,
      "Ġjailed": 7168,
      "through": 7169,
      "Ġoutrage": 7170,
      "Ġphysical": 7171,
      "Ġmourns": 7172,
      "Ġmasturbating": 7173,
      "Ġkaty": 7174,
      "Ġdefinitely": 7175,
      "Ġcanceled": 7176,
      "Ġwidow": 7177,
      "Ġmaryland": 7178,
      "Ġhousing": 7179,
      "Ġvillage": 7180,
      "Ġappeal": 7181,
      "Ġfirefight": 7182,
      "Ġfirefighter": 7183,
      "Ġjerusal": 7184,
      "Ġvaccine": 7185,
      "Ġanalyst": 7186,
      "Ġpatrons": 7187,
      "Ġopposition": 7188,
      "Ġexperiences": 7189,
      "Ġsettlement": 7190,
      "Ġbuilt": 7191,
      "Ġwheelchair": 7192,
      "Ġtragic": 7193,
      "Ġpopulace": 7194,
      "Ġjosh": 7195,
      "Ġspanish": 7196,
      "Ġscrambling": 7197,
      "Ġlibrary": 7198,
      "Ġsiblings": 7199,
      "Ġmaterial": 7200,
      "Ġwhispers": 7201,
      "Ġmultiple": 7202,
      "Ġconcerns": 7203,
      "Ġaccompl": 7204,
      "family": 7205,
      "Ġstomach": 7206,
      "Ġneutrality": 7207,
      "Ġinitiative": 7208,
      "Ġleonard": 7209,
      "Ġgrocery": 7210,
      "Ġundocumented": 7211,
      "zuela": 7212,
      "Ġfiorina": 7213,
      "Ġvenezuela": 7214,
      "Ġresolutions": 7215,
      "Ġconsecutive": 7216,
      "Ġjerusalem": 7217,
      ".-": 7218,
      "13": 7219,
      "25": 7220,
      "70": 7221,
      "avery": 7222,
      "bat": 7223,
      "bow": 7224,
      "bad": 7225,
      "cting": 7226,
      "eath": 7227,
      "ga": 7228,
      "gun": 7229,
      "iate": 7230,
      "iqu": 7231,
      "iary": 7232,
      "ked": 7233,
      "lu": 7234,
      "lands": 7235,
      "lord": 7236,
      "mid": 7237,
      "mod": 7238,
      "mail": 7239,
      "pay": 7240,
      "pose": 7241,
      "run": 7242,
      "ser": 7243,
      "tw": 7244,
      "tz": 7245,
      "uk": 7246,
      "ule": 7247,
      "vs": 7248,
      "wa": 7249,
      "wi": 7250,
      "wed": 7251,
      "wise": 7252,
      "inced": 7253,
      "initely": 7254,
      "Ġtens": 7255,
      "Ġais": 7256,
      "Ġaim": 7257,
      "Ġaug": 7258,
      "Ġaustin": 7259,
      "Ġsail": 7260,
      "Ġsach": 7261,
      "Ġsits": 7262,
      "Ġsoup": 7263,
      "Ġselves": 7264,
      "reet": 7265,
      "Ġcoc": 7266,
      "Ġcable": 7267,
      "Ġcyn": 7268,
      "anz": 7269,
      "anning": 7270,
      "Ġwing": 7271,
      "Ġwings": 7272,
      "Ġwreck": 7273,
      "Ġwendy": 7274,
      "Ġfence": 7275,
      "Ġfellow": 7276,
      "orous": 7277,
      "Ġbes": 7278,
      "Ġbump": 7279,
      "Ġbass": 7280,
      "Ġbug": 7281,
      "Ġbought": 7282,
      "Ġbased": 7283,
      "Ġbites": 7284,
      "esa": 7285,
      "esity": 7286,
      "Ġmit": 7287,
      "Ġmock": 7288,
      "Ġpa": 7289,
      "Ġpals": 7290,
      "Ġpanda": 7291,
      "Ġpowers": 7292,
      "Ġpocket": 7293,
      "Ġhire": 7294,
      "Ġheck": 7295,
      "Ġhij": 7296,
      "Ġhobby": 7297,
      "Ġhaven": 7298,
      "Ġhugh": 7299,
      "Ġhiding": 7300,
      "Ġhidden": 7301,
      "Ġdil": 7302,
      "Ġdame": 7303,
      "Ġdough": 7304,
      "Ġdiam": 7305,
      "Ġod": 7306,
      "Ġthumb": 7307,
      "ali": 7308,
      "ouri": 7309,
      "Ġlays": 7310,
      "Ġnpr": 7311,
      "icopter": 7312,
      "Ġgill": 7313,
      "Ġgri": 7314,
      "Ġgina": 7315,
      "Ġgreek": 7316,
      "Ġrehab": 7317,
      "elp": 7318,
      "eling": 7319,
      "lem": 7320,
      "station": 7321,
      "steen": 7322,
      "Ġeag": 7323,
      "Ġrall": 7324,
      "Ġrings": 7325,
      "Ġrover": 7326,
      "Ġrih": 7327,
      "ids": 7328,
      "Ġanton": 7329,
      "Ġtra": 7330,
      "Ġtrillion": 7331,
      "Ġjune": 7332,
      "uries": 7333,
      "Ġnegle": 7334,
      "Ġkar": 7335,
      "Ġkinder": 7336,
      "terms": 7337,
      "Ġchant": 7338,
      "Ġchart": 7339,
      "Ġchelsea": 7340,
      "chat": 7341,
      "Ġshared": 7342,
      "Ġshoe": 7343,
      "aky": 7344,
      "they": 7345,
      "Ġbean": 7346,
      "Ġbeard": 7347,
      "Ġvow": 7348,
      "Ġvent": 7349,
      "Ġprices": 7350,
      "Ġwithdr": 7351,
      "oses": 7352,
      "acked": 7353,
      "Ġasp": 7354,
      "Ġasleep": 7355,
      "Ġhey": 7356,
      "Ġhealing": 7357,
      "Ġunif": 7358,
      "Ġuncomfortable": 7359,
      "Ġabd": 7360,
      "Ġabort": 7361,
      "Ġabusive": 7362,
      "eman": 7363,
      "Ġspouse": 7364,
      "Ġspokes": 7365,
      "iev": 7366,
      "ucts": 7367,
      "Ġseg": 7368,
      "Ġseats": 7369,
      "rive": 7370,
      "Ġouts": 7371,
      "Ġplaced": 7372,
      "Ġleather": 7373,
      "Ġacknow": 7374,
      "Ġdoj": 7375,
      "Ġgrab": 7376,
      "Ġgrant": 7377,
      "Ġcannon": 7378,
      "Ġbrady": 7379,
      "Ġbrilliant": 7380,
      "assed": 7381,
      "Ġblake": 7382,
      "Ġark": 7383,
      "epern": 7384,
      "pless": 7385,
      "Ġdraft": 7386,
      "Ġmarsh": 7387,
      "Ġovertur": 7388,
      "Ġobesity": 7389,
      "Ġhispan": 7390,
      "Ġhash": 7391,
      "Ġemma": 7392,
      "Ġagg": 7393,
      "Ġimper": 7394,
      "Ġsuppl": 7395,
      "Ġord": 7396,
      "Ġelev": 7397,
      "Ġelabor": 7398,
      "Ġqual": 7399,
      "Ġquite": 7400,
      "Ġquits": 7401,
      "Ġench": 7402,
      "Ġenforce": 7403,
      "Ġguant": 7404,
      "Ġcolumn": 7405,
      "Ġwarner": 7406,
      "appy": 7407,
      "inding": 7408,
      "issa": 7409,
      "actor": 7410,
      "ushing": 7411,
      "Ġsched": 7412,
      "itted": 7413,
      "azed": 7414,
      "nsfw": 7415,
      "Ġevol": 7416,
      "Ġpartners": 7417,
      "Ġexpans": 7418,
      "onsense": 7419,
      "Ġdems": 7420,
      "Ġremake": 7421,
      "Ġsexism": 7422,
      "Ġbrexit": 7423,
      "Ġslain": 7424,
      "onda": 7425,
      "Ġdecre": 7426,
      "Ġcommit": 7427,
      "anced": 7428,
      "Ġstrang": 7429,
      "Ġseniors": 7430,
      "Ġ2012": 7431,
      "Ġcamps": 7432,
      "Ġowns": 7433,
      "Ġhelicopter": 7434,
      "Ġstarving": 7435,
      "Ġassad": 7436,
      "Ġparts": 7437,
      "Ġparks": 7438,
      "Ġserena": 7439,
      "Ġcoat": 7440,
      "Ġdebut": 7441,
      "ahm": 7442,
      "Ġdiscont": 7443,
      "Ġze": 7444,
      "Ġtransl": 7445,
      "Ġtransforms": 7446,
      "Ġweekly": 7447,
      "Ġirish": 7448,
      "Ġendorse": 7449,
      "Ġchristopher": 7450,
      "Ġmissouri": 7451,
      "Ġbarr": 7452,
      "Ġswing": 7453,
      "Ġcarey": 7454,
      "Ġcarefully": 7455,
      "Ġcolleagues": 7456,
      "Ġcleans": 7457,
      "Ġattacking": 7458,
      "stranger": 7459,
      "strapped": 7460,
      "Ġdemocrat": 7461,
      "Ġdelay": 7462,
      "Ġgene": 7463,
      "Ġgenoc": 7464,
      "Ġheadline": 7465,
      "Ġbreakthrough": 7466,
      "Ġsnake": 7467,
      "Ġmidnight": 7468,
      "Ġmidterms": 7469,
      "Ġrevival": 7470,
      "Ġmoral": 7471,
      "Ġreduc": 7472,
      "Ġconvinced": 7473,
      "phones": 7474,
      "Ġrussians": 7475,
      "Ġsteam": 7476,
      "ucture": 7477,
      "Ġimpressive": 7478,
      "Ġrestore": 7479,
      "Ġhomophob": 7480,
      "Ġgreater": 7481,
      "Ġcurb": 7482,
      "Ġbusinessman": 7483,
      "friendly": 7484,
      "lessly": 7485,
      "Ġurine": 7486,
      "Ġadded": 7487,
      "Ġfilming": 7488,
      "Ġreaders": 7489,
      "Ġbeneath": 7490,
      "Ġsometimes": 7491,
      "club": 7492,
      "erved": 7493,
      "ikh": 7494,
      "Ġstandard": 7495,
      "Ġcostumes": 7496,
      "Ġcritical": 7497,
      "Ġmodels": 7498,
      "Ġvirt": 7499,
      "Ġcommunic": 7500,
      "ception": 7501,
      "Ġwildly": 7502,
      "âĢĵ": 7503,
      "Ġmentions": 7504,
      "Ġdinosaur": 7505,
      "who": 7506,
      "Ġtreated": 7507,
      "Ġsouthern": 7508,
      "Ġpushing": 7509,
      "Ġdeny": 7510,
      "Ġclosing": 7511,
      "driving": 7512,
      "Ġhalfway": 7513,
      "Ġpenal": 7514,
      "Ġrolling": 7515,
      "Ġviewer": 7516,
      "Ġsuccessfully": 7517,
      "Ġmurdered": 7518,
      "Ġtriple": 7519,
      "Ġhorrific": 7520,
      "Ġmeteor": 7521,
      "Ġconversations": 7522,
      "Ġspots": 7523,
      "Ġspotlight": 7524,
      "Ġpreparing": 7525,
      "backed": 7526,
      "Ġstaffer": 7527,
      "Ġdoubt": 7528,
      "Ġstunned": 7529,
      "Ġmerger": 7530,
      "Ġmerkel": 7531,
      "Ġconstant": 7532,
      "Ġunclear": 7533,
      "Ġarrests": 7534,
      "Ġdrunken": 7535,
      "Ġphilip": 7536,
      "Ġphilipp": 7537,
      "Ġturnout": 7538,
      "Ġdamon": 7539,
      "ophy": 7540,
      "Ġcomplicated": 7541,
      "Ġdisappear": 7542,
      "iament": 7543,
      "Ġbudd": 7544,
      "Ġcharleston": 7545,
      "Ġgarage": 7546,
      "Ġgarner": 7547,
      "Ġconservation": 7548,
      "Ġrequire": 7549,
      "Ġbeyonce": 7550,
      "Ġeaten": 7551,
      "Ġcups": 7552,
      "Ġabsence": 7553,
      "Ġloan": 7554,
      "Ġfatal": 7555,
      "death": 7556,
      "Ġsalesman": 7557,
      "Ġexpectations": 7558,
      "Ġignores": 7559,
      "Ġmemories": 7560,
      "Ġgraduate": 7561,
      "Ġjews": 7562,
      "Ġincludes": 7563,
      "Ġincredibly": 7564,
      "Ġcorporation": 7565,
      "Ġrapidly": 7566,
      "Ġdevelopment": 7567,
      "glasses": 7568,
      "Ġmixed": 7569,
      "Ġweapon": 7570,
      "Ġconfirmation": 7571,
      "Ġtemper": 7572,
      "Ġtroubling": 7573,
      "Ġawkwardly": 7574,
      "Ġsandwiches": 7575,
      "Ġoval": 7576,
      "nament": 7577,
      "Ġhanging": 7578,
      "warming": 7579,
      "Ġmosqu": 7580,
      "Ġthompson": 7581,
      "Ġobsession": 7582,
      "Ġinvolves": 7583,
      "Ġinvolved": 7584,
      "Ġcharlotte": 7585,
      "Ġbasic": 7586,
      "Ġaccusations": 7587,
      "Ġreflect": 7588,
      "Ġmortgage": 7589,
      "Ġrejects": 7590,
      "Ġsells": 7591,
      "Ġblasted": 7592,
      "Ġgermany": 7593,
      "Ġrestrictions": 7594,
      "Ġabroad": 7595,
      "Ġhouses": 7596,
      "Ġinstructor": 7597,
      "Ġutter": 7598,
      "astructure": 7599,
      "Ġweighs": 7600,
      "Ġappeals": 7601,
      "Ġaccepting": 7602,
      "Ġseparate": 7603,
      "Ġlonely": 7604,
      "Ġlynch": 7605,
      "Ġpatrol": 7606,
      "orette": 7607,
      "Ġcdc": 7608,
      "Ġassociation": 7609,
      "Ġswimming": 7610,
      "Ġtreasury": 7611,
      "Ġtennis": 7612,
      "Ġaffected": 7613,
      "muslim": 7614,
      "Ġsacr": 7615,
      "Ġheavy": 7616,
      "ĠcafÃ©": 7617,
      "Ġfolks": 7618,
      "Ġbachelor": 7619,
      "Ġkristen": 7620,
      "Ġclooney": 7621,
      "Ġscholar": 7622,
      "Ġdreading": 7623,
      "Ġcertific": 7624,
      "Ġrisks": 7625,
      "Ġalaska": 7626,
      "Ġvulnerable": 7627,
      "saturday": 7628,
      "Ġkaepern": 7629,
      "Ġspecifically": 7630,
      "Ġsauce": 7631,
      "Ġbacteria": 7632,
      "Ġdaca": 7633,
      "Ġscript": 7634,
      "Ġparliament": 7635,
      "Ġinfrastructure": 7636,
      "Ġaisle": 7637,
      "Ġrallies": 7638,
      "Ġrihanna": 7639,
      "Ġkaepernick": 7640,
      "bear": 7641,
      "bachel": 7642,
      "ci": 7643,
      "cat": 7644,
      "dra": 7645,
      "dling": 7646,
      "door": 7647,
      "fund": 7648,
      "gart": 7649,
      "gener": 7650,
      "hy": 7651,
      "iol": 7652,
      "iber": 7653,
      "iated": 7654,
      "lo": 7655,
      "lago": 7656,
      "loving": 7657,
      "mat": 7658,
      "may": 7659,
      "mons": 7660,
      "million": 7661,
      "nd": 7662,
      "name": 7663,
      "noon": 7664,
      "put": 7665,
      "pop": 7666,
      "pres": 7667,
      "press": 7668,
      "rist": 7669,
      "rog": 7670,
      "tal": 7671,
      "uals": 7672,
      "vy": 7673,
      "vada": 7674,
      "zos": 7675,
      "Ġicy": 7676,
      "inn": 7677,
      "inch": 7678,
      "inity": 7679,
      "Ġtie": 7680,
      "Ġtant": 7681,
      "Ġtub": 7682,
      "Ġsigh": 7683,
      "only": 7684,
      "onaut": 7685,
      "Ġcate": 7686,
      "Ġcant": 7687,
      "Ġcave": 7688,
      "Ġcure": 7689,
      "Ġcage": 7690,
      "Ġcory": 7691,
      "aning": 7692,
      "Ġwelf": 7693,
      "Ġwaving": 7694,
      "Ġwwi": 7695,
      "Ġfell": 7696,
      "Ġfaster": 7697,
      "Ġfills": 7698,
      "Ġfiction": 7699,
      "Ġbun": 7700,
      "Ġbone": 7701,
      "Ġbure": 7702,
      "Ġbite": 7703,
      "Ġbail": 7704,
      "Ġbinge": 7705,
      "Ġmaid": 7706,
      "Ġmerc": 7707,
      "Ġmaps": 7708,
      "Ġmocking": 7709,
      "Ġpie": 7710,
      "Ġpud": 7711,
      "Ġpanc": 7712,
      "Ġpier": 7713,
      "Ġpony": 7714,
      "Ġhen": 7715,
      "Ġdj": 7716,
      "Ġded": 7717,
      "Ġdial": 7718,
      "Ġdub": 7719,
      "Ġdude": 7720,
      "Ġdestin": 7721,
      "Ġdanny": 7722,
      "Ġot": 7723,
      "Ġthor": 7724,
      "arn": 7725,
      "ala": 7726,
      "alf": 7727,
      "alous": 7728,
      "itarian": 7729,
      "Ġly": 7730,
      "Ġlic": 7731,
      "Ġliv": 7732,
      "Ġlover": 7733,
      "Ġlisa": 7734,
      "Ġlincoln": 7735,
      "Ġnar": 7736,
      "Ġnate": 7737,
      "Ġnest": 7738,
      "Ġnik": 7739,
      "Ġnixon": 7740,
      "icap": 7741,
      "Ġgain": 7742,
      "Ġgary": 7743,
      "Ġgains": 7744,
      "Ġreass": 7745,
      "lee": 7746,
      "leg": 7747,
      "etically": 7748,
      "Ġstal": 7749,
      "Ġstyl": 7750,
      "otle": 7751,
      "Ġrou": 7752,
      "Ġrage": 7753,
      "Ġrio": 7754,
      "Ġrural": 7755,
      "Ġroots": 7756,
      "idal": 7757,
      "Ġanist": 7758,
      "adim": 7759,
      "Ġwhites": 7760,
      "Ġjar": 7761,
      "Ġnevada": 7762,
      "Ġkir": 7763,
      "Ġkicks": 7764,
      "Ġchili": 7765,
      "Ġshy": 7766,
      "Ġshelf": 7767,
      "think": 7768,
      "Ġbezos": 7769,
      "Ġvandal": 7770,
      "ithm": 7771,
      "Ġdeportation": 7772,
      "Ġdeemed": 7773,
      "Ġprie": 7774,
      "ulated": 7775,
      "estone": 7776,
      "Ġconway": 7777,
      "Ġmanagement": 7778,
      "Ġalgor": 7779,
      "istle": 7780,
      "ivals": 7781,
      "Ġunus": 7782,
      "abis": 7783,
      "emor": 7784,
      "ements": 7785,
      "emption": 7786,
      "allow": 7787,
      "Ġspy": 7788,
      "Ġspons": 7789,
      "Ġspark": 7790,
      "Ġspills": 7791,
      "Ġspoil": 7792,
      "Ġcomics": 7793,
      "ounter": 7794,
      "ounce": 7795,
      "ucting": 7796,
      "Ġclue": 7797,
      "Ġseasons": 7798,
      "Ġseven": 7799,
      "rio": 7800,
      "Ġplug": 7801,
      "agers": 7802,
      "agger": 7803,
      "ups": 7804,
      "Ġleak": 7805,
      "asty": 7806,
      "Ġacts": 7807,
      "Ġafternoon": 7808,
      "Ġgraff": 7809,
      "ghazi": 7810,
      "Ġnotre": 7811,
      "izon": 7812,
      "Ġintim": 7813,
      "Ġblown": 7814,
      "Ġblowing": 7815,
      "oven": 7816,
      "ogy": 7817,
      "Ġallerg": 7818,
      "Ġscul": 7819,
      "Ġscared": 7820,
      "Ġdonates": 7821,
      "Ġdonated": 7822,
      "Ġdonuts": 7823,
      "plan": 7824,
      "Ġdisplays": 7825,
      "Ġteases": 7826,
      "Ġmarath": 7827,
      "Ġmario": 7828,
      "Ġobit": 7829,
      "Ġobject": 7830,
      "iano": 7831,
      "Ġliqu": 7832,
      "Ġprejud": 7833,
      "Ġagric": 7834,
      "Ġnations": 7835,
      "ishop": 7836,
      "Ġelement": 7837,
      "Ġflights": 7838,
      "Ġobamas": 7839,
      "Ġeveryday": 7840,
      "Ġcaring": 7841,
      "Ġfeared": 7842,
      "Ġfeeding": 7843,
      "Ġpermission": 7844,
      "please": 7845,
      "Ġthroat": 7846,
      "Ġremoved": 7847,
      "Ġinterests": 7848,
      "Ġsoap": 7849,
      "Ġsurface": 7850,
      "shaped": 7851,
      "Ġbrett": 7852,
      "Ġaccur": 7853,
      "Ġaccounts": 7854,
      "Ġdecade": 7855,
      "Ġcommemor": 7856,
      "inson": 7857,
      "Ġdesc": 7858,
      "auer": 7859,
      "Ġmonitor": 7860,
      "Ġanywhere": 7861,
      "Ġparad": 7862,
      "Ġentering": 7863,
      "Ġcompared": 7864,
      "Ġhighest": 7865,
      "rete": 7866,
      "Ġstatements": 7867,
      "Ġwrites": 7868,
      "Ġrelations": 7869,
      "Ġlasting": 7870,
      "oductive": 7871,
      "Ġharsh": 7872,
      "Ġdiscovery": 7873,
      "Ġdepot": 7874,
      "Ġdepart": 7875,
      "atti": 7876,
      "Ġtransparen": 7877,
      "Ġbarrel": 7878,
      "Ġapps": 7879,
      "Ġ89": 7880,
      "Ġedwards": 7881,
      "Ġ93": 7882,
      "Ġ911": 7883,
      "Ġskel": 7884,
      "Ġpassion": 7885,
      "Ġburr": 7886,
      "Ġburied": 7887,
      "Ġgenetic": 7888,
      "Ġsnack": 7889,
      "Ġoldest": 7890,
      "Ġexplaining": 7891,
      "Ġwalmart": 7892,
      "Ġwalgre": 7893,
      "Ġbelief": 7894,
      "Ġdetain": 7895,
      "Ġredef": 7896,
      "formed": 7897,
      "Ġconvince": 7898,
      "Ġopened": 7899,
      "Ġrussell": 7900,
      "Ġsteak": 7901,
      "Ġcorpse": 7902,
      "Ġimperson": 7903,
      "Ġhotels": 7904,
      "Ġregion": 7905,
      "Ġsigning": 7906,
      "Ġsignature": 7907,
      "utional": 7908,
      "Ġdirectors": 7909,
      "Ġpromote": 7910,
      "Ġcheaper": 7911,
      "Ġfriendly": 7912,
      "Ġsupremacy": 7913,
      "Ġdevice": 7914,
      "Ġsubject": 7915,
      "Ġsubscri": 7916,
      "Ġcreators": 7917,
      "Ġreads": 7918,
      "Ġreader": 7919,
      "Ġpretend": 7920,
      "Ġbenghazi": 7921,
      "Ġpublicist": 7922,
      "Ġsums": 7923,
      "cycle": 7924,
      "Ġsalt": 7925,
      "Ġsalv": 7926,
      "Ġsalmon": 7927,
      "Ġbooker": 7928,
      "Ġsolo": 7929,
      "Ġjudges": 7930,
      "Ġslept": 7931,
      "Ġmurray": 7932,
      "Ġjealous": 7933,
      "Ġrais": 7934,
      "Ġprotesting": 7935,
      "Ġstandards": 7936,
      "Ġpreview": 7937,
      "Ġtested": 7938,
      "Ġsweating": 7939,
      "Ġinvestigate": 7940,
      "Ġpanicking": 7941,
      "Ġproducer": 7942,
      "Ġsitcom": 7943,
      "Ġrecording": 7944,
      "Ġfeds": 7945,
      "Ġprisoner": 7946,
      "Ġincreased": 7947,
      "Ġlarger": 7948,
      "Ġnonprofit": 7949,
      "Ġsunglasses": 7950,
      "Ġinspire": 7951,
      "Ġillustr": 7952,
      "Ġengaged": 7953,
      "Ġsystems": 7954,
      "hamilton": 7955,
      "Ġsued": 7956,
      "Ġballs": 7957,
      "offs": 7958,
      "Ġfucked": 7959,
      "Ġhistorians": 7960,
      "Ġruining": 7961,
      "attered": 7962,
      "Ġvisitors": 7963,
      "Ġpossess": 7964,
      "Ġbowie": 7965,
      "Ġposes": 7966,
      "Ġdesigned": 7967,
      "Ġuncertain": 7968,
      "Ġpicked": 7969,
      "Ġdisappo": 7970,
      "ointment": 7971,
      "Ġreboot": 7972,
      "Ġautop": 7973,
      "Ġcooler": 7974,
      "Ġbattles": 7975,
      "Ġmadness": 7976,
      "Ġcharlie": 7977,
      "Ġaddresses": 7978,
      "Ġbullet": 7979,
      "Ġlifestyle": 7980,
      "Ġforgive": 7981,
      "Ġcycl": 7982,
      "Ġmistake": 7983,
      "Ġresignation": 7984,
      "Ġrequests": 7985,
      "Ġreplacement": 7986,
      "Ġ2008": 7987,
      "Ġkellyanne": 7988,
      "marks": 7989,
      "Ġpurchasing": 7990,
      "Ġpackage": 7991,
      "Ġcrossing": 7992,
      "dead": 7993,
      "Ġbias": 7994,
      "Ġmicrow": 7995,
      "ĠâĢĵ": 7996,
      "Ġcasino": 7997,
      "Ġstuffed": 7998,
      "Ġjewel": 7999,
      "Ġcancels": 8000,
      "Ġliberals": 8001,
      "Ġcookie": 8002,
      "Ġstrongly": 8003,
      "Ġcitizenship": 8004,
      "Ġreunited": 8005,
      "Ġclothing": 8006,
      "Ġmedicaid": 8007,
      "burger": 8008,
      "Ġpurpose": 8009,
      "Ġattraction": 8010,
      "Ġqatar": 8011,
      "Ġwoody": 8012,
      "Ġrushes": 8013,
      "Ġkicked": 8014,
      "Ġpulitzer": 8015,
      "Ġselena": 8016,
      "Ġshirtless": 8017,
      "Ġiii": 8018,
      "Ġbreathing": 8019,
      "Ġcompete": 8020,
      "Ġcompetition": 8021,
      "Ġalien": 8022,
      "Ġopinions": 8023,
      "Ġultra": 8024,
      "Ġleslie": 8025,
      "Ġratings": 8026,
      "Ġcosm": 8027,
      "Ġlaser": 8028,
      "Ġlegendary": 8029,
      "Ġpacific": 8030,
      "Ġbarbara": 8031,
      "girls": 8032,
      "Ġtrends": 8033,
      "Ġaccusers": 8034,
      "Ġmeasure": 8035,
      "Ġeditorial": 8036,
      "Ġastronaut": 8037,
      "Ġfulf": 8038,
      "Ġeasily": 8039,
      "Ġexposes": 8040,
      "Ġrums": 8041,
      "Ġcombat": 8042,
      "Ġmatthew": 8043,
      "Ġunpop": 8044,
      "Ġemerge": 8045,
      "walking": 8046,
      "Ġoccup": 8047,
      "Ġluke": 8048,
      "Ġwealthy": 8049,
      "Ġflooding": 8050,
      "Ġsympt": 8051,
      "Ġsymbol": 8052,
      "Ġingred": 8053,
      "Ġbleeding": 8054,
      "Ġcameron": 8055,
      "covered": 8056,
      "Ġmainstream": 8057,
      "Ġpumpkin": 8058,
      "Ġcrawling": 8059,
      "Ġsupports": 8060,
      "Ġcigarette": 8061,
      "Ġcigarettes": 8062,
      "Ġchipotle": 8063,
      "Ġmyths": 8064,
      "Ġopponent": 8065,
      "Ġpunishment": 8066,
      "Ġtoss": 8067,
      "children": 8068,
      "Ġcollapses": 8069,
      "Ġdolphins": 8070,
      "Ġbucket": 8071,
      "Ġconcludes": 8072,
      "Ġatlanta": 8073,
      "Ġlibya": 8074,
      "Ġrecovering": 8075,
      "Ġindividual": 8076,
      "Ġerupts": 8077,
      "minded": 8078,
      "Ġmlb": 8079,
      "Ġgratitude": 8080,
      "appropri": 8081,
      "Ġnarrowly": 8082,
      "Ġbastard": 8083,
      "Ġpompe": 8084,
      "Ġlobster": 8085,
      "Ġsuperhero": 8086,
      "Ġimpeach": 8087,
      "semit": 8088,
      "speed": 8089,
      "Ġfortune": 8090,
      "Ġchamber": 8091,
      "Ġwisdom": 8092,
      "Ġfarewell": 8093,
      "Ġvladim": 8094,
      "Ġunknown": 8095,
      "Ġdeceased": 8096,
      "Ġswimsuit": 8097,
      "healthy": 8098,
      "Ġprocedure": 8099,
      "Ġaccomplish": 8100,
      "Ġkindergart": 8101,
      "Ġdiscontin": 8102,
      "Ġgenocide": 8103,
      "Ġwelfare": 8104,
      "Ġaniston": 8105,
      "Ġpriebus": 8106,
      "Ġalgorithm": 8107,
      "Ġagriculture": 8108,
      "Ġvladimir": 8109,
      "17": 8110,
      "500": 8111,
      "99": 8112,
      "bes": 8113,
      "bul": 8114,
      "bull": 8115,
      "called": 8116,
      "ded": 8117,
      "every": 8118,
      "fem": 8119,
      "fall": 8120,
      "field": 8121,
      "fizer": 8122,
      "gree": 8123,
      "hom": 8124,
      "high": 8125,
      "hem": 8126,
      "iator": 8127,
      "jected": 8128,
      "ls": 8129,
      "mi": 8130,
      "mr": 8131,
      "mor": 8132,
      "mom": 8133,
      "math": 8134,
      "mouth": 8135,
      "nb": 8136,
      "nie": 8137,
      "nuts": 8138,
      "pp": 8139,
      "pac": 8140,
      "poon": 8141,
      "ppo": 8142,
      "rd": 8143,
      "rac": 8144,
      "rav": 8145,
      "road": 8146,
      "ront": 8147,
      "sid": 8148,
      "tor": 8149,
      "tall": 8150,
      "uits": 8151,
      "won": 8152,
      "wan": 8153,
      "with": 8154,
      "wage": 8155,
      "xsw": 8156,
      "yer": 8157,
      "yes": 8158,
      "zes": 8159,
      "ĠĠ": 8160,
      "inating": 8161,
      "inated": 8162,
      "Ġtam": 8163,
      "Ġtap": 8164,
      "Ġtight": 8165,
      "Ġtail": 8166,
      "Ġtina": 8167,
      "Ġtaps": 8168,
      "Ġtask": 8169,
      "Ġtai": 8170,
      "Ġtension": 8171,
      "Ġtsar": 8172,
      "erie": 8173,
      "Ġaer": 8174,
      "Ġairst": 8175,
      "Ġaaron": 8176,
      "Ġsa": 8177,
      "Ġsem": 8178,
      "Ġsams": 8179,
      "Ġsears": 8180,
      "Ġsisters": 8181,
      "Ġsikh": 8182,
      "Ġsxsw": 8183,
      "reen": 8184,
      "rele": 8185,
      "Ġcz": 8186,
      "Ġcul": 8187,
      "Ġcites": 8188,
      "Ġwer": 8189,
      "Ġwack": 8190,
      "Ġware": 8191,
      "Ġwiz": 8192,
      "Ġwash": 8193,
      "Ġwise": 8194,
      "Ġwounded": 8195,
      "Ġwashed": 8196,
      "Ġfile": 8197,
      "Ġfoss": 8198,
      "Ġfault": 8199,
      "Ġfoster": 8200,
      "Ġbum": 8201,
      "Ġbog": 8202,
      "Ġbitter": 8203,
      "Ġmine": 8204,
      "Ġmama": 8205,
      "Ġmaine": 8206,
      "Ġmocks": 8207,
      "Ġmasc": 8208,
      "Ġmtv": 8209,
      "eness": 8210,
      "Ġpor": 8211,
      "Ġpine": 8212,
      "Ġpfizer": 8213,
      "Ġhed": 8214,
      "Ġhart": 8215,
      "Ġhott": 8216,
      "Ġhitch": 8217,
      "Ġhired": 8218,
      "Ġhanks": 8219,
      "Ġdign": 8220,
      "Ġdates": 8221,
      "Ġdele": 8222,
      "Ġduch": 8223,
      "Ġdys": 8224,
      "Ġdirt": 8225,
      "Ġdaring": 8226,
      "Ġdustin": 8227,
      "Ġdenny": 8228,
      "Ġdhs": 8229,
      "Ġdicap": 8230,
      "Ġomin": 8231,
      "Ġodd": 8232,
      "Ġthrew": 8233,
      "arge": 8234,
      "arity": 8235,
      "arms": 8236,
      "arium": 8237,
      "itage": 8238,
      "Ġlyr": 8239,
      "Ġnin": 8240,
      "Ġnone": 8241,
      "Ġnuts": 8242,
      "Ġnonsense": 8243,
      "icial": 8244,
      "icting": 8245,
      "icles": 8246,
      "Ġinher": 8247,
      "Ġgut": 8248,
      "Ġgest": 8249,
      "Ġgav": 8250,
      "Ġgian": 8251,
      "Ġgently": 8252,
      "Ġoften": 8253,
      "Ġreforms": 8254,
      "etes": 8255,
      "etts": 8256,
      "etoric": 8257,
      "acp": 8258,
      "Ġsting": 8259,
      "Ġroo": 8260,
      "Ġrail": 8261,
      "Ġrib": 8262,
      "Ġruth": 8263,
      "Ġraces": 8264,
      "enty": 8265,
      "Ġforcing": 8266,
      "aman": 8267,
      "Ġum": 8268,
      "Ġansar": 8269,
      "Ġtrig": 8270,
      "Ġtrips": 8271,
      "Ġtricks": 8272,
      "utation": 8273,
      "Ġwhit": 8274,
      "Ġwhistle": 8275,
      "Ġjane": 8276,
      "Ġjedi": 8277,
      "Ġjulian": 8278,
      "Ġyo": 8279,
      "Ġneph": 8280,
      "Ġko": 8281,
      "Ġkob": 8282,
      "Ġkong": 8283,
      "Ġkara": 8284,
      "verted": 8285,
      "Ġchat": 8286,
      "Ġchanc": 8287,
      "Ġchimp": 8288,
      "Ġshakes": 8289,
      "Ġshaken": 8290,
      "Ġshelves": 8291,
      "Ġshifts": 8292,
      "usetts": 8293,
      "Ġbeings": 8294,
      "Ġbehead": 8295,
      "Ġva": 8296,
      "Ġvig": 8297,
      "Ġvest": 8298,
      "Ġvoy": 8299,
      "Ġdean": 8300,
      "Ġdept": 8301,
      "Ġprior": 8302,
      "Ġprosp": 8303,
      "Ġproduce": 8304,
      "ifting": 8305,
      "umption": 8306,
      "Ġandy": 8307,
      "Ġmanh": 8308,
      "Ġalton": 8309,
      "Ġalph": 8310,
      "Ġalarm": 8311,
      "ocates": 8312,
      "ockey": 8313,
      "acking": 8314,
      "Ġhems": 8315,
      "Ġunle": 8316,
      "Ġunions": 8317,
      "Ġunhing": 8318,
      "emp": 8319,
      "essee": 8320,
      "Ġcomfor": 8321,
      "Ġreputation": 8322,
      "Ġclown": 8323,
      "Ġsevent": 8324,
      "anti": 8325,
      "quin": 8326,
      "Ġaclu": 8327,
      "Ġaftermath": 8328,
      "Ġcrude": 8329,
      "ellor": 8330,
      "Ġgrav": 8331,
      "Ġgrotes": 8332,
      "Ġgroping": 8333,
      "Ġcann": 8334,
      "Ġnotes": 8335,
      "Ġoffended": 8336,
      "Ġoffered": 8337,
      "Ġbron": 8338,
      "Ġbrows": 8339,
      "Ġbrush": 8340,
      "Ġbraces": 8341,
      "izers": 8342,
      "assion": 8343,
      "Ġblues": 8344,
      "Ġblinds": 8345,
      "ardino": 8346,
      "Ġarpa": 8347,
      "Ġjustify": 8348,
      "Ġscare": 8349,
      "oyd": 8350,
      "Ġfinished": 8351,
      "Ġdrilling": 8352,
      "Ġwhatso": 8353,
      "Ġteaser": 8354,
      "Ġmarry": 8355,
      "Ġovercome": 8356,
      "Ġobl": 8357,
      "Ġreporting": 8358,
      "Ġeman": 8359,
      "Ġemoj": 8360,
      "Ġliver": 8361,
      "Ġlibert": 8362,
      "olded": 8363,
      "Ġresur": 8364,
      "Ġresour": 8365,
      "Ġages": 8366,
      "enses": 8367,
      "enspan": 8368,
      "achusetts": 8369,
      "Ġpee": 8370,
      "Ġpeers": 8371,
      "Ġhern": 8372,
      "Ġheritage": 8373,
      "asha": 8374,
      "Ġstudies": 8375,
      "Ġrecap": 8376,
      "Ġque": 8377,
      "Ġenroll": 8378,
      "Ġattending": 8379,
      "Ġattached": 8380,
      "Ġusher": 8381,
      "Ġusda": 8382,
      "Ġpreserve": 8383,
      "inda": 8384,
      "Ġ202": 8385,
      "Ġcarc": 8386,
      "Ġbackpack": 8387,
      "Ġcontem": 8388,
      "weet": 8389,
      "anged": 8390,
      "Ġjoint": 8391,
      "Ġactive": 8392,
      "actic": 8393,
      "Ġmyself": 8394,
      "Ġannually": 8395,
      "prom": 8396,
      "brush": 8397,
      "broken": 8398,
      "Ġpresidents": 8399,
      "Ġbreach": 8400,
      "Ġdecline": 8401,
      "Ġdecided": 8402,
      "Ġdecisions": 8403,
      "Ġchron": 8404,
      "Ġstrict": 8405,
      "Ġsmile": 8406,
      "Ġsmoke": 8407,
      "Ġtalent": 8408,
      "Ġ43": 8409,
      "Ġmonolog": 8410,
      "Ġmonopol": 8411,
      "Ġparaly": 8412,
      "Ġentry": 8413,
      "Ġenthus": 8414,
      "Ġcompreh": 8415,
      "Ġhighlight": 8416,
      "Ġshowed": 8417,
      "Ġglam": 8418,
      "Ġretreat": 8419,
      "Ġbetray": 8420,
      "Ġwrapped": 8421,
      "Ġminds": 8422,
      "Ġconfront": 8423,
      "Ġturtle": 8424,
      "Ġunderst": 8425,
      "Ġundergo": 8426,
      "Ġbanning": 8427,
      "Ġprotection": 8428,
      "Ġprotester": 8429,
      "Ġconsult": 8430,
      "Ġcourts": 8431,
      "Ġinvited": 8432,
      "Ġbeck": 8433,
      "Ġholder": 8434,
      "Ġharris": 8435,
      "ussy": 8436,
      "Ġdepend": 8437,
      "Ġ72": 8438,
      "Ġzip": 8439,
      "Ġterms": 8440,
      "Ġbarrier": 8441,
      "Ġswed": 8442,
      "Ġ83": 8443,
      "Ġeddie": 8444,
      "Ġ92": 8445,
      "Ġcoup": 8446,
      "Ġclever": 8447,
      "Ġfireworks": 8448,
      "Ġvisual": 8449,
      "Ġpassage": 8450,
      "cont": 8451,
      "Ġdelta": 8452,
      "Ġotherwise": 8453,
      "Ġsandy": 8454,
      "Ġheaded": 8455,
      "Ġexplore": 8456,
      "Ġrevel": 8457,
      "Ġwallet": 8458,
      "Ġmorgan": 8459,
      "Ġmorris": 8460,
      "Ġredd": 8461,
      "Ġredemption": 8462,
      "Ġgrande": 8463,
      "Ġconven": 8464,
      "Ġexcell": 8465,
      "screen": 8466,
      "Ġstev": 8467,
      "Ġcorresp": 8468,
      "Ġbadass": 8469,
      "Ġadvance": 8470,
      "Ġsony": 8471,
      "Ġcurious": 8472,
      "Ġlearns": 8473,
      "Ġwaits": 8474,
      "Ġlisting": 8475,
      "Ġdirection": 8476,
      "Ġmassachusetts": 8477,
      "Ġpollution": 8478,
      "Ġclassmates": 8479,
      "Ġyorkers": 8480,
      "aneously": 8481,
      "Ġroommates": 8482,
      "Ġaddict": 8483,
      "umbling": 8484,
      "Ġfallen": 8485,
      "Ġsuburb": 8486,
      "Ġsubsid": 8487,
      "Ġfema": 8488,
      "Ġsett": 8489,
      "Ġreturned": 8490,
      "Ġgreenspan": 8491,
      "Ġinvestment": 8492,
      "Ġsolutions": 8493,
      "Ġextended": 8494,
      "Ġmurphy": 8495,
      "Ġcreation": 8496,
      "Ġrae": 8497,
      "Ġforest": 8498,
      "Ġpastor": 8499,
      "Ġtestify": 8500,
      "Ġsweater": 8501,
      "Ġbernardino": 8502,
      "Ġromantic": 8503,
      "ields": 8504,
      "ielding": 8505,
      "Ġprofit": 8506,
      "Ġconduct": 8507,
      "Ġpanther": 8508,
      "beat": 8509,
      "Ġwildfires": 8510,
      "Ġdiesel": 8511,
      "Ġgoldman": 8512,
      "Ġdivided": 8513,
      "Ġsurvival": 8514,
      "Ġtournament": 8515,
      "Ġconcrete": 8516,
      "Ġmilitants": 8517,
      "why": 8518,
      "Ġtreating": 8519,
      "Ġcloses": 8520,
      "driven": 8521,
      "Ġglobe": 8522,
      "Ġrestaurants": 8523,
      "Ġillusion": 8524,
      "Ġpleased": 8525,
      "Ã©e": 8526,
      "Ġsafely": 8527,
      "Ġfewer": 8528,
      "Ġactivity": 8529,
      "Ġlabel": 8530,
      "Ġtrees": 8531,
      "Ġreceiving": 8532,
      "Ġ150": 8533,
      "Ġinterviews": 8534,
      "Ġinjuries": 8535,
      "Ġpossibly": 8536,
      "Ġexcitedly": 8537,
      "Ġequally": 8538,
      "Ġstuns": 8539,
      "Ġcardi": 8540,
      "Ġmelissa": 8541,
      "Ġlanding": 8542,
      "Ġcastro": 8543,
      "Ġmartial": 8544,
      "Ġprivile": 8545,
      "Ġcaptain": 8546,
      "Ġsatan": 8547,
      "Ġsaturday": 8548,
      "naev": 8549,
      "Ġauto": 8550,
      "Ġmattress": 8551,
      "Ġhamas": 8552,
      "Ġmadonna": 8553,
      "Ġlifts": 8554,
      "Ġsidewalk": 8555,
      "Ġtheresa": 8556,
      "people": 8557,
      "Ġdresses": 8558,
      "Ġaleppo": 8559,
      "Ġtoddlers": 8560,
      "Ġsugar": 8561,
      "Ġproudly": 8562,
      "Ġsavings": 8563,
      "Ġsaudis": 8564,
      "Ġpuzz": 8565,
      "Ġloans": 8566,
      "Ġencounter": 8567,
      "Ġangela": 8568,
      "Ġcuban": 8569,
      "Ġmachines": 8570,
      "Ġdiab": 8571,
      "Ġlimb": 8572,
      "Ġlimits": 8573,
      "Ġdevelops": 8574,
      "Ġspringsteen": 8575,
      "Ġdistant": 8576,
      "Ġxbox": 8577,
      "Ġtypes": 8578,
      "Ġinterested": 8579,
      "Ġignoring": 8580,
      "Ġaccepted": 8581,
      "Ġbalance": 8582,
      "Ġcorporations": 8583,
      "Ġupdated": 8584,
      "Ġfaa": 8585,
      "Ġtargeting": 8586,
      "laim": 8587,
      "laims": 8588,
      "Ġariana": 8589,
      "Ġflags": 8590,
      "Ġaids": 8591,
      "Ġscratch": 8592,
      "Ġwooden": 8593,
      "Ġkenya": 8594,
      "Ġacquaint": 8595,
      "Ġnominees": 8596,
      "writing": 8597,
      "Ġsouls": 8598,
      "Ġfishing": 8599,
      "Ġgymnast": 8600,
      "Ġanxious": 8601,
      "ribly": 8602,
      "Ġselection": 8603,
      "Ġrowling": 8604,
      "Ġoperator": 8605,
      "Ġessent": 8606,
      "Ġessential": 8607,
      "Ġcriminals": 8608,
      "Ġextreme": 8609,
      "powered": 8610,
      "Ġmosque": 8611,
      "Ġpodium": 8612,
      "Ġrainbow": 8613,
      "throp": 8614,
      "boys": 8615,
      "Ġrhino": 8616,
      "Ġrhetoric": 8617,
      "Ġaccuser": 8618,
      "Ġgallery": 8619,
      "Ġcrypt": 8620,
      "Ġcrushing": 8621,
      "Ġmillennial": 8622,
      "Ġembrace": 8623,
      "Ġembracing": 8624,
      "Ġpresentation": 8625,
      "Ġnominated": 8626,
      "Ġlogo": 8627,
      "Ġrumors": 8628,
      "Ġperforming": 8629,
      "Ġconsiders": 8630,
      "Ġreferred": 8631,
      "hearted": 8632,
      "Ġstamps": 8633,
      "Ġspiritual": 8634,
      "Ġcontainer": 8635,
      "metoo": 8636,
      "Ġobvious": 8637,
      "Ġboomers": 8638,
      "Ġadvertis": 8639,
      "Ġrodrig": 8640,
      "Ġsolemn": 8641,
      "Ġpromotion": 8642,
      "Ġhumiliating": 8643,
      "Ġbuilds": 8644,
      "lgbtq": 8645,
      "Ġtennessee": 8646,
      "Ġdismiss": 8647,
      "Ġemmys": 8648,
      "Ġearlier": 8649,
      "Ġbursts": 8650,
      "Ġsneaks": 8651,
      "Ġespn": 8652,
      "Ġnunes": 8653,
      "Ġscenes": 8654,
      "Ġvictoria": 8655,
      "Ġopponents": 8656,
      "Ġwrestling": 8657,
      "Ġpaddle": 8658,
      "Ġdiplom": 8659,
      "Ġbloomberg": 8660,
      "Ġmariah": 8661,
      "Ġcurtain": 8662,
      "Ġceasefire": 8663,
      "Ġsanctions": 8664,
      "Ġridiculous": 8665,
      "Ġmanufactur": 8666,
      "super": 8667,
      "Ġdoritos": 8668,
      "Ġnaacp": 8669,
      "keeper": 8670,
      "Ġfloating": 8671,
      "Ġvolunteer": 8672,
      "Ġestablishment": 8673,
      "Ġaziz": 8674,
      "Ġsabot": 8675,
      "Ġhudson": 8676,
      "changing": 8677,
      "Ġoverwhelming": 8678,
      "Ġrevenge": 8679,
      "Ġsolidarity": 8680,
      "Ġmoderator": 8681,
      "Ġbartender": 8682,
      "Ġpardon": 8683,
      "archy": 8684,
      "Ġsequel": 8685,
      "Ġharrowing": 8686,
      "Ġdisclose": 8687,
      "Ġmindfulness": 8688,
      "Ġhairstyle": 8689,
      "Ġhollow": 8690,
      "Ġconsequences": 8691,
      "Ġdramatic": 8692,
      "control": 8693,
      "Ġathletes": 8694,
      "Ġgentrification": 8695,
      "birth": 8696,
      "baby": 8697,
      "Ġbipart": 8698,
      "Ġdynam": 8699,
      "Ġnutrition": 8700,
      "opardy": 8701,
      "Ġevangelical": 8702,
      "Ġcaucus": 8703,
      "Ġsatellite": 8704,
      "Ġfirefighters": 8705,
      "Ġtensions": 8706,
      "Ġaugust": 8707,
      "Ġsachs": 8708,
      "Ġarkansas": 8709,
      "Ġhashtag": 8710,
      "Ġelaborate": 8711,
      "Ġenforcement": 8712,
      "Ġscholarship": 8713,
      "Ġgraffiti": 8714,
      "Ġobituary": 8715,
      "Ġwalgreens": 8716,
      "Ġrumsfeld": 8717,
      "Ġunpopular": 8718,
      "Ġpompeo": 8719,
      "Ġtsarnaev": 8720,
      "Ġairstri": 8721,
      "Ġhedge": 8722,
      "Ġdicaprio": 8723,
      "Ġlyrics": 8724,
      "Ġansari": 8725,
      "Ġnephew": 8726,
      "Ġkaraoke": 8727,
      "Ġchancellor": 8728,
      "Ġhemsworth": 8729,
      "Ġunhinged": 8730,
      "Ġseventh": 8731,
      "Ġarpaio": 8732,
      "Ġwhatsoever": 8733,
      "Ġcorrespond": 8734,
      "bas": 8735,
      "bay": 8736,
      "bud": 8737,
      "bee": 8738,
      "cd": 8739,
      "cop": 8740,
      "card": 8741,
      "corn": 8742,
      "due": 8743,
      "eem": 8744,
      "fk": 8745,
      "fight": 8746,
      "felt": 8747,
      "gen": 8748,
      "hr": 8749,
      "hun": 8750,
      "hard": 8751,
      "home": 8752,
      "happy": 8753,
      "iy": 8754,
      "je": 8755,
      "ken": 8756,
      "last": 8757,
      "lost": 8758,
      "lift": 8759,
      "mill": 8760,
      "made": 8761,
      "master": 8762,
      "moon": 8763,
      "maker": 8764,
      "makers": 8765,
      "nazi": 8766,
      "oam": 8767,
      "oop": 8768,
      "pre": 8769,
      "pat": 8770,
      "ply": 8771,
      "rin": 8772,
      "rat": 8773,
      "rid": 8774,
      "rock": 8775,
      "sor": 8776,
      "sil": 8777,
      "sol": 8778,
      "selves": 8779,
      "town": 8780,
      "tica": 8781,
      "uers": 8782,
      "wall": 8783,
      "wart": 8784,
      "wife": 8785,
      "zing": 8786,
      "Ġire": 8787,
      "inent": 8788,
      "inction": 8789,
      "Ġtu": 8790,
      "Ġtong": 8791,
      "Ġtaun": 8792,
      "Ġai": 8793,
      "Ġaol": 8794,
      "Ġailes": 8795,
      "Ġauction": 8796,
      "Ġsou": 8797,
      "Ġsir": 8798,
      "Ġsake": 8799,
      "Ġsink": 8800,
      "oned": 8801,
      "Ġcel": 8802,
      "Ġcares": 8803,
      "Ġcvs": 8804,
      "anim": 8805,
      "Ġwist": 8806,
      "Ġwaters": 8807,
      "Ġfog": 8808,
      "orum": 8809,
      "orius": 8810,
      "Ġba": 8811,
      "Ġbatter": 8812,
      "Ġbund": 8813,
      "Ġbobby": 8814,
      "Ġbucks": 8815,
      "Ġbooth": 8816,
      "Ġborrow": 8817,
      "esh": 8818,
      "Ġmun": 8819,
      "Ġmocked": 8820,
      "Ġmta": 8821,
      "eng": 8822,
      "encer": 8823,
      "Ġpow": 8824,
      "Ġpir": 8825,
      "Ġpear": 8826,
      "Ġpatch": 8827,
      "Ġpix": 8828,
      "Ġpbs": 8829,
      "Ġhul": 8830,
      "Ġhav": 8831,
      "Ġhub": 8832,
      "Ġhong": 8833,
      "Ġhorn": 8834,
      "Ġhoney": 8835,
      "Ġhicks": 8836,
      "Ġhacks": 8837,
      "Ġdw": 8838,
      "Ġdare": 8839,
      "Ġdunk": 8840,
      "Ġdna": 8841,
      "Ġdental": 8842,
      "Ġos": 8843,
      "Ġthai": 8844,
      "alan": 8845,
      "alley": 8846,
      "isible": 8847,
      "Ġtoler": 8848,
      "itect": 8849,
      "itates": 8850,
      "itious": 8851,
      "itals": 8852,
      "itement": 8853,
      "ede": 8854,
      "Ġlit": 8855,
      "Ġlame": 8856,
      "Ġlope": 8857,
      "Ġlung": 8858,
      "Ġlemon": 8859,
      "Ġlauer": 8860,
      "Ġnod": 8861,
      "Ġnass": 8862,
      "Ġnine": 8863,
      "Ġnca": 8864,
      "icut": 8865,
      "icals": 8866,
      "Ġinches": 8867,
      "Ġgm": 8868,
      "Ġgate": 8869,
      "Ġgays": 8870,
      "Ġgome": 8871,
      "Ġgown": 8872,
      "Ġgord": 8873,
      "ilia": 8874,
      "Ġreese": 8875,
      "Ġreince": 8876,
      "Ġreward": 8877,
      "Ġtheor": 8878,
      "asp": 8879,
      "elect": 8880,
      "leading": 8881,
      "stor": 8882,
      "stick": 8883,
      "Ġstap": 8884,
      "Ġstem": 8885,
      "Ġstumbles": 8886,
      "Ġease": 8887,
      "Ġecl": 8888,
      "otion": 8889,
      "otton": 8890,
      "Ġrav": 8891,
      "Ġrange": 8892,
      "Ġforb": 8893,
      "ament": 8894,
      "Ġank": 8895,
      "igg": 8896,
      "Ġtrap": 8897,
      "Ġtraced": 8898,
      "add": 8899,
      "aded": 8900,
      "iments": 8901,
      "Ġwhales": 8902,
      "umin": 8903,
      "uming": 8904,
      "Ġjul": 8905,
      "Ġjugg": 8906,
      "ecue": 8907,
      "ecided": 8908,
      "urally": 8909,
      "Ġyos": 8910,
      "Ġyach": 8911,
      "Ġyelling": 8912,
      "Ġyelp": 8913,
      "Ġneo": 8914,
      "Ġneither": 8915,
      "Ġkl": 8916,
      "Ġkam": 8917,
      "Ġkirst": 8918,
      "Ġketch": 8919,
      "Ġkourt": 8920,
      "illusion": 8921,
      "Ġchest": 8922,
      "Ġchess": 8923,
      "Ġchilling": 8924,
      "Ġchoices": 8925,
      "Ġshock": 8926,
      "Ġshades": 8927,
      "Ġshouts": 8928,
      "Ġbeij": 8929,
      "Ġvo": 8930,
      "Ġvast": 8931,
      "Ġdeer": 8932,
      "Ġdegre": 8933,
      "Ġfright": 8934,
      "Ġfries": 8935,
      "Ġfrog": 8936,
      "anded": 8937,
      "ifice": 8938,
      "resist": 8939,
      "ested": 8940,
      "Ġate": 8941,
      "ighth": 8942,
      "osy": 8943,
      "osis": 8944,
      "Ġtrumpcare": 8945,
      "Ġmanning": 8946,
      "Ġasia": 8947,
      "Ġasyl": 8948,
      "Ġheal": 8949,
      "Ġheight": 8950,
      "Ġunin": 8951,
      "Ġunic": 8952,
      "Ġunity": 8953,
      "Ġunins": 8954,
      "Ġunique": 8955,
      "Ġunbel": 8956,
      "Ġunearth": 8957,
      "orted": 8958,
      "usters": 8959,
      "Ġspook": 8960,
      "Ġcomprom": 8961,
      "ieg": 8962,
      "Ġitem": 8963,
      "ounces": 8964,
      "Ġrepair": 8965,
      "Ġseed": 8966,
      "Ġseize": 8967,
      "udge": 8968,
      "Ġareas": 8969,
      "Ġamber": 8970,
      "anto": 8971,
      "Ġplum": 8972,
      "quir": 8973,
      "Ġups": 8974,
      "Ġupside": 8975,
      "Ġcrap": 8976,
      "Ġcrunch": 8977,
      "ellen": 8978,
      "Ġgrants": 8979,
      "Ġbros": 8980,
      "Ġbryan": 8981,
      "Ġbrooks": 8982,
      "Ġadults": 8983,
      "Ġ28": 8984,
      "Ġ29": 8985,
      "Ġ2000": 8986,
      "Ġintact": 8987,
      "Ġintimate": 8988,
      "kee": 8989,
      "Ġbless": 8990,
      "Ġbliss": 8991,
      "Ġblocking": 8992,
      "Ġblaming": 8993,
      "ogen": 8994,
      "Ġalliance": 8995,
      "oodle": 8996,
      "Ġjustices": 8997,
      "Ġsci": 8998,
      "Ġdonut": 8999,
      "Ġfinance": 9000,
      "Ġdisastr": 9001,
      "Ġdisillusion": 9002,
      "Ġteams": 9003,
      "Ġmarg": 9004,
      "Ġovernight": 9005,
      "Ġobsc": 9006,
      "owned": 9007,
      "Ġresult": 9008,
      "ookie": 9009,
      "Ġpref": 9010,
      "Ġprecious": 9011,
      "ounding": 9012,
      "ache": 9013,
      "Ġreck": 9014,
      "Ġrecy": 9015,
      "Ġele": 9016,
      "Ġflaw": 9017,
      "Ġenr": 9018,
      "Ġcolumb": 9019,
      "Ġpreschool": 9020,
      "Ġcarrie": 9021,
      "Ġknee": 9022,
      "Ġknocked": 9023,
      "Ġknocking": 9024,
      "Ġbacking": 9025,
      "Ġbackst": 9026,
      "ibuster": 9027,
      "Ġ31": 9028,
      "raham": 9029,
      "Ġperman": 9030,
      "Ġjoining": 9031,
      "ockets": 9032,
      "Ġhousehold": 9033,
      "Ġthrill": 9034,
      "azing": 9035,
      "azis": 9036,
      "Ġremoving": 9037,
      "Ġinterrog": 9038,
      "she": 9039,
      "show": 9040,
      "shirts": 9041,
      "Ġplants": 9042,
      "Ġplanner": 9043,
      "cted": 9044,
      "Ġaccomm": 9045,
      "Ġslur": 9046,
      "Ġslave": 9047,
      "Ġslope": 9048,
      "Ġslaugh": 9049,
      "Ġkillings": 9050,
      "Ġdesire": 9051,
      "forest": 9052,
      "Ġhelpless": 9053,
      "Ġassange": 9054,
      "Ġassume": 9055,
      "Ġwayne": 9056,
      "Ġcharter": 9057,
      "Ġcole": 9058,
      "Ġcoaster": 9059,
      "Ġglowing": 9060,
      "Ġmedal": 9061,
      "Ġfunction": 9062,
      "Ġretires": 9063,
      "Ġconfron": 9064,
      "Ġreluct": 9065,
      "Ġundercover": 9066,
      "Ġindef": 9067,
      "Ġconsumption": 9068,
      "Ġdeficit": 9069,
      "Ġinvites": 9070,
      "Ġinvitation": 9071,
      "Ġrefr": 9072,
      "Ġrefers": 9073,
      "ahoo": 9074,
      "Ġholmes": 9075,
      "Ġdeadl": 9076,
      "Ġrunway": 9077,
      "Ġpole": 9078,
      "Ġpoem": 9079,
      "Ġzimmer": 9080,
      "Ġappo": 9081,
      "Ġapply": 9082,
      "Ġswiss": 9083,
      "Ġhappiest": 9084,
      "Ġeditors": 9085,
      "Ġlocks": 9086,
      "Ġlocations": 9087,
      "Ġskate": 9088,
      "Ġcoul": 9089,
      "Ġclears": 9090,
      "strong": 9091,
      "Ġlegit": 9092,
      "cony": 9093,
      "cedes": 9094,
      "Ġcelebs": 9095,
      "Ġreleasing": 9096,
      "Ġburden": 9097,
      "Ġgenu": 9098,
      "Ġheadphones": 9099,
      "Ġbreakdown": 9100,
      "Ġsnaps": 9101,
      "Ġposting": 9102,
      "Ġpowerball": 9103,
      "Ġexplor": 9104,
      "Ġexplores": 9105,
      "Ġexplained": 9106,
      "Ġmilo": 9107,
      "Ġnightclub": 9108,
      "Ġcelebration": 9109,
      "Ġrevis": 9110,
      "Ġbabys": 9111,
      "Ġdetention": 9112,
      "Ġtowns": 9113,
      "Ġantib": 9114,
      "Ġmeetings": 9115,
      "Ġsteel": 9116,
      "Ġcorps": 9117,
      "Ġhomicide": 9118,
      "Ġadvant": 9119,
      "inky": 9120,
      "Ġcurios": 9121,
      "Ġintroduce": 9122,
      "Ġdirections": 9123,
      "Ġbehold": 9124,
      "Ġclassroom": 9125,
      "Ġviolations": 9126,
      "Ġyorker": 9127,
      "trow": 9128,
      "Ġeverest": 9129,
      "Ġchees": 9130,
      "Ġcheering": 9131,
      "Ġentirety": 9132,
      "Ġsexuality": 9133,
      "Ġsusan": 9134,
      "Ġcalc": 9135,
      "Ġadditional": 9136,
      "Ġfilmed": 9137,
      "Ġdevin": 9138,
      "Ġdevil": 9139,
      "Ġpaula": 9140,
      "Ġthreaten": 9141,
      "Ġmotherhood": 9142,
      "Ġbench": 9143,
      "Ġdealing": 9144,
      "Ġheartwarming": 9145,
      "Ġheartfelt": 9146,
      "Ġtaxpay": 9147,
      "Ġhunter": 9148,
[...]
