{
  "version": "1.0",
  "truncation": null,
  "padding": null,
  "added_tokens": [
    {
      "id": 0,
      "content": "[PAD]",
      "single_word": false,
      "lstrip": false,
      "rstrip": false,
      "normalized": false,
      "special": true
    },
    {
      "id": 1,
      "content": "[UNK]",
      "single_word": false,
      "lstrip": false,
      "rstrip": false,
      "normalized": false,
      "special": true
    },
    {
      "id": 2,
      "content": "[CLS]",
      "single_word": false,
      "lstrip": false,
      "rstrip": false,
      "normalized": false,
      "special": true
    },
    {
      "id": 3,
      "content": "[SEP]",
      "single_word": false,
      "lstrip": false,
      "rstrip": false,
      "normalized": false,
      "special": true
    },
    {
      "id": 4,
      "content": "[MASK]",
      "single_word": false,
      "lstrip": false,
      "rstrip": false,
      "normalized": false,
      "special": true
    }
  ],
  "normalizer": null,
  "pre_tokenizer": {
    "type": "BertPreTokenizer"
  },
  "post_processor": null,
  "decoder": null,
  "model": {
    "type": "WordPiece",
    "unk_token": "[UNK]",
    "continuing_subword_prefix": "##",
    "max_input_chars_per_word": 100,
    "vocab": {
      "[PAD]": 0,
      "[UNK]": 1,
      "[CLS]": 2,
      "[SEP]": 3,
      "[MASK]": 4,
      "!": 5,
      "\"": 6,
      "#": 7,
      "$": 8,
      "%": 9,
      "&": 10,
      "'": 11,
      "(": 12,
      ")": 13,
      "*": 14,
      "+": 15,
      ",": 16,
      "-": 17,
      ".": 18,
      "/": 19,
      "0": 20,
      "1": 21,
      "2": 22,
      "3": 23,
      "4": 24,
      "5": 25,
      "6": 26,
      "7": 27,
      "8": 28,
      "9": 29,
      ":": 30,
      ";": 31,
      "=": 32,
      ">": 33,
      "?": 34,
      "@": 35,
      "[": 36,
      "\\": 37,
      "]": 38,
      "_": 39,
      "a": 40,
      "b": 41,
      "c": 42,
      "d": 43,
      "e": 44,
      "f": 45,
      "g": 46,
      "h": 47,
      "i": 48,
      "j": 49,
      "k": 50,
      "l": 51,
      "m": 52,
      "n": 53,
      "o": 54,
      "p": 55,
      "q": 56,
      "r": 57,
      "s": 58,
      "t": 59,
      "u": 60,
      "v": 61,
      "w": 62,
      "x": 63,
      "y": 64,
      "z": 65,
      "{": 66,
      "|": 67,
      "}": 68,
      "": 69,
      "": 70,
      "¡": 71,
      "©": 72,
      "¯": 73,
      "°": 74,
      "¿": 75,
      "×": 76,
      "à": 77,
      "á": 78,
      "ã": 79,
      "ä": 80,
      "ç": 81,
      "è": 82,
      "é": 83,
      "ë": 84,
      "í": 85,
      "ï": 86,
      "ñ": 87,
      "ó": 88,
      "ö": 89,
      "ø": 90,
      "û": 91,
      "ü": 92,
      "ō": 93,
      "ſ": 94,
      "̈": 95,
      "λ": 96,
      "​": 97,
      "–": 98,
      "—": 99,
      "―": 100,
      "“": 101,
      "”": 102,
      "…": 103,
      "™": 104,
      "ツ": 105,
      "##n": 106,
      "##s": 107,
      "##i": 108,
      "##g": 109,
      "##h": 110,
      "##t": 111,
      "##l": 112,
      "##y": 113,
      "##a": 114,
      "##u": 115,
      "##c": 116,
      "##o": 117,
      "##e": 118,
      "##p": 119,
      "##r": 120,
      "##v": 121,
      "##d": 122,
      "##x": 123,
      "##k": 124,
      "##b": 125,
      "##m": 126,
      "##w": 127,
      "##f": 128,
      "##5": 129,
      "##0": 130,
      "##z": 131,
      "##j": 132,
      "##q": 133,
      "##4": 134,
      "##7": 135,
      "##8": 136,
      "##2": 137,
      "##3": 138,
      "##9": 139,
      "##6": 140,
      "##1": 141,
      "##ó": 142,
      "##é": 143,
      "##á": 144,
      "##ö": 145,
      "##ä": 146,
      "##ſ": 147,
      "##ñ": 148,
      "##": 149,
      "##ü": 150,
      "##à": 151,
      "##×": 152,
      "##ō": 153,
      "##™": 154,
      "##í": 155,
      "##": 156,
      "##û": 157,
      "##°": 158,
      "##​": 159,
      "##ë": 160,
      "##è": 161,
      "##ï": 162,
      "##ã": 163,
      "##ç": 164,
      "##̈": 165,
      "##λ": 166,
      "##ø": 167,
      "##er": 168,
      "##in": 169,
      "##es": 170,
      "##an": 171,
      "##on": 172,
      "##or": 173,
      "##ing": 174,
      "##en": 175,
      "##at": 176,
      "##ar": 177,
      "th": 178,
      "to": 179,
      "##al": 180,
      "##ed": 181,
      "##ou": 182,
      "##it": 183,
      "##is": 184,
      "in": 185,
      "##ic": 186,
      "of": 187,
      "##om": 188,
      "##re": 189,
      "##il": 190,
      "the": 191,
      "##as": 192,
      "re": 193,
      "##le": 194,
      "##ion": 195,
      "##el": 196,
      "st": 197,
      "##et": 198,
      "##ac": 199,
      "##ow": 200,
      "##ot": 201,
      "##ent": 202,
      "for": 203,
      "##st": 204,
      "##ay": 205,
      "##ol": 206,
      "##am": 207,
      "##id": 208,
      "an": 209,
      "on": 210,
      "##ly": 211,
      "##ig": 212,
      "tr": 213,
      "##ers": 214,
      "##ut": 215,
      "wh": 216,
      "##ur": 217,
      "##ad": 218,
      "##um": 219,
      "##ve": 220,
      "ne": 221,
      "##ir": 222,
      "pr": 223,
      "##ec": 224,
      "ch": 225,
      "##ter": 226,
      "##ill": 227,
      "##im": 228,
      "sh": 229,
      "##ver": 230,
      "##ch": 231,
      "##us": 232,
      "##ak": 233,
      "##ts": 234,
      "##op": 235,
      "be": 236,
      "de": 237,
      "fr": 238,
      "##ith": 239,
      "##ation": 240,
      "##ess": 241,
      "##est": 242,
      "##th": 243,
      "is": 244,
      "with": 245,
      "##oo": 246,
      "you": 247,
      "##un": 248,
      "##ce": 249,
      "and": 250,
      "##and": 251,
      "##ump": 252,
      "new": 253,
      "con": 254,
      "##ul": 255,
      "##ld": 256,
      "##ge": 257,
      "##ate": 258,
      "##ear": 259,
      "at": 260,
      "##igh": 261,
      "##os": 262,
      "trump": 263,
      "man": 264,
      "al": 265,
      "##ist": 266,
      "##oc": 267,
      "##if": 268,
      "##ap": 269,
      "##iv": 270,
      "as": 271,
      "##ack": 272,
      "he": 273,
      "un": 274,
      "ab": 275,
      "##ort": 276,
      "##ab": 277,
      "##end": 278,
      "sp": 279,
      "com": 280,
      "##ust": 281,
      "##out": 282,
      "##ain": 283,
      "##all": 284,
      "ex": 285,
      "##ie": 286,
      "##ct": 287,
      "se": 288,
      "##ous": 289,
      "##em": 290,
      "##oun": 291,
      "cl": 292,
      "wor": 293,
      "from": 294,
      "##ore": 295,
      "rep": 296,
      "##ans": 297,
      "su": 298,
      "af": 299,
      "it": 300,
      "am": 301,
      "##ight": 302,
      "##ri": 303,
      "##ud": 304,
      "are": 305,
      "out": 306,
      "##ity": 307,
      "up": 308,
      "en": 309,
      "pl": 310,
      "##od": 311,
      "##ant": 312,
      "about": 313,
      "##her": 314,
      "le": 315,
      "we": 316,
      "##art": 317,
      "cr": 318,
      "##ag": 319,
      "##ast": 320,
      "##ive": 321,
      "##ks": 322,
      "do": 323,
      "##ies": 324,
      "##ally": 325,
      "gr": 326,
      "by": 327,
      "##ob": 328,
      "##ds": 329,
      "after": 330,
      "##ip": 331,
      "##ost": 332,
      "br": 333,
      "off": 334,
      "not": 335,
      "##ays": 336,
      "##uc": 337,
      "this": 338,
      "can": 339,
      "##ell": 340,
      "##gh": 341,
      "wom": 342,
      "##ice": 343,
      "##av": 344,
      "ad": 345,
      "##ould": 346,
      "bl": 347,
      "that": 348,
      "##ide": 349,
      "ar": 350,
      "##iz": 351,
      "##ment": 352,
      "##ake": 353,
      "##ke": 354,
      "int": 355,
      "##ard": 356,
      "##ial": 357,
      "##ov": 358,
      "##king": 359,
      "##one": 360,
      "dr": 361,
      "##ass": 362,
      "how": 363,
      "##pp": 364,
      "##ave": 365,
      "year": 366,
      "##ia": 367,
      "get": 368,
      "##ine": 369,
      "##eric": 370,
      "all": 371,
      "##ere": 372,
      "americ": 373,
      "sc": 374,
      "##og": 375,
      "just": 376,
      "##ood": 377,
      "##ect": 378,
      "##our": 379,
      "don": 380,
      "##oy": 381,
      "te": 382,
      "##ome": 383,
      "dis": 384,
      "##ary": 385,
      "who": 386,
      "##ace": 387,
      "go": 388,
      "fin": 389,
      "##ep": 390,
      "what": 391,
      "##age": 392,
      "car": 393,
      "me": 394,
      "##ire": 395,
      "##ite": 396,
      "mar": 397,
      "pol": 398,
      "##ff": 399,
      "##der": 400,
      "over": 401,
      "will": 402,
      "em": 403,
      "##ens": 404,
      "ob": 405,
      "##ub": 406,
      "your": 407,
      "##aw": 408,
      "his": 409,
      "li": 410,
      "##pl": 411,
      "has": 412,
      "report": 413,
      "##ence": 414,
      "##ian": 415,
      "##ress": 416,
      "##ail": 417,
      "##own": 418,
      "##ick": 419,
      "ever": 420,
      "##ime": 421,
      "res": 422,
      "ag": 423,
      "##ure": 424,
      "im": 425,
      "##ry": 426,
      "##ong": 427,
      "##ook": 428,
      "##ting": 429,
      "par": 430,
      "##ton": 431,
      "us": 432,
      "##ents": 433,
      "##ign": 434,
      "ac": 435,
      "##ue": 436,
      "##reat": 437,
      "##ild": 438,
      "pe": 439,
      "##ber": 440,
      "pre": 441,
      "into": 442,
      "more": 443,
      "nation": 444,
      "##ound": 445,
      "##per": 446,
      "20": 447,
      "one": 448,
      "##ame": 449,
      "or": 450,
      "##ife": 451,
      "##ors": 452,
      "##ach": 453,
      "##ough": 454,
      "col": 455,
      "fir": 456,
      "##ath": 457,
      "her": 458,
      "##ning": 459,
      "##ash": 460,
      "have": 461,
      "stud": 462,
      "fl": 463,
      "##ald": 464,
      "woman": 465,
      "##ates": 466,
      "##ish": 467,
      "rec": 468,
      "##ions": 469,
      "##ra": 470,
      "day": 471,
      "gu": 472,
      "##ey": 473,
      "war": 474,
      "no": 475,
      "##able": 476,
      "obam": 477,
      "ph": 478,
      "why": 479,
      "att": 480,
      "pres": 481,
      "##ool": 482,
      "sec": 483,
      "##ident": 484,
      "##ings": 485,
      "area": 486,
      "every": 487,
      "time": 488,
      "##atch": 489,
      "back": 490,
      "##pt": 491,
      "kn": 492,
      "old": 493,
      "says": 494,
      "##amp": 495,
      "cont": 496,
      "##ouse": 497,
      "fe": 498,
      "than": 499,
      "donald": 500,
      "first": 501,
      "act": 502,
      "##ind": 503,
      "##app": 504,
      "##ance": 505,
      "jo": 506,
      "##ner": 507,
      "show": 508,
      "##ib": 509,
      "like": 510,
      "per": 511,
      "##ating": 512,
      "##iss": 513,
      "tw": 514,
      "sch": 515,
      "##ual": 516,
      "##ious": 517,
      "comp": 518,
      "##ang": 519,
      "##oot": 520,
      "##ory": 521,
      "##ons": 522,
      "##akes": 523,
      "##ove": 524,
      "##lic": 525,
      "##ople": 526,
      "##ists": 527,
      "part": 528,
      "people": 529,
      "obama": 530,
      "bus": 531,
      "thr": 532,
      "house": 533,
      "my": 534,
      "world": 535,
      "##act": 536,
      "##ug": 537,
      "##als": 538,
      "app": 539,
      "##az": 540,
      "##orm": 541,
      "##ock": 542,
      "##over": 543,
      "women": 544,
      "life": 545,
      "##itt": 546,
      "qu": 547,
      "##ase": 548,
      "##elf": 549,
      "sex": 550,
      "now": 551,
      "ann": 552,
      "ev": 553,
      "##00": 554,
      "##ich": 555,
      "so": 556,
      "they": 557,
      "dem": 558,
      "call": 559,
      "##other": 560,
      "##ily": 561,
      "child": 562,
      "fam": 563,
      "##ile": 564,
      "##ely": 565,
      "str": 566,
      "##aking": 567,
      "bill": 568,
      "white": 569,
      "make": 570,
      "##ated": 571,
      "##its": 572,
      "##ical": 573,
      "aw": 574,
      "rem": 575,
      "mom": 576,
      "##ond": 577,
      "##ict": 578,
      "##ns": 579,
      "bre": 580,
      "down": 581,
      "inter": 582,
      "star": 583,
      "##lect": 584,
      "##ends": 585,
      "sur": 586,
      "real": 587,
      "again": 588,
      "was": 589,
      "##are": 590,
      "still": 591,
      "##man": 592,
      "sl": 593,
      "##ives": 594,
      "plan": 595,
      "##ful": 596,
      "ins": 597,
      "##oss": 598,
      "president": 599,
      "she": 600,
      "ass": 601,
      "work": 602,
      "##uck": 603,
      "##qu": 604,
      "clin": 605,
      "acc": 606,
      "##ling": 607,
      "##irl": 608,
      "him": 609,
      "watch": 610,
      "##ding": 611,
      "##ublic": 612,
      "dec": 613,
      "sw": 614,
      "know": 615,
      "ce": 616,
      "chr": 617,
      "##ying": 618,
      "##ese": 619,
      "##ations": 620,
      "hol": 621,
      "##ets": 622,
      "clinton": 623,
      "vot": 624,
      "##br": 625,
      "could": 626,
      "if": 627,
      "comm": 628,
      "##ree": 629,
      "school": 630,
      "some": 631,
      "##anc": 632,
      "sm": 633,
      "##alth": 634,
      "des": 635,
      "kill": 636,
      "law": 637,
      "ow": 638,
      "##ade": 639,
      "##ty": 640,
      "##oom": 641,
      "##ose": 642,
      "tal": 643,
      "when": 644,
      "##ants": 645,
      "hel": 646,
      "##up": 647,
      "201": 648,
      "##au": 649,
      "##oll": 650,
      "min": 651,
      "ref": 652,
      "black": 653,
      "but": 654,
      "camp": 655,
      "##ek": 656,
      "may": 657,
      "win": 658,
      "##ise": 659,
      "need": 660,
      "family": 661,
      "op": 662,
      "##se": 663,
      "ser": 664,
      "##oup": 665,
      "any": 666,
      "inc": 667,
      "fri": 668,
      "way": 669,
      "would": 670,
      "##day": 671,
      "##orn": 672,
      "mon": 673,
      "##ork": 674,
      "bef": 675,
      "big": 676,
      "wr": 677,
      "their": 678,
      "does": 679,
      "before": 680,
      "high": 681,
      "##air": 682,
      "kid": 683,
      "mill": 684,
      "sen": 685,
      "##iving": 686,
      "health": 687,
      "##ord": 688,
      "girl": 689,
      "thin": 690,
      "mus": 691,
      "##ands": 692,
      "americans": 693,
      "hear": 694,
      "##ult": 695,
      "should": 696,
      "##ces": 697,
      "##ope": 698,
      "rel": 699,
      "##ee": 700,
      "##ower": 701,
      "imp": 702,
      "co": 703,
      "gl": 704,
      "most": 705,
      "char": 706,
      "fun": 707,
      "sy": 708,
      "state": 709,
      "##erson": 710,
      "##uring": 711,
      "dep": 712,
      "def": 713,
      "lead": 714,
      "med": 715,
      "mov": 716,
      "ret": 717,
      "cons": 718,
      "bet": 719,
      "gop": 720,
      "spe": 721,
      "good": 722,
      "tur": 723,
      "##hn": 724,
      "##ange": 725,
      "conf": 726,
      "ind": 727,
      "only": 728,
      "cong": 729,
      "study": 730,
      "##hing": 731,
      "elect": 732,
      "face": 733,
      "american": 734,
      "##ern": 735,
      "under": 736,
      "##ret": 737,
      "##io": 738,
      "deb": 739,
      "bu": 740,
      "ban": 741,
      "##mer": 742,
      "cour": 743,
      "har": 744,
      "prot": 745,
      "##ull": 746,
      "##ount": 747,
      "years": 748,
      "##ady": 749,
      "bar": 750,
      "say": 751,
      "dead": 752,
      "##les": 753,
      "being": 754,
      "10": 755,
      "last": 756,
      "disc": 757,
      "##augh": 758,
      "inv": 759,
      "ter": 760,
      "po": 761,
      "death": 762,
      "bec": 763,
      "best": 764,
      "run": 765,
      "##ics": 766,
      "congress": 767,
      "here": 768,
      "tell": 769,
      "##ger": 770,
      "too": 771,
      "##els": 772,
      "let": 773,
      "help": 774,
      "##ale": 775,
      "really": 776,
      "week": 777,
      "home": 778,
      "##ream": 779,
      "trans": 780,
      "finds": 781,
      "##ah": 782,
      "miss": 783,
      "##uss": 784,
      "hum": 785,
      "##ied": 786,
      "##olog": 787,
      "supp": 788,
      "##ather": 789,
      "##ism": 790,
      "christ": 791,
      "##ivers": 792,
      "vide": 793,
      "##uct": 794,
      "america": 795,
      "ed": 796,
      "##ows": 797,
      "police": 798,
      "bo": 799,
      "hill": 800,
      "mu": 801,
      "##ason": 802,
      "play": 803,
      "id": 804,
      "##ren": 805,
      "##iew": 806,
      "see": 807,
      "going": 808,
      "##cc": 809,
      "##att": 810,
      "news": 811,
      "ear": 812,
      "them": 813,
      "prob": 814,
      "happ": 815,
      "sn": 816,
      "##ims": 817,
      "##ocr": 818,
      "ent": 819,
      "##ames": 820,
      "phot": 821,
      "during": 822,
      "##ater": 823,
      "##old": 824,
      "##ats": 825,
      "long": 826,
      "##ges": 827,
      "##aign": 828,
      "end": 829,
      "won": 830,
      "##let": 831,
      "campaign": 832,
      "ap": 833,
      "ke": 834,
      "##ix": 835,
      "el": 836,
      "video": 837,
      "self": 838,
      "##ned": 839,
      "offic": 840,
      "announ": 841,
      "gun": 842,
      "##ins": 843,
      "stop": 844,
      "oth": 845,
      "##pect": 846,
      "##ott": 847,
      "care": 848,
      "##ient": 849,
      "##ody": 850,
      "put": 851,
      "things": 852,
      "adm": 853,
      "love": 854,
      "shoot": 855,
      "##use": 856,
      "cle": 857,
      "loc": 858,
      "##af": 859,
      "##int": 860,
      "boy": 861,
      "##ax": 862,
      "##ric": 863,
      "##ition": 864,
      "fil": 865,
      "right": 866,
      "party": 867,
      "sk": 868,
      "##get": 869,
      "reve": 870,
      "perf": 871,
      "##ert": 872,
      "parents": 873,
      "through": 874,
      "attack": 875,
      "##ina": 876,
      "republic": 877,
      "000": 878,
      "take": 879,
      "##xt": 880,
      "pro": 881,
      "dog": 882,
      "hillary": 883,
      "contr": 884,
      "own": 885,
      "leg": 886,
      "bab": 887,
      "want": 888,
      "##ually": 889,
      "dad": 890,
      "hist": 891,
      "##ited": 892,
      "getting": 893,
      "guy": 894,
      "against": 895,
      "##ph": 896,
      "there": 897,
      "##ney": 898,
      "person": 899,
      "##hip": 900,
      "##rem": 901,
      "##ush": 902,
      "john": 903,
      "vis": 904,
      "##ploy": 905,
      "imm": 906,
      "mem": 907,
      "##aving": 908,
      "art": 909,
      "secret": 910,
      "democr": 911,
      "cele": 912,
      "loo": 913,
      "##ced": 914,
      "ste": 915,
      "look": 916,
      "night": 917,
      "##sc": 918,
      "##ues": 919,
      "##iting": 920,
      "bur": 921,
      "pass": 922,
      "##ases": 923,
      "where": 924,
      "##ittle": 925,
      "kids": 926,
      "gen": 927,
      "job": 928,
      "gets": 929,
      "bir": 930,
      "its": 931,
      "little": 932,
      "rele": 933,
      "while": 934,
      "never": 935,
      "head": 936,
      "mid": 937,
      "sing": 938,
      "court": 939,
      "power": 940,
      "##ery": 941,
      "##iness": 942,
      "##ible": 943,
      "inf": 944,
      "rest": 945,
      "sand": 946,
      "##vern": 947,
      "other": 948,
      "##orts": 949,
      "##ures": 950,
      "##unch": 951,
      "wal": 952,
      "polit": 953,
      "break": 954,
      "did": 955,
      "##uff": 956,
      "##any": 957,
      "##iff": 958,
      "colle": 959,
      "doesn": 960,
      "post": 961,
      "celebr": 962,
      "pa": 963,
      "expl": 964,
      "mil": 965,
      "soc": 966,
      "##ator": 967,
      "##owing": 968,
      "##ize": 969,
      "even": 970,
      "cand": 971,
      "makes": 972,
      "##pr": 973,
      "rev": 974,
      "##ech": 975,
      "change": 976,
      "baby": 977,
      "bel": 978,
      "vi": 979,
      "##ms": 980,
      "these": 981,
      "red": 982,
      "ant": 983,
      "mark": 984,
      "##ief": 985,
      "govern": 986,
      "keep": 987,
      "gay": 988,
      "##oduc": 989,
      "del": 990,
      "mich": 991,
      "our": 992,
      "mor": 993,
      "tow": 994,
      "##imate": 995,
      "grand": 996,
      "##ities": 997,
      "calls": 998,
      "air": 999,
      "det": 1000,
      "fire": 1001,
      "pat": 1002,
      "##ights": 1003,
      "je": 1004,
      "##orth": 1005,
      "##igr": 1006,
      "exper": 1007,
      "support": 1008,
      "super": 1009,
      "open": 1010,
      "men": 1011,
      "election": 1012,
      "god": 1013,
      "game": 1014,
      "##ier": 1015,
      "start": 1016,
      "##ute": 1017,
      "conv": 1018,
      "bad": 1019,
      "la": 1020,
      "ro": 1021,
      "russ": 1022,
      "##ble": 1023,
      "next": 1024,
      "exc": 1025,
      "fight": 1026,
      "##my": 1027,
      "##oney": 1028,
      "##ogr": 1029,
      "meet": 1030,
      "##by": 1031,
      "##ift": 1032,
      "resp": 1033,
      "bush": 1034,
      "cap": 1035,
      "employ": 1036,
      "local": 1037,
      "##red": 1038,
      "##ft": 1039,
      "around": 1040,
      "million": 1041,
      "doc": 1042,
      "hom": 1043,
      "hot": 1044,
      "ir": 1045,
      "##iet": 1046,
      "cur": 1047,
      "great": 1048,
      "takes": 1049,
      "wa": 1050,
      "##ams": 1051,
      "che": 1052,
      "teen": 1053,
      "##ony": 1054,
      "##itch": 1055,
      "ve": 1056,
      "class": 1057,
      "cor": 1058,
      "##ience": 1059,
      "##atic": 1060,
      "##erg": 1061,
      "adv": 1062,
      "fail": 1063,
      "ma": 1064,
      "##een": 1065,
      "##book": 1066,
      "reg": 1067,
      "month": 1068,
      "cop": 1069,
      "coup": 1070,
      "dire": 1071,
      "got": 1072,
      "##cer": 1073,
      "##enn": 1074,
      "beh": 1075,
      "rob": 1076,
      "tim": 1077,
      "##way": 1078,
      "##ink": 1079,
      "made": 1080,
      "cla": 1081,
      "office": 1082,
      "list": 1083,
      "##ged": 1084,
      "top": 1085,
      "another": 1086,
      "sign": 1087,
      "##thing": 1088,
      "intr": 1089,
      "friend": 1090,
      "terr": 1091,
      "college": 1092,
      "candid": 1093,
      "north": 1094,
      "set": 1095,
      "business": 1096,
      "lear": 1097,
      "##uth": 1098,
      "two": 1099,
      "direct": 1100,
      "##ves": 1101,
      "live": 1102,
      "mass": 1103,
      "son": 1104,
      "##uge": 1105,
      "step": 1106,
      "##artment": 1107,
      "hour": 1108,
      "##land": 1109,
      "##ene": 1110,
      "##ution": 1111,
      "exp": 1112,
      "viol": 1113,
      "couple": 1114,
      "free": 1115,
      "##son": 1116,
      "##led": 1117,
      "##ince": 1118,
      "thing": 1119,
      "announces": 1120,
      "ra": 1121,
      "inst": 1122,
      "finally": 1123,
      "debate": 1124,
      "count": 1125,
      "wants": 1126,
      "##ont": 1127,
      "##ird": 1128,
      "prom": 1129,
      "poll": 1130,
      "national": 1131,
      "cal": 1132,
      "york": 1133,
      "##less": 1134,
      "##oth": 1135,
      "been": 1136,
      "sup": 1137,
      "add": 1138,
      "children": 1139,
      "much": 1140,
      "pop": 1141,
      "room": 1142,
      "ur": 1143,
      "##ians": 1144,
      "##aff": 1145,
      "##eral": 1146,
      "##ips": 1147,
      "sexual": 1148,
      "dream": 1149,
      "ge": 1150,
      "##ison": 1151,
      "suprem": 1152,
      "found": 1153,
      "sus": 1154,
      "ext": 1155,
      "##izes": 1156,
      "pret": 1157,
      "actually": 1158,
      "heart": 1159,
      "entire": 1160,
      "fem": 1161,
      "##fri": 1162,
      "##ane": 1163,
      "read": 1164,
      "sub": 1165,
      "fall": 1166,
      "wed": 1167,
      "##ann": 1168,
      "##ones": 1169,
      "threat": 1170,
      "friends": 1171,
      "reveals": 1172,
      "##umb": 1173,
      "##ains": 1174,
      "season": 1175,
      "film": 1176,
      "birth": 1177,
      "creat": 1178,
      "had": 1179,
      "##cy": 1180,
      "##dle": 1181,
      "##ines": 1182,
      "##ank": 1183,
      "##ative": 1184,
      "dev": 1185,
      "ep": 1186,
      "hand": 1187,
      "money": 1188,
      "##ness": 1189,
      "##ark": 1190,
      "feel": 1191,
      "less": 1192,
      "mother": 1193,
      "everyone": 1194,
      "senate": 1195,
      "paul": 1196,
      "##aut": 1197,
      "##co": 1198,
      "##outh": 1199,
      "ide": 1200,
      "som": 1201,
      "marri": 1202,
      "better": 1203,
      "gre": 1204,
      "hun": 1205,
      "public": 1206,
      "##ently": 1207,
      "climate": 1208,
      "human": 1209,
      "immigr": 1210,
      "anti": 1211,
      "book": 1212,
      "city": 1213,
      "story": 1214,
      "##acy": 1215,
      "trying": 1216,
      "deal": 1217,
      "spec": 1218,
      "##friend": 1219,
      "sum": 1220,
      "##ike": 1221,
      "##gn": 1222,
      "##line": 1223,
      "shows": 1224,
      "away": 1225,
      "facebook": 1226,
      "body": 1227,
      "far": 1228,
      "food": 1229,
      "without": 1230,
      "##earch": 1231,
      "##ials": 1232,
      "scient": 1233,
      "give": 1234,
      "hon": 1235,
      "pay": 1236,
      "##ause": 1237,
      "##con": 1238,
      "##ars": 1239,
      "##aster": 1240,
      "##ears": 1241,
      "retur": 1242,
      "vict": 1243,
      "##ball": 1244,
      "quest": 1245,
      "movie": 1246,
      "perfect": 1247,
      "mag": 1248,
      "sal": 1249,
      "tax": 1250,
      "##bo": 1251,
      "##ils": 1252,
      "##uts": 1253,
      "beg": 1254,
      "enough": 1255,
      "##ought": 1256,
      "media": 1257,
      "invest": 1258,
      "introduc": 1259,
      "11": 1260,
      "making": 1261,
      "sle": 1262,
      "##ape": 1263,
      "##ized": 1264,
      "##ugg": 1265,
      "mur": 1266,
      "##he": 1267,
      "##yp": 1268,
      "ey": 1269,
      "jud": 1270,
      "lat": 1271,
      "pope": 1272,
      "sol": 1273,
      "##ital": 1274,
      "##ises": 1275,
      "##imp": 1276,
      "group": 1277,
      "students": 1278,
      "government": 1279,
      "av": 1280,
      "cent": 1281,
      "net": 1282,
      "##ards": 1283,
      "stre": 1284,
      "##used": 1285,
      "intern": 1286,
      "father": 1287,
      "hal": 1288,
      "tv": 1289,
      "ways": 1290,
      "##ll": 1291,
      "##ma": 1292,
      "unve": 1293,
      "##ense": 1294,
      "history": 1295,
      "sanders": 1296,
      "cover": 1297,
      "ll": 1298,
      "val": 1299,
      "##erv": 1300,
      "##ides": 1301,
      "cru": 1302,
      "arr": 1303,
      "company": 1304,
      "shooting": 1305,
      "hard": 1306,
      "rac": 1307,
      "##pir": 1308,
      "##kes": 1309,
      "##itter": 1310,
      "##ional": 1311,
      "surpr": 1312,
      "single": 1313,
      "diff": 1314,
      "line": 1315,
      "must": 1316,
      "##ro": 1317,
      "middle": 1318,
      "supreme": 1319,
      "hur": 1320,
      "##ests": 1321,
      "##urch": 1322,
      "##istr": 1323,
      "serv": 1324,
      "foot": 1325,
      "hor": 1326,
      "lov": 1327,
      "##iest": 1328,
      "##fl": 1329,
      "##ically": 1330,
      "##ster": 1331,
      "##aves": 1332,
      "email": 1333,
      "think": 1334,
      "speech": 1335,
      "somet": 1336,
      "introduces": 1337,
      "cre": 1338,
      "##ased": 1339,
      "stand": 1340,
      "##iday": 1341,
      "##ecut": 1342,
      "##unk": 1343,
      "conc": 1344,
      "twe": 1345,
      "complet": 1346,
      "protest": 1347,
      "mo": 1348,
      "##ler": 1349,
      "##bs": 1350,
      "##ering": 1351,
      "##ready": 1352,
      "already": 1353,
      "find": 1354,
      "pretty": 1355,
      "##yan": 1356,
      "beaut": 1357,
      "come": 1358,
      "maj": 1359,
      "19": 1360,
      "bid": 1361,
      "fre": 1362,
      "fut": 1363,
      "hop": 1364,
      "hall": 1365,
      "met": 1366,
      "pet": 1367,
      "rock": 1368,
      "same": 1369,
      "##ares": 1370,
      "##str": 1371,
      "iss": 1372,
      "syri": 1373,
      "mod": 1374,
      "##mas": 1375,
      "##arly": 1376,
      "alle": 1377,
      "crit": 1378,
      "second": 1379,
      "##anger": 1380,
      "prof": 1381,
      "social": 1382,
      "cost": 1383,
      "los": 1384,
      "wear": 1385,
      "##ending": 1386,
      "talk": 1387,
      "discover": 1388,
      "cow": 1389,
      "que": 1390,
      "##ik": 1391,
      "##aces": 1392,
      "##avor": 1393,
      "prev": 1394,
      "releases": 1395,
      "sil": 1396,
      "water": 1397,
      "##ender": 1398,
      "##ipp": 1399,
      "use": 1400,
      "swe": 1401,
      "proble": 1402,
      "country": 1403,
      "major": 1404,
      "##bt": 1405,
      "former": 1406,
      "##urity": 1407,
      "##ucking": 1408,
      "full": 1409,
      "having": 1410,
      "test": 1411,
      "##dd": 1412,
      "##ising": 1413,
      "commun": 1414,
      "photos": 1415,
      "past": 1416,
      "vir": 1417,
      "##oud": 1418,
      "##ention": 1419,
      "trav": 1420,
      "##ably": 1421,
      "coming": 1422,
      "amaz": 1423,
      "presidential": 1424,
      "belie": 1425,
      "wedding": 1426,
      "sleep": 1427,
      "bern": 1428,
      "kim": 1429,
      "sa": 1430,
      "##room": 1431,
      "##ject": 1432,
      "##ley": 1433,
      "##ified": 1434,
      "didn": 1435,
      "geor": 1436,
      "unveils": 1437,
      "12": 1438,
      "rom": 1439,
      "##ana": 1440,
      "##ened": 1441,
      "##iter": 1442,
      "control": 1443,
      "kore": 1444,
      "move": 1445,
      "name": 1446,
      "pan": 1447,
      "##ways": 1448,
      "##ision": 1449,
      "##ument": 1450,
      "doing": 1451,
      "behind": 1452,
      "investig": 1453,
      "case": 1454,
      "fans": 1455,
      "##ior": 1456,
      "##iel": 1457,
      "##hood": 1458,
      "##aur": 1459,
      "prov": 1460,
      "cond": 1461,
      "aff": 1462,
      "bro": 1463,
      "team": 1464,
      "republican": 1465,
      "something": 1466,
      "daugh": 1467,
      "##ys": 1468,
      "##acher": 1469,
      "chec": 1470,
      "##ember": 1471,
      "looking": 1472,
      "future": 1473,
      "eff": 1474,
      "host": 1475,
      "jour": 1476,
      "james": 1477,
      "rul": 1478,
      "##ino": 1479,
      "##utes": 1480,
      "drug": 1481,
      "student": 1482,
      "ceo": 1483,
      "christmas": 1484,
      "earth": 1485,
      "respons": 1486,
      "15": 1487,
      "mess": 1488,
      "osc": 1489,
      "sit": 1490,
      "##ael": 1491,
      "##xic": 1492,
      "tom": 1493,
      "chang": 1494,
      "voters": 1495,
      "morning": 1496,
      "iran": 1497,
      "scientists": 1498,
      "fucking": 1499,
      "might": 1500,
      "pal": 1501,
      "wall": 1502,
      "wife": 1503,
      "##ween": 1504,
      "##uses": 1505,
      "unt": 1506,
      "security": 1507,
      "between": 1508,
      "cat": 1509,
      "fed": 1510,
      "foll": 1511,
      "rights": 1512,
      "##ked": 1513,
      "once": 1514,
      "youn": 1515,
      "##overs": 1516,
      "teacher": 1517,
      "##ashing": 1518,
      "thinks": 1519,
      "music": 1520,
      "republicans": 1521,
      "dri": 1522,
      "gold": 1523,
      "lot": 1524,
      "nom": 1525,
      "race": 1526,
      "wild": 1527,
      "##ward": 1528,
      "shot": 1529,
      "##cept": 1530,
      "asks": 1531,
      "grad": 1532,
      "mcc": 1533,
      "ryan": 1534,
      "very": 1535,
      "stri": 1536,
      "##ury": 1537,
      "##aph": 1538,
      "democrats": 1539,
      "claims": 1540,
      "travel": 1541,
      "hit": 1542,
      "huff": 1543,
      "king": 1544,
      "lar": 1545,
      "wish": 1546,
      "##self": 1547,
      "forced": 1548,
      "repe": 1549,
      "##ude": 1550,
      "parent": 1551,
      "used": 1552,
      "hero": 1553,
      "##iously": 1554,
      "strugg": 1555,
      "vote": 1556,
      "2016": 1557,
      "dies": 1558,
      "##gr": 1559,
      "##erc": 1560,
      "today": 1561,
      "##ility": 1562,
      "##eless": 1563,
      "prison": 1564,
      "##ects": 1565,
      "##unt": 1566,
      "sure": 1567,
      "goes": 1568,
      "speak": 1569,
      "admits": 1570,
      "michael": 1571,
      "differ": 1572,
      "div": 1573,
      "non": 1574,
      "ple": 1575,
      "##gest": 1576,
      "##hen": 1577,
      "##bers": 1578,
      "attem": 1579,
      "department": 1580,
      "violence": 1581,
      "marriage": 1582,
      "den": 1583,
      "south": 1584,
      "##iver": 1585,
      "##ox": 1586,
      "franc": 1587,
      "##iforn": 1588,
      "univers": 1589,
      "left": 1590,
      "killed": 1591,
      "musl": 1592,
      "because": 1593,
      "personal": 1594,
      "times": 1595,
      "californ": 1596,
      "30": 1597,
      "jim": 1598,
      "lg": 1599,
      "##yc": 1600,
      "##uit": 1601,
      "##ees": 1602,
      "##wood": 1603,
      "tour": 1604,
      "##ett": 1605,
      "ang": 1606,
      "prop": 1607,
      "many": 1608,
      "##ific": 1609,
      "educ": 1610,
      "cust": 1611,
      "mis": 1612,
      "ru": 1613,
      "treat": 1614,
      "##sh": 1615,
      "##ised": 1616,
      "##aining": 1617,
      "drop": 1618,
      "surv": 1619,
      "small": 1620,
      "incre": 1621,
      "apolog": 1622,
      "terror": 1623,
      "bernie": 1624,
      "california": 1625,
      "lgbt": 1626,
      "bor": 1627,
      "ca": 1628,
      "cut": 1629,
      "din": 1630,
      "##com": 1631,
      "##mp": 1632,
      "##inc": 1633,
      "##arr": 1634,
      "clos": 1635,
      "plans": 1636,
      "twitter": 1637,
      "milit": 1638,
      "female": 1639,
      "aud": 1640,
      "hair": 1641,
      "ment": 1642,
      "##side": 1643,
      "##uch": 1644,
      "##ency": 1645,
      "press": 1646,
      "shop": 1647,
      "spr": 1648,
      "succ": 1649,
      "everything": 1650,
      "inside": 1651,
      "minutes": 1652,
      "political": 1653,
      "half": 1654,
      "boo": 1655,
      "ball": 1656,
      "coun": 1657,
      "days": 1658,
      "sun": 1659,
      "vac": 1660,
      "##yn": 1661,
      "##ault": 1662,
      "##oice": 1663,
      "##stem": 1664,
      "##ider": 1665,
      "##ured": 1666,
      "always": 1667,
      "eng": 1668,
      "##ments": 1669,
      "order": 1670,
      "record": 1671,
      "relations": 1672,
      "doct": 1673,
      "judge": 1674,
      "until": 1675,
      "bom": 1676,
      "ice": 1677,
      "##ared": 1678,
      "##eth": 1679,
      "##ular": 1680,
      "tex": 1681,
      "contin": 1682,
      "girls": 1683,
      "running": 1684,
      "photo": 1685,
      "restaur": 1686,
      "russia": 1687,
      "employee": 1688,
      "candidate": 1689,
      "francis": 1690,
      "dest": 1691,
      "eating": 1692,
      "key": 1693,
      "##ole": 1694,
      "##med": 1695,
      "##erry": 1696,
      "place": 1697,
      "##ages": 1698,
      "##izing": 1699,
      "interv": 1700,
      "leaders": 1701,
      "protect": 1702,
      "admin": 1703,
      "dav": 1704,
      "each": 1705,
      "kind": 1706,
      "living": 1707,
      "saf": 1708,
      "tar": 1709,
      "were": 1710,
      "##bor": 1711,
      "thous": 1712,
      "states": 1713,
      "##urs": 1714,
      "shit": 1715,
      "##aper": 1716,
      "warns": 1717,
      "refuge": 1718,
      "wrong": 1719,
      "glob": 1720,
      "town": 1721,
      "summer": 1722,
      "murder": 1723,
      "daughter": 1724,
      "fuck": 1725,
      "favor": 1726,
      "pot": 1727,
      "taking": 1728,
      "well": 1729,
      "tot": 1730,
      "working": 1731,
      "reports": 1732,
      "##aged": 1733,
      "teach": 1734,
      "inspir": 1735,
      "perform": 1736,
      "idea": 1737,
      "huffp": 1738,
      "administr": 1739,
      "pain": 1740,
      "sent": 1741,
      "save": 1742,
      "view": 1743,
      "##yl": 1744,
      "##vel": 1745,
      "thought": 1746,
      "##aps": 1747,
      "dress": 1748,
      "tells": 1749,
      "histor": 1750,
      "service": 1751,
      "auth": 1752,
      "mike": 1753,
      "pen": 1754,
      "song": 1755,
      "##nal": 1756,
      "##cent": 1757,
      "##bi": 1758,
      "##onds": 1759,
      "##acare": 1760,
      "##ustr": 1761,
      "obamacare": 1762,
      "few": 1763,
      "activ": 1764,
      "##uality": 1765,
      "system": 1766,
      "confir": 1767,
      "biden": 1768,
      "cowork": 1769,
      "success": 1770,
      "econ": 1771,
      "ill": 1772,
      "lab": 1773,
      "tre": 1774,
      "three": 1775,
      "##icks": 1776,
      "fore": 1777,
      "trail": 1778,
      "polic": 1779,
      "##berg": 1780,
      "color": 1781,
      "billion": 1782,
      "girlfriend": 1783,
      "missing": 1784,
      "secretary": 1785,
      "econom": 1786,
      "age": 1787,
      "cam": 1788,
      "mc": 1789,
      "mind": 1790,
      "ted": 1791,
      "##ister": 1792,
      "##lear": 1793,
      "execut": 1794,
      "cancer": 1795,
      "someone": 1796,
      "needs": 1797,
      "box": 1798,
      "looks": 1799,
      "cruz": 1800,
      "horr": 1801,
      "george": 1802,
      "korea": 1803,
      "thousands": 1804,
      "fan": 1805,
      "ira": 1806,
      "washing": 1807,
      "##oid": 1808,
      "##inds": 1809,
      "rece": 1810,
      "##ama": 1811,
      "shut": 1812,
      "isra": 1813,
      "justice": 1814,
      "march": 1815,
      "pregn": 1816,
      "thanks": 1817,
      "breaking": 1818,
      "market": 1819,
      "director": 1820,
      "street": 1821,
      "israel": 1822,
      "50": 1823,
      "jack": 1824,
      "lo": 1825,
      "lives": 1826,
      "##ging": 1827,
      "##ices": 1828,
      "neigh": 1829,
      "##imin": 1830,
      "##ode": 1831,
      "emb": 1832,
      "phone": 1833,
      "depress": 1834,
      "dou": 1835,
      "eas": 1836,
      "gives": 1837,
      "hope": 1838,
      "lost": 1839,
      "opp": 1840,
      "push": 1841,
      "sat": 1842,
      "##ru": 1843,
      "toget": 1844,
      "staff": 1845,
      "chief": 1846,
      "##iven": 1847,
      "spot": 1848,
      "comes": 1849,
      "cris": 1850,
      "bring": 1851,
      "flor": 1852,
      "##ocked": 1853,
      "probably": 1854,
      "officials": 1855,
      "convers": 1856,
      "hours": 1857,
      "believe": 1858,
      "relationship": 1859,
      "restaurant": 1860,
      "interview": 1861,
      "together": 1862,
      "light": 1863,
      "pu": 1864,
      "poss": 1865,
      "rub": 1866,
      "##atter": 1867,
      "##ites": 1868,
      "##omm": 1869,
      "ready": 1870,
      "##amed": 1871,
      "##ires": 1872,
      "##ired": 1873,
      "##ills": 1874,
      "arch": 1875,
      "prep": 1876,
      "##ption": 1877,
      "letter": 1878,
      "visit": 1879,
      "launch": 1880,
      "meeting": 1881,
      "young": 1882,
      "pull": 1883,
      "roy": 1884,
      "roll": 1885,
      "yet": 1886,
      "##gan": 1887,
      "trip": 1888,
      "isis": 1889,
      "##ival": 1890,
      "unc": 1891,
      "abort": 1892,
      "##eller": 1893,
      "mexic": 1894,
      "coll": 1895,
      "owner": 1896,
      "talks": 1897,
      "custom": 1898,
      "texas": 1899,
      "administration": 1900,
      "iraq": 1901,
      "giving": 1902,
      "mart": 1903,
      "pos": 1904,
      "sad": 1905,
      "##ming": 1906,
      "##ening": 1907,
      "##ators": 1908,
      "##idence": 1909,
      "##lywood": 1910,
      "front": 1911,
      "##oof": 1912,
      "##ried": 1913,
      "nothing": 1914,
      "accident": 1915,
      "capt": 1916,
      "wearing": 1917,
      "education": 1918,
      "washington": 1919,
      "card": 1920,
      "ham": 1921,
      "##iant": 1922,
      "##port": 1923,
      "##ker": 1924,
      "##que": 1925,
      "##irt": 1926,
      "##iful": 1927,
      "word": 1928,
      "phil": 1929,
      "design": 1930,
      "reveal": 1931,
      "excited": 1932,
      "susp": 1933,
      "honor": 1934,
      "romney": 1935,
      "journal": 1936,
      "destr": 1937,
      "crisis": 1938,
      "ben": 1939,
      "bow": 1940,
      "die": 1941,
      "four": 1942,
      "fox": 1943,
      "fbi": 1944,
      "oly": 1945,
      "##oon": 1946,
      "##bing": 1947,
      "##ately": 1948,
      "prod": 1949,
      "##aked": 1950,
      "leave": 1951,
      "watching": 1952,
      "wins": 1953,
      "turn": 1954,
      "olymp": 1955,
      "dam": 1956,
      "fig": 1957,
      "mad": 1958,
      "##ature": 1959,
      "reason": 1960,
      "const": 1961,
      "sug": 1962,
      "##ghan": 1963,
      "scre": 1964,
      "stars": 1965,
      "assault": 1966,
      "build": 1967,
      "##uction": 1968,
      "author": 1969,
      "rich": 1970,
      "tips": 1971,
      "##nc": 1972,
      "##ram": 1973,
      "##ints": 1974,
      "third": 1975,
      "##asons": 1976,
      "anim": 1977,
      "progr": 1978,
      "uns": 1979,
      "##ounds": 1980,
      "weird": 1981,
      "drunk": 1982,
      "##fully": 1983,
      "becom": 1984,
      "attacks": 1985,
      "military": 1986,
      "cast": 1987,
      "hate": 1988,
      "mel": 1989,
      "ris": 1990,
      "simp": 1991,
      "##yle": 1992,
      "##rov": 1993,
      "stra": 1994,
      "##ida": 1995,
      "##umber": 1996,
      "china": 1997,
      "expect": 1998,
      "##ement": 1999,
      "##uclear": 2000,
      "blood": 2001,
      "disapp": 2002,
      "percent": 2003,
      "remember": 2004,
      "hollywood": 2005,
      "talking": 2006,
      "buy": 2007,
      "special": 2008,
      "internet": 2009,
      "community": 2010,
      "bath": 2011,
      "gift": 2012,
      "land": 2013,
      "pick": 2014,
      "##nn": 2015,
      "##go": 2016,
      "##lor": 2017,
      "##eng": 2018,
      "online": 2019,
      "##oph": 2020,
      "##ested": 2021,
      "##osp": 2022,
      "outside": 2023,
      "crash": 2024,
      "scott": 2025,
      "clean": 2026,
      "##ograph": 2027,
      "months": 2028,
      "birthday": 2029,
      "beautiful": 2030,
      "problem": 2031,
      "straight": 2032,
      "100": 2033,
      "bud": 2034,
      "fac": 2035,
      "fear": 2036,
      "mot": 2037,
      "nuclear": 2038,
      "rad": 2039,
      "san": 2040,
      "sick": 2041,
      "##gy": 2042,
      "##ved": 2043,
      "##erm": 2044,
      "##orter": 2045,
      "##oul": 2046,
      "reb": 2047,
      "##owd": 2048,
      "compl": 2049,
      "leaves": 2050,
      "mean": 2051,
      "research": 2052,
      "park": 2053,
      "using": 2054,
      "quiet": 2055,
      "moment": 2056,
      "chris": 2057,
      "import": 2058,
      "mueller": 2059,
      "happy": 2060,
      "announce": 2061,
      "democratic": 2062,
      "road": 2063,
      "questions": 2064,
      "federal": 2065,
      "cool": 2066,
      "hil": 2067,
      "port": 2068,
      "west": 2069,
      "wind": 2070,
      "##ham": 2071,
      "those": 2072,
      "priv": 2073,
      "chin": 2074,
      "##aken": 2075,
      "deep": 2076,
      "worth": 2077,
      "##ago": 2078,
      "##key": 2079,
      "willi": 2080,
      "200": 2081,
      "recall": 2082,
      "guide": 2083,
      "laws": 2084,
      "##head": 2085,
      "following": 2086,
      "florida": 2087,
      "aut": 2088,
      "batt": 2089,
      "fly": 2090,
      "fash": 2091,
      "goo": 2092,
      "low": 2093,
      "##ai": 2094,
      "##ck": 2095,
      "##down": 2096,
      "##joy": 2097,
      "##ories": 2098,
      "##ask": 2099,
      "##elle": 2100,
      "store": 2101,
      "##acks": 2102,
      "##ager": 2103,
      "recomm": 2104,
      "wait": 2105,
      "address": 2106,
      "latest": 2107,
      "tweets": 2108,
      "issues": 2109,
      "majority": 2110,
      "rules": 2111,
      "bag": 2112,
      "dom": 2113,
      "er": 2114,
      "lou": 2115,
      "late": 2116,
      "matt": 2117,
      "pict": 2118,
      "rid": 2119,
      "since": 2120,
      "search": 2121,
      "stat": 2122,
      "##ults": 2123,
      "union": 2124,
      "enjoy": 2125,
      "##izz": 2126,
      "##apped": 2127,
      "knows": 2128,
      "holiday": 2129,
      "congressman": 2130,
      "wonder": 2131,
      "critic": 2132,
      "investigation": 2133,
      "check": 2134,
      "different": 2135,
      "abortion": 2136,
      "bed": 2137,
      "bul": 2138,
      "hands": 2139,
      "huge": 2140,
      "lif": 2141,
      "pence": 2142,
      "side": 2143,
      "##ij": 2144,
      "##ium": 2145,
      "##gle": 2146,
      "##por": 2147,
      "##ined": 2148,
      "inj": 2149,
      "apple": 2150,
      "minute": 2151,
      "series": 2152,
      "senator": 2153,
      "indust": 2154,
      "##board": 2155,
      "muslim": 2156,
      "fashion": 2157,
      "13": 2158,
      "es": 2159,
      "hus": 2160,
      "##sy": 2161,
      "##hol": 2162,
      "##uce": 2163,
      "##elly": 2164,
      "##eter": 2165,
      "##aylor": 2166,
      "train": 2167,
      "church": 2168,
      "##und": 2169,
      "spends": 2170,
      "carol": 2171,
      "acr": 2172,
      "relig": 2173,
      "charl": 2174,
      "waiting": 2175,
      "david": 2176,
      "40": 2177,
      "cult": 2178,
      "di": 2179,
      "esc": 2180,
      "rise": 2181,
      "##ne": 2182,
      "##lish": 2183,
      "##oint": 2184,
      "##ps": 2185,
      "##bre": 2186,
      "##mate": 2187,
      "##esh": 2188,
      "told": 2189,
      "##icide": 2190,
      "prince": 2191,
      "##ece": 2192,
      "chick": 2193,
      "short": 2194,
      "ask": 2195,
      "##ended": 2196,
      "##rib": 2197,
      "offers": 2198,
      "draw": 2199,
      "##bert": 2200,
      "called": 2201,
      "anything": 2202,
      "millions": 2203,
      "stephen": 2204,
      "suspect": 2205,
      "avoid": 2206,
      "center": 2207,
      "favorite": 2208,
      "civ": 2209,
      "date": 2210,
      "fact": 2211,
      "gar": 2212,
      "mist": 2213,
      "##ination": 2214,
      "##orable": 2215,
      "##ena": 2216,
      "##asts": 2217,
      "stay": 2218,
      "forg": 2219,
      "chic": 2220,
      "isn": 2221,
      "worried": 2222,
      "door": 2223,
      "whole": 2224,
      "emot": 2225,
      "##ancy": 2226,
      "2015": 2227,
      "thinking": 2228,
      "point": 2229,
      "review": 2230,
      "russian": 2231,
      "candidates": 2232,
      "response": 2233,
      "huffpost": 2234,
      "neighbor": 2235,
      "chinese": 2236,
      "band": 2237,
      "taylor": 2238,
      "##ters": 2239,
      "##edly": 2240,
      "##ica": 2241,
      "##asing": 2242,
      "reasons": 2243,
      "##ote": 2244,
      "proc": 2245,
      "space": 2246,
      "sports": 2247,
      "##aine": 2248,
      "resc": 2249,
      "coff": 2250,
      "weekend": 2251,
      "career": 2252,
      "legal": 2253,
      "celebrates": 2254,
      "employees": 2255,
      "jimmy": 2256,
      "trailer": 2257,
      "eat": 2258,
      "lob": 2259,
      "mer": 2260,
      "mir": 2261,
      "##iot": 2262,
      "##par": 2263,
      "##we": 2264,
      "##form": 2265,
      "##ores": 2266,
      "requ": 2267,
      "stun": 2268,
      "isl": 2269,
      "united": 2270,
      "abs": 2271,
      "repl": 2272,
      "upd": 2273,
      "resign": 2274,
      "himself": 2275,
      "reform": 2276,
      "conserv": 2277,
      "bank": 2278,
      "early": 2279,
      "gener": 2280,
      "inform": 2281,
      "politics": 2282,
      "immigration": 2283,
      "amazon": 2284,
      "18": 2285,
      "jen": 2286,
      "nob": 2287,
      "pack": 2288,
      "rap": 2289,
      "table": 2290,
      "wast": 2291,
      "##sw": 2292,
      "##ping": 2293,
      "##more": 2294,
      "##lev": 2295,
      "##ether": 2296,
      "##idents": 2297,
      "##ading": 2298,
      "bey": 2299,
      "##usted": 2300,
      "##rible": 2301,
      "##here": 2302,
      "least": 2303,
      "brit": 2304,
      "##ails": 2305,
      "attend": 2306,
      "feels": 2307,
      "funn": 2308,
      "fund": 2309,
      "leader": 2310,
      "apartment": 2311,
      "##iety": 2312,
      "victims": 2313,
      "completely": 2314,
      "struggling": 2315,
      "divor": 2316,
      "cit": 2317,
      "oh": 2318,
      "ok": 2319,
      "##onn": 2320,
      "##itor": 2321,
      "reach": 2322,
      "onion": 2323,
      "alb": 2324,
      "##ocks": 2325,
      "##ifying": 2326,
      "##allen": 2327,
      "##ries": 2328,
      "##ization": 2329,
      "peace": 2330,
      "accused": 2331,
      "decl": 2332,
      "killing": 2333,
      "opens": 2334,
      "retire": 2335,
      "harass": 2336,
      "##aught": 2337,
      "become": 2338,
      "board": 2339,
      "starting": 2340,
      "massive": 2341,
      "hurric": 2342,
      "syria": 2343,
      "message": 2344,
      "policy": 2345,
      "conversation": 2346,
      "bene": 2347,
      "cnn": 2348,
      "dat": 2349,
      "dark": 2350,
      "hell": 2351,
      "kelly": 2352,
      "mal": 2353,
      "vows": 2354,
      "##ew": 2355,
      "##row": 2356,
      "##work": 2357,
      "ther": 2358,
      "touch": 2359,
      "##elves": 2360,
      "stage": 2361,
      "##ste": 2362,
      "true": 2363,
      "prim": 2364,
      "##echn": 2365,
      "comed": 2366,
      "words": 2367,
      "enc": 2368,
      "cross": 2369,
      "##elling": 2370,
      "wars": 2371,
      "committ": 2372,
      "desper": 2373,
      "lawy": 2374,
      "controvers": 2375,
      "experts": 2376,
      "document": 2377,
      "green": 2378,
      "queer": 2379,
      "risk": 2380,
      "civil": 2381,
      "cub": 2382,
      "cash": 2383,
      "dist": 2384,
      "dating": 2385,
      "fat": 2386,
      "hosp": 2387,
      "kard": 2388,
      "lim": 2389,
      "oil": 2390,
      "squ": 2391,
      "techn": 2392,
      "##uel": 2393,
      "##pts": 2394,
      "##ester": 2395,
      "##ences": 2396,
      "##aly": 2397,
      "##lex": 2398,
      "proud": 2399,
      "##ained": 2400,
      "##ously": 2401,
      "arg": 2402,
      "driving": 2403,
      "joe": 2404,
      "demand": 2405,
      "decision": 2406,
      "desp": 2407,
      "impress": 2408,
      "turns": 2409,
      "clearly": 2410,
      "jeff": 2411,
      "lessons": 2412,
      "returns": 2413,
      "program": 2414,
      "industry": 2415,
      "kardash": 2416,
      "airl": 2417,
      "dan": 2418,
      "dance": 2419,
      "fast": 2420,
      "mach": 2421,
      "nat": 2422,
      "purch": 2423,
      "sav": 2424,
      "##ners": 2425,
      "##so": 2426,
      "##gin": 2427,
      "##ex": 2428,
      "##fort": 2429,
      "##zz": 2430,
      "##aring": 2431,
      "todd": 2432,
      "##acter": 2433,
      "##olution": 2434,
      "whether": 2435,
      "##istan": 2436,
      "##ocking": 2437,
      "abuse": 2438,
      "##ems": 2439,
      "afghan": 2440,
      "adds": 2441,
      "adorable": 2442,
      "reality": 2443,
      "glass": 2444,
      "moving": 2445,
      "artist": 2446,
      "experience": 2447,
      "curr": 2448,
      "cops": 2449,
      "question": 2450,
      "wishes": 2451,
      "dinner": 2452,
      "vacation": 2453,
      "totally": 2454,
      "coworker": 2455,
      "hilar": 2456,
      "husb": 2457,
      "chicago": 2458,
      "citiz": 2459,
      "14": 2460,
      "25": 2461,
      "cup": 2462,
      "fit": 2463,
      "hors": 2464,
      "iow": 2465,
      "jr": 2466,
      "pi": 2467,
      "six": 2468,
      "voice": 2469,
      "##ron": 2470,
      "##bol": 2471,
      "##iling": 2472,
      "stress": 2473,
      "form": 2474,
      "try": 2475,
      "challen": 2476,
      "##using": 2477,
      "friday": 2478,
      "##ational": 2479,
      "##andal": 2480,
      "conn": 2481,
      "alm": 2482,
      "exh": 2483,
      "seen": 2484,
      "enter": 2485,
      "final": 2486,
      "users": 2487,
      "flo": 2488,
      "workers": 2489,
      "commerc": 2490,
      "poor": 2491,
      "powerful": 2492,
      "walking": 2493,
      "breaks": 2494,
      "governor": 2495,
      "role": 2496,
      "signs": 2497,
      "learned": 2498,
      "begin": 2499,
      "hoping": 2500,
      "angel": 2501,
      "spring": 2502,
      "global": 2503,
      "rubio": 2504,
      "across": 2505,
      "lose": 2506,
      "names": 2507,
      "psy": 2508,
      "##ym": 2509,
      "##da": 2510,
      "##ench": 2511,
      "##ili": 2512,
      "##elop": 2513,
      "##ural": 2514,
      "near": 2515,
      "##aging": 2516,
      "brief": 2517,
      "quick": 2518,
      "puts": 2519,
      "##phone": 2520,
      "members": 2521,
      "keeps": 2522,
      "develop": 2523,
      "begins": 2524,
      "football": 2525,
      "syrian": 2526,
      "prevent": 2527,
      "saud": 2528,
      "surviv": 2529,
      "doctor": 2530,
      "destroy": 2531,
      "boss": 2532,
      "cas": 2533,
      "hits": 2534,
      "nb": 2535,
      "number": 2536,
      "round": 2537,
      "##pet": 2538,
      "##ders": 2539,
      "##ania": 2540,
      "stuff": 2541,
      "which": 2542,
      "##vey": 2543,
      "shirt": 2544,
      "##aker": 2545,
      "worst": 2546,
      "suicide": 2547,
      "crime": 2548,
      "organ": 2549,
      "awards": 2550,
      "##iction": 2551,
      "schools": 2552,
      "kills": 2553,
      "anyone": 2554,
      "playing": 2555,
      "longer": 2556,
      "boyfriend": 2557,
      "##ergy": 2558,
      "feeling": 2559,
      "eye": 2560,
      "oscars": 2561,
      "mental": 2562,
      "coffee": 2563,
      "islam": 2564,
      "hurricane": 2565,
      "almost": 2566,
      "psych": 2567,
      "17": 2568,
      "bi": 2569,
      "bob": 2570,
      "catch": 2571,
      "link": 2572,
      "mic": 2573,
      "##gender": 2574,
      "##lus": 2575,
      "##oes": 2576,
      "##res": 2577,
      "##quality": 2578,
      "track": 2579,
      "##umer": 2580,
      "bee": 2581,
      "afric": 2582,
      "weight": 2583,
      "webs": 2584,
      "appar": 2585,
      "##azy": 2586,
      "annivers": 2587,
      "slow": 2588,
      "planet": 2589,
      "swift": 2590,
      "##ologists": 2591,
      "official": 2592,
      "homeless": 2593,
      "robert": 2594,
      "sales": 2595,
      "netfl": 2596,
      "surprise": 2597,
      "tweet": 2598,
      "hallow": 2599,
      "alleg": 2600,
      "alleged": 2601,
      "oscar": 2602,
      "university": 2603,
      "bathroom": 2604,
      "louis": 2605,
      "kardashian": 2606,
      "anniversary": 2607,
      "netflix": 2608,
      "bal": 2609,
      "danger": 2610,
      "nfl": 2611,
      "typ": 2612,
      "wel": 2613,
      "##lin": 2614,
      "##ped": 2615,
      "##era": 2616,
      "storm": 2617,
      "truth": 2618,
      "##ume": 2619,
      "pred": 2620,
      "##vert": 2621,
      "financ": 2622,
      "recip": 2623,
      "appear": 2624,
      "evidence": 2625,
      "plane": 2626,
      "transgender": 2627,
      "boys": 2628,
      "general": 2629,
      "grandma": 2630,
      "jew": 2631,
      "fighting": 2632,
      "return": 2633,
      "magaz": 2634,
      "driver": 2635,
      "repeal": 2636,
      "audience": 2637,
      "jenner": 2638,
      "data": 2639,
      "hospital": 2640,
      "iowa": 2641,
      "aid": 2642,
      "cou": 2643,
      "foc": 2644,
      "ferg": 2645,
      "iv": 2646,
      "ign": 2647,
      "jenn": 2648,
      "kr": 2649,
      "nas": 2650,
      "##nes": 2651,
      "##yr": 2652,
      "##erly": 2653,
      "##ining": 2654,
      "##inder": 2655,
      "##edi": 2656,
      "##leg": 2657,
      "style": 2658,
      "force": 2659,
      "##ided": 2660,
      "##ades": 2661,
      "chair": 2662,
      "heav": 2663,
      "crowd": 2664,
      "drag": 2665,
      "finding": 2666,
      "obs": 2667,
      "demands": 2668,
      "award": 2669,
      "planned": 2670,
      "##ucker": 2671,
      "2014": 2672,
      "incred": 2673,
      "steve": 2674,
      "walk": 2675,
      "michelle": 2676,
      "propos": 2677,
      "apologizes": 2678,
      "executive": 2679,
      "important": 2680,
      "google": 2681,
      "husband": 2682,
      "halloween": 2683,
      "magazine": 2684,
      "five": 2685,
      "nyc": 2686,
      "##eh": 2687,
      "##alia": 2688,
      "##isc": 2689,
      "chance": 2690,
      "##uson": 2691,
      "##oods": 2692,
      "##ify": 2693,
      "crack": 2694,
      "ground": 2695,
      "brown": 2696,
      "canc": 2697,
      "##ection": 2698,
      "liber": 2699,
      "reportedly": 2700,
      "paris": 2701,
      "accept": 2702,
      "approv": 2703,
      "strong": 2704,
      "moms": 2705,
      "voter": 2706,
      "defense": 2707,
      "harry": 2708,
      "christian": 2709,
      "snow": 2710,
      "endors": 2711,
      "skin": 2712,
      "claim": 2713,
      "urges": 2714,
      "eyes": 2715,
      "profess": 2716,
      "virgin": 2717,
      "gradu": 2718,
      "easy": 2719,
      "possible": 2720,
      "williams": 2721,
      "picture": 2722,
      "ferguson": 2723,
      "cook": 2724,
      "dying": 2725,
      "fa": 2726,
      "given": 2727,
      "kerry": 2728,
      "lady": 2729,
      "pizz": 2730,
      "sound": 2731,
      "sold": 2732,
      "veter": 2733,
      "##ially": 2734,
      "##lu": 2735,
      "##don": 2736,
      "##ken": 2737,
      "##ording": 2738,
      "##atives": 2739,
      "##arks": 2740,
      "produc": 2741,
      "##imes": 2742,
      "suit": 2743,
      "doz": 2744,
      "brings": 2745,
      "##achel": 2746,
      "soon": 2747,
      "2017": 2748,
      "biggest": 2749,
      "officer": 2750,
      "supporters": 2751,
      "advice": 2752,
      "epis": 2753,
      "ideas": 2754,
      "racist": 2755,
      "beauty": 2756,
      "queen": 2757,
      "##ield": 2758,
      "labor": 2759,
      "bowl": 2760,
      "battle": 2761,
      "carolina": 2762,
      "website": 2763,
      "base": 2764,
      "dig": 2765,
      "fif": 2766,
      "ha": 2767,
      "rally": 2768,
      "rick": 2769,
      "##non": 2770,
      "##uary": 2771,
      "##ving": 2772,
      "##be": 2773,
      "##back": 2774,
      "##where": 2775,
      "##erem": 2776,
      "##itive": 2777,
      "answ": 2778,
      "##urb": 2779,
      "princ": 2780,
      "beat": 2781,
      "youth": 2782,
      "##ulation": 2783,
      "und": 2784,
      "##abeth": 2785,
      "##aint": 2786,
      "close": 2787,
      "sudd": 2788,
      "##anta": 2789,
      "teens": 2790,
      "mayor": 2791,
      "humans": 2792,
      "jobs": 2793,
      "corpor": 2794,
      "learn": 2795,
      "concern": 2796,
      "protesters": 2797,
      "broad": 2798,
      "accidentally": 2799,
      "building": 2800,
      "allegations": 2801,
      "sudden": 2802,
      "cir": 2803,
      "cab": 2804,
      "fill": 2805,
      "jones": 2806,
      "ul": 2807,
      "##tle": 2808,
      "##ract": 2809,
      "stock": 2810,
      "##etic": 2811,
      "##olf": 2812,
      "asking": 2813,
      "reporter": 2814,
      "energy": 2815,
      "##ucks": 2816,
      "##izabeth": 2817,
      "allow": 2818,
      "disg": 2819,
      "disney": 2820,
      "lik": 2821,
      "uses": 2822,
      "reminds": 2823,
      "healthy": 2824,
      "##ology": 2825,
      "elizabeth": 2826,
      "##others": 2827,
      "amazing": 2828,
      "attempt": 2829,
      "pregnant": 2830,
      "quietly": 2831,
      "chicken": 2832,
      "album": 2833,
      "benef": 2834,
      "##stein": 2835,
      "apparently": 2836,
      "died": 2837,
      "fest": 2838,
      "ger": 2839,
      "hack": 2840,
      "ju": 2841,
      "jes": 2842,
      "lets": 2843,
      "male": 2844,
      "paper": 2845,
      "ric": 2846,
      "vol": 2847,
      "##to": 2848,
      "##off": 2849,
      "##erence": 2850,
      "##rets": 2851,
      "##ential": 2852,
      "forward": 2853,
      "whe": 2854,
      "##ads": 2855,
      "prog": 2856,
      "##akers": 2857,
      "bear": 2858,
      "exact": 2859,
      "finish": 2860,
      "prem": 2861,
      "strate": 2862,
      "muse": 2863,
      "##gests": 2864,
      "else": 2865,
      "celebrate": 2866,
      "deliver": 2867,
      "moore": 2868,
      "mccain": 2869,
      "target": 2870,
      "performance": 2871,
      "economy": 2872,
      "martin": 2873,
      "product": 2874,
      "constit": 2875,
      "suggests": 2876,
      "simple": 2877,
      "religious": 2878,
      "culture": 2879,
      "emotional": 2880,
      "saudi": 2881,
      "aver": 2882,
      "ari": 2883,
      "bott": 2884,
      "came": 2885,
      "done": 2886,
      "fant": 2887,
      "jump": 2888,
      "mast": 2889,
      "nice": 2890,
      "oper": 2891,
      "rand": 2892,
      "##lo": 2893,
      "##ven": 2894,
      "##mates": 2895,
      "##ered": 2896,
      "##aced": 2897,
      "##ota": 2898,
      "trou": 2899,
      "shares": 2900,
      "##ops": 2901,
      "##istic": 2902,
      "suff": 2903,
      "cred": 2904,
      "brain": 2905,
      "drin": 2906,
      "collect": 2907,
      "colbert": 2908,
      "older": 2909,
      "action": 2910,
      "throws": 2911,
      "annoy": 2912,
      "worker": 2913,
      "voting": 2914,
      "character": 2915,
      "leads": 2916,
      "leading": 2917,
      "telling": 2918,
      "happens": 2919,
      "happened": 2920,
      "passes": 2921,
      "opening": 2922,
      "##reds": 2923,
      "learning": 2924,
      "epa": 2925,
      "farm": 2926,
      "sweet": 2927,
      "problems": 2928,
      "said": 2929,
      "palest": 2930,
      "screen": 2931,
      "private": 2932,
      "recalls": 2933,
      "citizens": 2934,
      "pizza": 2935,
      "episode": 2936,
      "circ": 2937,
      "60": 2938,
      "eld": 2939,
      "east": 2940,
      "eric": 2941,
      "fake": 2942,
      "gas": 2943,
      "haw": 2944,
      "ken": 2945,
      "kick": 2946,
      "lad": 2947,
      "loss": 2948,
      "mix": 2949,
      "nra": 2950,
      "sar": 2951,
      "sour": 2952,
      "ton": 2953,
      "went": 2954,
      "##giving": 2955,
      "##la": 2956,
      "##uana": 2957,
      "##rick": 2958,
      "##iny": 2959,
      "##isl": 2960,
      "##ilies": 2961,
      "reun": 2962,
      "anth": 2963,
      "##iment": 2964,
      "shr": 2965,
      "comey": 2966,
      "sean": 2967,
      "env": 2968,
      "leaving": 2969,
      "weap": 2970,
      "brother": 2971,
      "scr": 2972,
      "scandal": 2973,
      "emp": 2974,
      "hasn": 2975,
      "results": 2976,
      "flag": 2977,
      "thank": 2978,
      "actor": 2979,
      "event": 2980,
      "families": 2981,
      "realizes": 2982,
      "insur": 2983,
      "access": 2984,
      "holding": 2985,
      "smart": 2986,
      "player": 2987,
      "clear": 2988,
      "legisl": 2989,
      "explains": 2990,
      "toward": 2991,
      "hotel": 2992,
      "fails": 2993,
      "extra": 2994,
      "reading": 2995,
      "hund": 2996,
      "perfectly": 2997,
      "freed": 2998,
      "hopes": 2999,
      "loses": 3000,
      "##arrass": 3001,
      "foreign": 3002,
      "receives": 3003,
      "thanksgiving": 3004,
      "embarrass": 3005,
      "budget": 3006,
      "##ijuana": 3007,
      "harassment": 3008,
      "desperate": 3009,
      "hilarious": 3010,
      "likely": 3011,
      "jesus": 3012,
      "progress": 3013,
      "museum": 3014,
      "16": 3015,
      "90": 3016,
      "ahead": 3017,
      "doll": 3018,
      "divers": 3019,
      "ebol": 3020,
      "gal": 3021,
      "gave": 3022,
      "jon": 3023,
      "pur": 3024,
      "porn": 3025,
      "soul": 3026,
      "tear": 3027,
      "uk": 3028,
      "##how": 3029,
      "##ca": 3030,
      "##vil": 3031,
      "##dy": 3032,
      "##ky": 3033,
      "##bling": 3034,
      "##mel": 3035,
      "##mother": 3036,
      "##onc": 3037,
      "inn": 3038,
      "##icle": 3039,
      "##ots": 3040,
      "##aying": 3041,
      "##olut": 3042,
      "neg": 3043,
      "pros": 3044,
      "frank": 3045,
      "##anda": 3046,
      "manager": 3047,
      "ali": 3048,
      "spend": 3049,
      "spending": 3050,
      "sea": 3051,
      "worse": 3052,
      "amid": 3053,
      "science": 3054,
      "marijuana": 3055,
      "residents": 3056,
      "ago": 3057,
      "imag": 3058,
      "flight": 3059,
      "interest": 3060,
      "slams": 3061,
      "deadly": 3062,
      "discuss": 3063,
      "snl": 3064,
      "airport": 3065,
      "popular": 3066,
      "extrem": 3067,
      "arrested": 3068,
      "##ette": 3069,
      "lgbtq": 3070,
      "refugees": 3071,
      "confirm": 3072,
      "despite": 3073,
      "nasa": 3074,
      "dozens": 3075,
      "ult": 3076,
      "ebola": 3077,
      "cerem": 3078,
      "faces": 3079,
      "mult": 3080,
      "matter": 3081,
      "norm": 3082,
      "pul": 3083,
      "path": 3084,
      "rape": 3085,
      "sam": 3086,
      "send": 3087,
      "tem": 3088,
      "tired": 3089,
      "wood": 3090,
      "##gg": 3091,
      "##ugh": 3092,
      "##cri": 3093,
      "##cious": 3094,
      "##oke": 3095,
      "##erve": 3096,
      "##arian": 3097,
      "##icking": 3098,
      "##icious": 3099,
      "##stand": 3100,
      "##idge": 3101,
      "pract": 3102,
      "chuck": 3103,
      "also": 3104,
      "spir": 3105,
      "comments": 3106,
      "pled": 3107,
      "grow": 3108,
      "meat": 3109,
      "cold": 3110,
      "guest": 3111,
      "##angers": 3112,
      "thrones": 3113,
      "remov": 3114,
      "winter": 3115,
      "hearing": 3116,
      "movies": 3117,
      "turkey": 3118,
      "harvey": 3119,
      "putin": 3120,
      "release": 3121,
      "responds": 3122,
      "steps": 3123,
      "femin": 3124,
      "immigrants": 3125,
      "##rupt": 3126,
      "wondering": 3127,
      "therap": 3128,
      "documentary": 3129,
      "est": 3130,
      "eth": 3131,
      "fur": 3132,
      "fair": 3133,
      "games": 3134,
      "giant": 3135,
      "jan": 3136,
      "lunch": 3137,
      "nov": 3138,
      "pub": 3139,
      "tree": 3140,
      "tech": 3141,
      "van": 3142,
      "##time": 3143,
      "##light": 3144,
      "##rop": 3145,
      "##itions": 3146,
      "##ado": 3147,
      "nearly": 3148,
      "beer": 3149,
      "beach": 3150,
      "exist": 3151,
      "among": 3152,
      "wee": 3153,
      "##agram": 3154,
      "blue": 3155,
      "emerg": 3156,
      "acqu": 3157,
      "warning": 3158,
      "feat": 3159,
      "compet": 3160,
      "desk": 3161,
      "winning": 3162,
      "medical": 3163,
      "seeing": 3164,
      "guns": 3165,
      "project": 3166,
      "promises": 3167,
      "dreams": 3168,
      "valent": 3169,
      "creep": 3170,
      "changing": 3171,
      "drive": 3172,
      "nomine": 3173,
      "refugee": 3174,
      "historical": 3175,
      "customers": 3176,
      "lobby": 3177,
      "committee": 3178,
      "toddler": 3179,
      "commercial": 3180,
      "palestin": 3181,
      "45": 3182,
      "bol": 3183,
      "bell": 3184,
      "breat": 3185,
      "caught": 3186,
      "dut": 3187,
      "dail": 3188,
      "danc": 3189,
      "dnc": 3190,
      "fish": 3191,
      "fix": 3192,
      "fda": 3193,
      "gym": 3194,
      "kav": 3195,
      "mond": 3196,
      "migr": 3197,
      "mouth": 3198,
      "numb": 3199,
      "ring": 3200,
      "row": 3201,
      "ver": 3202,
      "##cing": 3203,
      "##ruct": 3204,
      "##kin": 3205,
      "##bur": 3206,
      "##mit": 3207,
      "ine": 3208,
      "stup": 3209,
      "##ament": 3210,
      "anx": 3211,
      "trade": 3212,
      "share": 3213,
      "frustr": 3214,
      "##ession": 3215,
      "##ively": 3216,
      "asked": 3217,
      "amb": 3218,
      "##antly": 3219,
      "brand": 3220,
      "aren": 3221,
      "scream": 3222,
      "scene": 3223,
      "empt": 3224,
      "guil": 3225,
      "joh": 3226,
      "##ission": 3227,
      "smith": 3228,
      "killer": 3229,
      "lawm": 3230,
      "saying": 3231,
      "points": 3232,
      "ident": 3233,
      "enters": 3234,
      "putting": 3235,
      "guys": 3236,
      "bird": 3237,
      "grandmother": 3238,
      "determ": 3239,
      "jeb": 3240,
      "immigrant": 3241,
      "golden": 3242,
      "##coming": 3243,
      "bomb": 3244,
      "activists": 3245,
      "royal": 3246,
      "mexico": 3247,
      "olympic": 3248,
      "becoming": 3249,
      "lawsuit": 3250,
      "ohio": 3251,
      "retirement": 3252,
      "machine": 3253,
      "financial": 3254,
      "average": 3255,
      "elderly": 3256,
      "hundreds": 3257,
      "daily": 3258,
      "bull": 3259,
      "cia": 3260,
      "cath": 3261,
      "hab": 3262,
      "ii": 3263,
      "il": 3264,
      "kh": 3265,
      "lond": 3266,
      "ol": 3267,
      "opt": 3268,
      "sor": 3269,
      "sim": 3270,
      "vatic": 3271,
      "wil": 3272,
      "##na": 3273,
      "##sa": 3274,
      "##selves": 3275,
      "##ted": 3276,
      "##care": 3277,
      "##ead": 3278,
      "##den": 3279,
      "##kward": 3280,
      "##wich": 3281,
      "##inal": 3282,
      "##anaugh": 3283,
      "##oring": 3284,
      "##rect": 3285,
      "##ammy": 3286,
      "tries": 3287,
      "trial": 3288,
      "trib": 3289,
      "pra": 3290,
      "chann": 3291,
      "##ushing": 3292,
      "##ifts": 3293,
      "unable": 3294,
      "club": 3295,
      "##astic": 3296,
      "##ective": 3297,
      "telev": 3298,
      "agre": 3299,
      "fired": 3300,
      "awkward": 3301,
      "somehow": 3302,
      "incl": 3303,
      "funding": 3304,
      "defends": 3305,
      "congressional": 3306,
      "probe": 3307,
      "##erto": 3308,
      "immedi": 3309,
      "memor": 3310,
      "influ": 3311,
      "sandwich": 3312,
      "cheese": 3313,
      "advis": 3314,
      "raise": 3315,
      "create": 3316,
      "moon": 3317,
      "books": 3318,
      "doctors": 3319,
      "puerto": 3320,
      "disappoint": 3321,
      "##engers": 3322,
      "researchers": 3323,
      "divorce": 3324,
      "primary": 3325,
      "floor": 3326,
      "envir": 3327,
      "##ville": 3328,
      "weeks": 3329,
      "kavanaugh": 3330,
      "monday": 3331,
      "london": 3332,
      "vatican": 3333,
      "austr": 3334,
      "eur": 3335,
      "fing": 3336,
      "jap": 3337,
      "lin": 3338,
      "mol": 3339,
      "ov": 3340,
      "ride": 3341,
      "tort": 3342,
      "taken": 3343,
      "yes": 3344,
      "##come": 3345,
      "##ral": 3346,
      "##for": 3347,
      "##arre": 3348,
      "##ented": 3349,
      "##olic": 3350,
      "##ada": 3351,
      "##tern": 3352,
      "fresh": 3353,
      "##ifer": 3354,
      "##usting": 3355,
      "level": 3356,
      "crimin": 3357,
      "carpet": 3358,
      "##ensive": 3359,
      "orig": 3360,
      "orders": 3361,
      "guard": 3362,
      "attract": 3363,
      "assures": 3364,
      "##ucky": 3365,
      "account": 3366,
      "according": 3367,
      "votes": 3368,
      "shouldn": 3369,
      "terrible": 3370,
      "helping": 3371,
      "celebrity": 3372,
      "explain": 3373,
      "convention": 3374,
      "listen": 3375,
      "issue": 3376,
      "effort": 3377,
      "border": 3378,
      "inspired": 3379,
      "confirms": 3380,
      "marketing": 3381,
      "mexican": 3382,
      "encour": 3383,
      "piece": 3384,
      "dangerous": 3385,
      "incredible": 3386,
      "concerned": 3387,
      "freedom": 3388,
      "valentine": 3389,
      "stupid": 3390,
      "japan": 3391,
      "21": 3392,
      "alex": 3393,
      "hy": 3394,
      "hers": 3395,
      "hang": 3396,
      "hyp": 3397,
      "les": 3398,
      "laugh": 3399,
      "mac": 3400,
      "match": 3401,
      "mount": 3402,
      "nick": 3403,
      "pac": 3404,
      "pool": 3405,
      "rush": 3406,
      "sends": 3407,
      "tit": 3408,
      "##gl": 3409,
      "##onment": 3410,
      "##aling": 3411,
      "##itz": 3412,
      "##omp": 3413,
      "##illy": 3414,
      "onto": 3415,
      "trad": 3416,
      "##illing": 3417,
      "##estic": 3418,
      "##ulian": 3419,
      "spent": 3420,
      "exec": 3421,
      "sees": 3422,
      "sever": 3423,
      "arab": 3424,
      "disab": 3425,
      "##ashes": 3426,
      "warren": 3427,
      "common": 3428,
      "opin": 3429,
      "senators": 3430,
      "moves": 3431,
      "consider": 3432,
      "indian": 3433,
      "course": 3434,
      "dogs": 3435,
      "politic": 3436,
      "complete": 3437,
      "movement": 3438,
      "afford": 3439,
      "depression": 3440,
      "customer": 3441,
      "animals": 3442,
      "ess": 3443,
      "neighborhood": 3444,
      "stunning": 3445,
      "nobody": 3446,
      "afghanistan": 3447,
      "jennifer": 3448,
      "cabin": 3449,
      "fantas": 3450,
      "numbers": 3451,
      "environment": 3452,
      "europe": 3453,
      "80": 3454,
      "bas": 3455,
      "cord": 3456,
      "cities": 3457,
      "diet": 3458,
      "dumb": 3459,
      "fle": 3460,
      "jail": 3461,
      "las": 3462,
      "loud": 3463,
      "nerv": 3464,
      "naked": 3465,
      "pun": 3466,
      "rh": 3467,
      "rat": 3468,
      "rain": 3469,
      "tick": 3470,
      "uber": 3471,
      "zucker": 3472,
      "##cast": 3473,
      "##pa": 3474,
      "##ara": 3475,
      "##arm": 3476,
      "##eding": 3477,
      "##itation": 3478,
      "##reg": 3479,
      "stuck": 3480,
      "forces": 3481,
      "price": 3482,
      "##oper": 3483,
      "alone": 3484,
      "ash": 3485,
      "spl": 3486,
      "comfort": 3487,
      "works": 3488,
      "##ansas": 3489,
      "##udes": 3490,
      "weather": 3491,
      "means": 3492,
      "##ished": 3493,
      "seconds": 3494,
      "remind": 3495,
      "##icted": 3496,
      "##ances": 3497,
      "writing": 3498,
      "medic": 3499,
      "term": 3500,
      "transform": 3501,
      "legend": 3502,
      "subway": 3503,
      "species": 3504,
      "surprised": 3505,
      "hurt": 3506,
      "loved": 3507,
      "model": 3508,
      "modern": 3509,
      "condem": 3510,
      "increasing": 3511,
      "continues": 3512,
      "pregnancy": 3513,
      "launches": 3514,
      "becomes": 3515,
      "window": 3516,
      "process": 3517,
      "##onnell": 3518,
      "horse": 3519,
      "virginia": 3520,
      "fifth": 3521,
      "suddenly": 3522,
      "sarah": 3523,
      "ceremony": 3524,
      "guilty": 3525,
      "johns": 3526,
      "bin": 3527,
      "cos": 3528,
      "cell": 3529,
      "dick": 3530,
      "era": 3531,
      "gh": 3532,
      "mos": 3533,
      "narr": 3534,
      "named": 3535,
      "pod": 3536,
      "rare": 3537,
      "site": 3538,
      "vers": 3539,
      "wake": 3540,
      "##ius": 3541,
      "##ients": 3542,
      "##ta": 3543,
      "##list": 3544,
      "##life": 3545,
      "##ued": 3546,
      "##pting": 3547,
      "##bl": 3548,
      "##wart": 3549,
      "##enced": 3550,
      "##alian": 3551,
      "##icul": 3552,
      "##iles": 3553,
      "theory": 3554,
      "stories": 3555,
      "##ety": 3556,
      "choice": 3557,
      "dear": 3558,
      "french": 3559,
      "##essions": 3560,
      "##une": 3561,
      "##osed": 3562,
      "outr": 3563,
      "ends": 3564,
      "plant": 3565,
      "places": 3566,
      "crazy": 3567,
      "growing": 3568,
      "offer": 3569,
      "##ellig": 3570,
      "drink": 3571,
      "justin": 3572,
      "dish": 3573,
      "dise": 3574,
      "marco": 3575,
      "##ples": 3576,
      "agent": 3577,
      "warn": 3578,
      "##apping": 3579,
      "throw": 3580,
      "surf": 3581,
      "hold": 3582,
      "2018": 3583,
      "minor": 3584,
      "refuses": 3585,
      "anymore": 3586,
      "turning": 3587,
      "invol": 3588,
      "christie": 3589,
      "itself": 3590,
      "released": 3591,
      "patient": 3592,
      "instagram": 3593,
      "magical": 3594,
      "loves": 3595,
      "changes": 3596,
      "speaks": 3597,
      "increase": 3598,
      "archives": 3599,
      "fourth": 3600,
      "lawyer": 3601,
      "airlines": 3602,
      "focus": 3603,
      "##donald": 3604,
      "insurance": 3605,
      "empty": 3606,
      "ach": 3607,
      "bat": 3608,
      "born": 3609,
      "egg": 3610,
      "gi": 3611,
      "huck": 3612,
      "om": 3613,
      "page": 3614,
      "sin": 3615,
      "sort": 3616,
      "sets": 3617,
      "sense": 3618,
      "ten": 3619,
      "##ny": 3620,
      "##hole": 3621,
      "##aug": 3622,
      "##vin": 3623,
      "##instein": 3624,
      "##rew": 3625,
      "station": 3626,
      "stone": 3627,
      "##lyn": 3628,
      "##uter": 3629,
      "shocked": 3630,
      "##aks": 3631,
      "france": 3632,
      "##ighter": 3633,
      "asian": 3634,
      "##abee": 3635,
      "cloth": 3636,
      "ups": 3637,
      "upcoming": 3638,
      "##ague": 3639,
      "note": 3640,
      "arm": 3641,
      "intellig": 3642,
      "cars": 3643,
      "resist": 3644,
      "parking": 3645,
      "flu": 3646,
      "recover": 3647,
      "phys": 3648,
      "##ibly": 3649,
      "planning": 3650,
      "decides": 3651,
      "holds": 3652,
      "writer": 3653,
      "heard": 3654,
      "protests": 3655,
      "barb": 3656,
      "wanted": 3657,
      "member": 3658,
      "breakf": 3659,
      "paid": 3660,
      "greatest": 3661,
      "threatens": 3662,
      "married": 3663,
      "discovered": 3664,
      "sitting": 3665,
      "grader": 3666,
      "mcconnell": 3667,
      "safe": 3668,
      "forever": 3669,
      "recommend": 3670,
      "charlott": 3671,
      "controversial": 3672,
      "connect": 3673,
      "survivors": 3674,
      "roundup": 3675,
      "slowly": 3676,
      "exactly": 3677,
      "credit": 3678,
      "diversity": 3679,
      "novel": 3680,
      "immediately": 3681,
      "zuckerberg": 3682,
      "johnson": 3683,
      "huckabee": 3684,
      "ber": 3685,
      "cart": 3686,
      "dump": 3687,
      "distr": 3688,
      "ful": 3689,
      "gone": 3690,
      "gender": 3691,
      "hat": 3692,
      "iphone": 3693,
      "lack": 3694,
      "mr": 3695,
      "pants": 3696,
      "rog": 3697,
      "sens": 3698,
      "santa": 3699,
      "tor": 3700,
      "##cl": 3701,
      "##cts": 3702,
      "##wr": 3703,
      "##ored": 3704,
      "##aries": 3705,
      "##ito": 3706,
      "##isher": 3707,
      "inaug": 3708,
      "react": 3709,
      "##otes": 3710,
      "ford": 3711,
      "##iger": 3712,
      "truck": 3713,
      "pray": 3714,
      "##ither": 3715,
      "island": 3716,
      "within": 3717,
      "##apt": 3718,
      "##aped": 3719,
      "##ivity": 3720,
      "aband": 3721,
      "cry": 3722,
      "grammy": 3723,
      "##ells": 3724,
      "##ogn": 3725,
      "##agement": 3726,
      "carry": 3727,
      "meal": 3728,
      "meas": 3729,
      "guests": 3730,
      "schumer": 3731,
      "##ooth": 3732,
      "calling": 3733,
      "surge": 3734,
      "accus": 3735,
      "millenn": 3736,
      "relie": 3737,
      "debt": 3738,
      "took": 3739,
      "boeh": 3740,
      "idiot": 3741,
      "happen": 3742,
      "others": 3743,
      "failed": 3744,
      "failure": 3745,
      "##anka": 3746,
      "##box": 3747,
      "network": 3748,
      "international": 3749,
      "covered": 3750,
      "standing": 3751,
      "199": 3752,
      "losing": 3753,
      "##ipping": 3754,
      "viral": 3755,
      "nomin": 3756,
      "please": 3757,
      "treatment": 3758,
      "continue": 3759,
      "mcdonald": 3760,
      "figures": 3761,
      "authorities": 3762,
      "domestic": 3763,
      "update": 3764,
      "faith": 3765,
      "festival": 3766,
      "weapons": 3767,
      "television": 3768,
      "disappointed": 3769,
      "boehner": 3770,
      "ath": 3771,
      "biz": 3772,
      "gall": 3773,
      "icon": 3774,
      "jong": 3775,
      "kate": 3776,
      "lay": 3777,
      "lower": 3778,
      "mort": 3779,
      "mail": 3780,
      "mitch": 3781,
      "master": 3782,
      "nav": 3783,
      "ren": 3784,
      "rum": 3785,
      "tast": 3786,
      "zoo": 3787,
      "##gia": 3788,
      "##ris": 3789,
      "##rove": 3790,
      "##vor": 3791,
      "##born": 3792,
      "##wor": 3793,
      "##wide": 3794,
      "##ze": 3795,
      "##20": 3796,
      "##esome": 3797,
      "##outs": 3798,
      "theater": 3799,
      "##acle": 3800,
      "##otic": 3801,
      "##ches": 3802,
      "##ung": 3803,
      "newly": 3804,
      "alab": 3805,
      "##ifies": 3806,
      "repres": 3807,
      "web": 3808,
      "weak": 3809,
      "offering": 3810,
      "blast": 3811,
      "allows": 3812,
      "text": 3813,
      "disaster": 3814,
      "##epend": 3815,
      "embr": 3816,
      "user": 3817,
      "noah": 3818,
      "##ibility": 3819,
      "##itten": 3820,
      "serious": 3821,
      "defin": 3822,
      "conflic": 3823,
      "india": 3824,
      "independ": 3825,
      "buff": 3826,
      "bannon": 3827,
      "helps": 3828,
      "editor": 3829,
      "newsp": 3830,
      "##itional": 3831,
      "heads": 3832,
      "singer": 3833,
      "soccer": 3834,
      "polls": 3835,
      "created": 3836,
      "racism": 3837,
      "silence": 3838,
      "strike": 3839,
      "repeated": 3840,
      "attempts": 3841,
      "universe": 3842,
      "muslims": 3843,
      "misc": 3844,
      "teachers": 3845,
      "trevor": 3846,
      "double": 3847,
      "portra": 3848,
      "declares": 3849,
      "recipes": 3850,
      "heaven": 3851,
      "veteran": 3852,
      "german": 3853,
      "masturb": 3854,
      "emergency": 3855,
      "nominee": 3856,
      "frustrated": 3857,
      "catholic": 3858,
      "channel": 3859,
      "alabama": 3860,
      "astr": 3861,
      "cause": 3862,
      "cuts": 3863,
      "dol": 3864,
      "ele": 3865,
      "gam": 3866,
      "kat": 3867,
      "kiss": 3868,
      "lie": 3869,
      "liter": 3870,
      "mour": 3871,
      "oce": 3872,
      "rate": 3873,
      "rout": 3874,
      "rnc": 3875,
      "##rimin": 3876,
      "##dam": 3877,
      "##ki": 3878,
      "##ban": 3879,
      "##men": 3880,
      "##ini": 3881,
      "##etime": 3882,
      "##acing": 3883,
      "forget": 3884,
      "##iding": 3885,
      "troll": 3886,
      "whate": 3887,
      "ship": 3888,
      "##tha": 3889,
      "##oses": 3890,
      "along": 3891,
      "spic": 3892,
      "##agon": 3893,
      "braz": 3894,
      "block": 3895,
      "##ept": 3896,
      "yourself": 3897,
      "present": 3898,
      "annual": 3899,
      "asshole": 3900,
      "held": 3901,
      "coach": 3902,
      "consum": 3903,
      "speed": 3904,
      "debuts": 3905,
      "runs": 3906,
      "themselves": 3907,
      "ell": 3908,
      "memo": 3909,
      "passengers": 3910,
      "society": 3911,
      "exclus": 3912,
      "regul": 3913,
      "instead": 3914,
      "##anna": 3915,
      "groups": 3916,
      "crew": 3917,
      "critics": 3918,
      "costume": 3919,
      "large": 3920,
      "parenting": 3921,
      "parenthood": 3922,
      "denies": 3923,
      "safety": 3924,
      "coworkers": 3925,
      "radio": 3926,
      "recommends": 3927,
      "absolut": 3928,
      "comedy": 3929,
      "currently": 3930,
      "challenge": 3931,
      "exha": 3932,
      "allegedly": 3933,
      "cancel": 3934,
      "rico": 3935,
      "drinking": 3936,
      "spirit": 3937,
      "memorial": 3938,
      "herself": 3939,
      "clothes": 3940,
      "breakfast": 3941,
      "abandon": 3942,
      "relieved": 3943,
      "whatever": 3944,
      "absolutely": 3945,
      "400": 3946,
      "70": 3947,
      "bon": 3948,
      "based": 3949,
      "cake": 3950,
      "cream": 3951,
      "du": 3952,
      "der": 3953,
      "dun": 3954,
      "equ": 3955,
      "easter": 3956,
      "fine": 3957,
      "gap": 3958,
      "jay": 3959,
      "joy": 3960,
      "kany": 3961,
      "kitch": 3962,
      "lam": 3963,
      "log": 3964,
      "mat": 3965,
      "mall": 3966,
      "ny": 3967,
      "nurs": 3968,
      "pers": 3969,
      "pip": 3970,
      "pays": 3971,
      "pound": 3972,
      "piss": 3973,
      "tues": 3974,
      "tank": 3975,
      "tiny": 3976,
      "##gu": 3977,
      "##tain": 3978,
      "##aud": 3979,
      "##oe": 3980,
      "##ef": 3981,
      "##fire": 3982,
      "##jects": 3983,
      "##qual": 3984,
      "##anks": 3985,
      "then": 3986,
      "##iti": 3987,
      "##rel": 3988,
      "##read": 3989,
      "stamp": 3990,
      "##igan": 3991,
      "tro": 3992,
      "trash": 3993,
      "traff": 3994,
      "##ador": 3995,
      "##iring": 3996,
      "pride": 3997,
      "chap": 3998,
      "chem": 3999,
      "alco": 4000,
      "##apher": 4001,
      "comb": 4002,
      "##ction": 4003,
      "clar": 4004,
      "lee": 4005,
      "army": 4006,
      "##ension": 4007,
      "attorn": 4008,
      "attention": 4009,
      "content": 4010,
      "perry": 4011,
      "computer": 4012,
      "busy": 4013,
      "##aze": 4014,
      "sole": 4015,
      "stranger": 4016,
      "awesome": 4017,
      "realize": 4018,
      "decades": 4019,
      "smo": 4020,
      "desc": 4021,
      "refer": 4022,
      "campus": 4023,
      "senior": 4024,
      "charges": 4025,
      "consid": 4026,
      "conference": 4027,
      "helped": 4028,
      "shooter": 4029,
      "sky": 4030,
      "owners": 4031,
      "burger": 4032,
      "capital": 4033,
      "violent": 4034,
      "victim": 4035,
      "century": 4036,
      "concert": 4037,
      "freak": 4038,
      "peter": 4039,
      "broken": 4040,
      "changed": 4041,
      "sunday": 4042,
      "dressed": 4043,
      "historic": 4044,
      "camera": 4045,
      "shutdown": 4046,
      "israeli": 4047,
      "depressed": 4048,
      "figure": 4049,
      "##ength": 4050,
      "motor": 4051,
      "replace": 4052,
      "waste": 4053,
      "funniest": 4054,
      "african": 4055,
      "appearance": 4056,
      "ivanka": 4057,
      "hawai": 4058,
      "normal": 4059,
      "illeg": 4060,
      "kanye": 4061,
      "alcohol": 4062,
      "attorney": 4063,
      "23": 4064,
      "bit": 4065,
      "bri": 4066,
      "bunch": 4067,
      "bask": 4068,
      "bachel": 4069,
      "cig": 4070,
      "cert": 4071,
      "fet": 4072,
      "hous": 4073,
      "kush": 4074,
      "mob": 4075,
      "nude": 4076,
      "rose": 4077,
      "sale": 4078,
      "tears": 4079,
      "ut": 4080,
      "vs": 4081,
      "vill": 4082,
      "vice": 4083,
      "wage": 4084,
      "##sf": 4085,
      "##ih": 4086,
      "##iation": 4087,
      "##te": 4088,
      "##och": 4089,
      "##dom": 4090,
      "##ford": 4091,
      "##ona": 4092,
      "##eness": 4093,
      "##asc": 4094,
      "reject": 4095,
      "##idays": 4096,
      "anger": 4097,
      "trust": 4098,
      "champ": 4099,
      "shel": 4100,
      "##ched": 4101,
      "##usion": 4102,
      "fraud": 4103,
      "##ived": 4104,
      "seek": 4105,
      "lev": 4106,
      "weigh": 4107,
      "blow": 4108,
      "displ": 4109,
      "meets": 4110,
      "emer": 4111,
      "##aware": 4112,
      "##place": 4113,
      "secrets": 4114,
      "joke": 4115,
      "realizing": 4116,
      "insists": 4117,
      "holidays": 4118,
      "couldn": 4119,
      "wouldn": 4120,
      "higher": 4121,
      "healthcare": 4122,
      "charged": 4123,
      "funeral": 4124,
      "buying": 4125,
      "missile": 4126,
      "throughout": 4127,
      "vision": 4128,
      "visiting": 4129,
      "memory": 4130,
      "article": 4131,
      "democracy": 4132,
      "explos": 4133,
      "terrified": 4134,
      "falls": 4135,
      "threats": 4136,
      "honors": 4137,
      "latin": 4138,
      "loving": 4139,
      "silver": 4140,
      "georgia": 4141,
      "proves": 4142,
      "ruling": 4143,
      "follow": 4144,
      "nomination": 4145,
      "rule": 4146,
      "boost": 4147,
      "jackson": 4148,
      "journalist": 4149,
      "olympics": 4150,
      "melania": 4151,
      "domin": 4152,
      "lifetime": 4153,
      "injured": 4154,
      "generation": 4155,
      "saved": 4156,
      "nba": 4157,
      "baseball": 4158,
      "disgusting": 4159,
      "strategy": 4160,
      "constitution": 4161,
      "tonight": 4162,
      "criminal": 4163,
      "disease": 4164,
      "bizarre": 4165,
      "bachelor": 4166,
      "kushner": 4167,
      "24": 4168,
      "cy": 4169,
      "dar": 4170,
      "gor": 4171,
      "jared": 4172,
      "lies": 4173,
      "mand": 4174,
      "mary": 4175,
      "occ": 4176,
      "pit": 4177,
      "picks": 4178,
      "ray": 4179,
      "rene": 4180,
      "rising": 4181,
      "saving": 4182,
      "sessions": 4183,
      "ty": 4184,
      "wid": 4185,
      "wine": 4186,
      "##ses": 4187,
      "##gas": 4188,
      "##gers": 4189,
      "##ya": 4190,
      "##aire": 4191,
      "##oz": 4192,
      "##ror": 4193,
      "##ray": 4194,
      "##dr": 4195,
      "##win": 4196,
      "##well": 4197,
      "##icip": 4198,
      "##ilities": 4199,
      "##elt": 4200,
      "##idency": 4201,
      "anc": 4202,
      "##igen": 4203,
      "tried": 4204,
      "training": 4205,
      "##uration": 4206,
      "##irty": 4207,
      "prize": 4208,
      "chen": 4209,
      "choo": 4210,
      "##change": 4211,
      "unl": 4212,
      "##abor": 4213,
      "spo": 4214,
      "seem": 4215,
      "grade": 4216,
      "brut": 4217,
      "blame": 4218,
      "meg": 4219,
      "##ube": 4220,
      "likes": 4221,
      "agree": 4222,
      "flood": 4223,
      "recogn": 4224,
      "warm": 4225,
      "feet": 4226,
      "appe": 4227,
      "##azz": 4228,
      "famous": 4229,
      "reminder": 4230,
      "##onduct": 4231,
      "breast": 4232,
      "starts": 4233,
      "assist": 4234,
      "needed": 4235,
      "cohen": 4236,
      "sym": 4237,
      "defe": 4238,
      "defend": 4239,
      "players": 4240,
      "themed": 4241,
      "stops": 4242,
      "##pective": 4243,
      "burning": 4244,
      "delivers": 4245,
      "firef": 4246,
      "##ographer": 4247,
      "classic": 4248,
      "failing": 4249,
      "behav": 4250,
      "express": 4251,
      "raid": 4252,
      "instruct": 4253,
      "victory": 4254,
      "value": 4255,
      "surprising": 4256,
      "footage": 4257,
      "meth": 4258,
      "kimmel": 4259,
      "journey": 4260,
      "largest": 4261,
      "total": 4262,
      "sentence": 4263,
      "economic": 4264,
      "horrified": 4265,
      "journalists": 4266,
      "bully": 4267,
      "##break": 4268,
      "cuba": 4269,
      "current": 4270,
      "beginning": 4271,
      "couples": 4272,
      "corporate": 4273,
      "prosecut": 4274,
      "features": 4275,
      "palestinian": 4276,
      "inequality": 4277,
      "sorry": 4278,
      "achie": 4279,
      "giulian": 4280,
      "intelligence": 4281,
      "misconduct": 4282,
      "tuesday": 4283,
      "equality": 4284,
      "fals": 4285,
      "gifts": 4286,
      "jury": 4287,
      "kansas": 4288,
      "lu": 4289,
      "rud": 4290,
      "size": 4291,
      "selling": 4292,
      "section": 4293,
      "vo": 4294,
      "yog": 4295,
      "##iers": 4296,
      "##ique": 4297,
      "##ae": 4298,
      "##cil": 4299,
      "##ez": 4300,
      "##pan": 4301,
      "##fit": 4302,
      "##erate": 4303,
      "toil": 4304,
      "##eline": 4305,
      "shar": 4306,
      "frant": 4307,
      "##unity": 4308,
      "constr": 4309,
      "exerc": 4310,
      "exchange": 4311,
      "worry": 4312,
      "items": 4313,
      "##arters": 4314,
      "crimes": 4315,
      "cann": 4316,
      "adop": 4317,
      "blind": 4318,
      "blasts": 4319,
      "drone": 4320,
      "scar": 4321,
      "##icked": 4322,
      "image": 4323,
      "acce": 4324,
      "studio": 4325,
      "contain": 4326,
      "feature": 4327,
      "actual": 4328,
      "partner": 4329,
      "##itty": 4330,
      "surr": 4331,
      "slight": 4332,
      "##osex": 4333,
      "tale": 4334,
      "serial": 4335,
      "write": 4336,
      "speaking": 4337,
      "barack": 4338,
      "##ahu": 4339,
      "##aham": 4340,
      "##otted": 4341,
      "##aft": 4342,
      "contract": 4343,
      "visits": 4344,
      "stewart": 4345,
      "celebrities": 4346,
      "revolution": 4347,
      "keeping": 4348,
      "laur": 4349,
      "advoc": 4350,
      "raises": 4351,
      "creator": 4352,
      "hung": 4353,
      "magic": 4354,
      "drugs": 4355,
      "##ground": 4356,
      "angry": 4357,
      "drops": 4358,
      "viewers": 4359,
      "songs": 4360,
      "pupp": 4361,
      "pulls": 4362,
      "unsure": 4363,
      "##ophob": 4364,
      "meaning": 4365,
      "matters": 4366,
      "rescue": 4367,
      "technology": 4368,
      "obsess": 4369,
      "digital": 4370,
      "creepy": 4371,
      "tribute": 4372,
      "opinion": 4373,
      "cabinet": 4374,
      "split": 4375,
      "inauguration": 4376,
      "represent": 4377,
      "newspaper": 4378,
      "astron": 4379,
      "brazil": 4380,
      "exhausted": 4381,
      "cigar": 4382,
      "giuliani": 4383,
      "35": 4384,
      "boom": 4385,
      "cock": 4386,
      "dip": 4387,
      "ditch": 4388,
      "field": 4389,
      "hamp": 4390,
      "jer": 4391,
      "jess": 4392,
      "lands": 4393,
      "later": 4394,
      "pil": 4395,
      "pig": 4396,
      "pump": 4397,
      "rol": 4398,
      "rod": 4399,
      "tac": 4400,
      "tack": 4401,
      "tall": 4402,
      "tony": 4403,
      "wolf": 4404,
      "##ios": 4405,
      "##iels": 4406,
      "##uing": 4407,
      "##ring": 4408,
      "##kn": 4409,
      "##ero": 4410,
      "##ords": 4411,
      "##itely": 4412,
      "##oma": 4413,
      "##rep": 4414,
      "stick": 4415,
      "anch": 4416,
      "analy": 4417,
      "##uments": 4418,
      "prime": 4419,
      "prove": 4420,
      "proof": 4421,
      "unp": 4422,
      "unex": 4423,
      "unaware": 4424,
      "able": 4425,
      "separ": 4426,
      "plastic": 4427,
      "wealth": 4428,
      "##ellow": 4429,
      "adam": 4430,
      "adult": 4431,
      "disp": 4432,
      "mars": 4433,
      "obv": 4434,
      "impl": 4435,
      "fires": 4436,
      "recent": 4437,
      "contest": 4438,
      "acting": 4439,
      "compan": 4440,
      "myst": 4441,
      "myster": 4442,
      "remem": 4443,
      "##quarters": 4444,
      "##ollster": 4445,
      "minister": 4446,
      "butter": 4447,
      "seriously": 4448,
      "##airs": 4449,
      "cooper": 4450,
      "understand": 4451,
      "buil": 4452,
      "discrimin": 4453,
      "##ologist": 4454,
      "##otten": 4455,
      "admit": 4456,
      "legacy": 4457,
      "headquarters": 4458,
      "experiment": 4459,
      "regret": 4460,
      "##ledge": 4461,
      "countries": 4462,
      "roommate": 4463,
      "falling": 4464,
      "latino": 4465,
      "korean": 4466,
      "##shire": 4467,
      "council": 4468,
      "vacc": 4469,
      "leadership": 4470,
      "potential": 4471,
      "huffpollster": 4472,
      "prepares": 4473,
      "richard": 4474,
      "animal": 4475,
      "##ography": 4476,
      "flying": 4477,
      "statue": 4478,
      "criticism": 4479,
      "escape": 4480,
      "##breaking": 4481,
      "resigns": 4482,
      "conservative": 4483,
      "conservatives": 4484,
      "beyond": 4485,
      "lawyers": 4486,
      "controversy": 4487,
      "nbc": 4488,
      "linked": 4489,
      "welcome": 4490,
      "answer": 4491,
      "princess": 4492,
      "benefits": 4493,
      "legislation": 4494,
      "ukr": 4495,
      "dancing": 4496,
      "anxiety": 4497,
      "torture": 4498,
      "corden": 4499,
      "increasingly": 4500,
      "kitchen": 4501,
      "hawaii": 4502,
      "illegal": 4503,
      "cheney": 4504,
      "bost": 4505,
      "bond": 4506,
      "cute": 4507,
      "either": 4508,
      "gag": 4509,
      "gaz": 4510,
      "gather": 4511,
      "hiv": 4512,
      "hide": 4513,
      "lon": 4514,
      "lang": 4515,
      "lights": 4516,
      "lyn": 4517,
      "pin": 4518,
      "pap": 4519,
      "pitch": 4520,
      "ros": 4521,
      "river": 4522,
      "saw": 4523,
      "sister": 4524,
      "till": 4525,
      "tun": 4526,
      "##nam": 4527,
      "##iod": 4528,
      "##hold": 4529,
      "##aul": 4530,
      "##ros": 4531,
      "##father": 4532,
      "##erts": 4533,
      "##ato": 4534,
      "though": 4535,
      "toy": 4536,
      "tough": 4537,
      "stream": 4538,
      "##ston": 4539,
      "##stone": 4540,
      "##ayed": 4541,
      "ones": 4542,
      "trapped": 4543,
      "alt": 4544,
      "altern": 4545,
      "spoof": 4546,
      "spotted": 4547,
      "seat": 4548,
      "##emic": 4549,
      "amy": 4550,
      "weinstein": 4551,
      "brad": 4552,
      "brothers": 4553,
      "advert": 4554,
      "carson": 4555,
      "respect": 4556,
      "parade": 4557,
      "flavor": 4558,
      "prescri": 4559,
      "presidency": 4560,
      "shower": 4561,
      "period": 4562,
      "##acters": 4563,
      "##azi": 4564,
      "sexist": 4565,
      "demon": 4566,
      "remain": 4567,
      "##onders": 4568,
      "decide": 4569,
      "musical": 4570,
      "coast": 4571,
      "charity": 4572,
      "characters": 4573,
      "meditation": 4574,
      "conspir": 4575,
      "turned": 4576,
      "humili": 4577,
      "edition": 4578,
      "boat": 4579,
      "skills": 4580,
      "poster": 4581,
      "miles": 4582,
      "patr": 4583,
      "##onym": 4584,
      "terrifying": 4585,
      "settle": 4586,
      "promot": 4587,
      "population": 4588,
      "urban": 4589,
      "creating": 4590,
      "creative": 4591,
      "epid": 4592,
      "solar": 4593,
      "racial": 4594,
      "horrible": 4595,
      "emails": 4596,
      "costs": 4597,
      "##ika": 4598,
      "strikes": 4599,
      "struggle": 4600,
      "terrorism": 4601,
      "counter": 4602,
      "colorado": 4603,
      "opport": 4604,
      "satur": 4605,
      "##ruption": 4606,
      "rolls": 4607,
      "position": 4608,
      "esp": 4609,
      "funny": 4610,
      "quickly": 4611,
      "approves": 4612,
      "broadway": 4613,
      "wheel": 4614,
      "ultimate": 4615,
      "##itzer": 4616,
      "fantasy": 4617,
      "ghost": 4618,
      "ocean": 4619,
      "exclusive": 4620,
      "renew": 4621,
      "hampshire": 4622,
      "mysterious": 4623,
      "boston": 4624,
      "ble": 4625,
      "both": 4626,
      "cd": 4627,
      "corn": 4628,
      "cases": 4629,
      "dak": 4630,
      "dirty": 4631,
      "fi": 4632,
      "fears": 4633,
      "fisher": 4634,
      "gps": 4635,
      "kyl": 4636,
      "lines": 4637,
      "pent": 4638,
      "pounds": 4639,
      "ran": 4640,
      "sight": 4641,
      "ske": 4642,
      "sounds": 4643,
      "tap": 4644,
      "ties": 4645,
      "tip": 4646,
      "tatt": 4647,
      "tape": 4648,
      "wire": 4649,
      "yem": 4650,
      "##iere": 4651,
      "##uly": 4652,
      "##cess": 4653,
      "##ele": 4654,
      "##boy": 4655,
      "##bian": 4656,
      "##mo": 4657,
      "##mon": 4658,
      "##mar": 4659,
      "##mad": 4660,
      "##inary": 4661,
      "##ingly": 4662,
      "##aters": 4663,
      "thom": 4664,
      "tool": 4665,
      "toxic": 4666,
      "##eds": 4667,
      "inmates": 4668,
      "##eld": 4669,
      "trick": 4670,
      "##umm": 4671,
      "neck": 4672,
      "shark": 4673,
      "##oping": 4674,
      "deg": 4675,
      "##ander": 4676,
      "seems": 4677,
      "clim": 4678,
      "such": 4679,
      "amend": 4680,
      "##odies": 4681,
      "crush": 4682,
      "gross": 4683,
      "graham": 4684,
      "blames": 4685,
      "##pper": 4686,
      "##ogue": 4687,
      "dism": 4688,
      "##eps": 4689,
      "cards": 4690,
      "pref": 4691,
      "orland": 4692,
      "known": 4693,
      "knew": 4694,
      "join": 4695,
      "##issy": 4696,
      "thrill": 4697,
      "sexually": 4698,
      "remains": 4699,
      "wasn": 4700,
      "assoc": 4701,
      "chrissy": 4702,
      "related": 4703,
      "improve": 4704,
      "deput": 4705,
      "transport": 4706,
      "mission": 4707,
      "happiness": 4708,
      "kevin": 4709,
      "officers": 4710,
      "artists": 4711,
      "passing": 4712,
      "##anyahu": 4713,
      "michigan": 4714,
      "experi": 4715,
      "vegas": 4716,
      "listening": 4717,
      "instit": 4718,
      "promise": 4719,
      "foundation": 4720,
      "threatened": 4721,
      "eyed": 4722,
      "avail": 4723,
      "netanyahu": 4724,
      "previously": 4725,
      "##inois": 4726,
      "strip": 4727,
      "hitting": 4728,
      "dropped": 4729,
      "bored": 4730,
      "engine": 4731,
      "inspires": 4732,
      "activist": 4733,
      "illinois": 4734,
      "camer": 4735,
      "horror": 4736,
      "positive": 4737,
      "##ographic": 4738,
      "facts": 4739,
      "information": 4740,
      "okay": 4741,
      "reaches": 4742,
      "impression": 4743,
      "islamic": 4744,
      "africa": 4745,
      "filled": 4746,
      "premiere": 4747,
      "random": 4748,
      "embarrassed": 4749,
      "publish": 4750,
      "screaming": 4751,
      "lawmakers": 4752,
      "finger": 4753,
      "condemns": 4754,
      "spicer": 4755,
      "yoga": 4756,
      "companies": 4757,
      "mystery": 4758,
      "yemen": 4759,
      "orlando": 4760,
      "22": 4761,
      "500": 4762,
      "bets": 4763,
      "bik": 4764,
      "cu": 4765,
      "equal": 4766,
      "fool": 4767,
      "gard": 4768,
      "hug": 4769,
      "hann": 4770,
      "led": 4771,
      "loy": 4772,
      "main": 4773,
      "mitt": 4774,
      "nut": 4775,
      "ron": 4776,
      "sob": 4777,
      "zero": 4778,
      "##night": 4779,
      "##hop": 4780,
      "##lers": 4781,
      "##uf": 4782,
      "##uation": 4783,
      "##bon": 4784,
      "##bled": 4785,
      "##mark": 4786,
      "##wh": 4787,
      "##zona": 4788,
      "##esville": 4789,
      "##enger": 4790,
      "##arter": 4791,
      "ing": 4792,
      "##icult": 4793,
      "##eland": 4794,
      "##etch": 4795,
      "##owers": 4796,
      "##sters": 4797,
      "##aming": 4798,
      "##idden": 4799,
      "truly": 4800,
      "priest": 4801,
      "cho": 4802,
      "##imum": 4803,
      "yout": 4804,
      "##ivid": 4805,
      "##abb": 4806,
      "##ustain": 4807,
      "##employ": 4808,
      "##ounder": 4809,
      "enr": 4810,
      "craw": 4811,
      "##agn": 4812,
      "grave": 4813,
      "blog": 4814,
      "scalia": 4815,
      "##ected": 4816,
      "teigen": 4817,
      "aging": 4818,
      "##ached": 4819,
      "actress": 4820,
      "myth": 4821,
      "quit": 4822,
      "strength": 4823,
      "remove": 4824,
      "surve": 4825,
      "surger": 4826,
      "slam": 4827,
      "swim": 4828,
      "switch": 4829,
      "reflect": 4830,
      "highway": 4831,
      "glad": 4832,
      "statement": 4833,
      "conscious": 4834,
      "electric": 4835,
      "banks": 4836,
      "missed": 4837,
      "edge": 4838,
      "sne": 4839,
      "apart": 4840,
      "officially": 4841,
      "films": 4842,
      "detro": 4843,
      "details": 4844,
      "laid": 4845,
      "homes": 4846,
      "homosex": 4847,
      "corner": 4848,
      "businesses": 4849,
      "urge": 4850,
      "devos": 4851,
      "handle": 4852,
      "honest": 4853,
      "arrest": 4854,
      "##roach": 4855,
      "profile": 4856,
      "attempting": 4857,
      "apology": 4858,
      "boring": 4859,
      "causes": 4860,
      "closer": 4861,
      "english": 4862,
      "bombing": 4863,
      "potter": 4864,
      "##ylv": 4865,
      "treas": 4866,
      "staffers": 4867,
      "designer": 4868,
      "##gypt": 4869,
      "factory": 4870,
      "beyonc": 4871,
      "argument": 4872,
      "natural": 4873,
      "purchase": 4874,
      "exhib": 4875,
      "type": 4876,
      "jewish": 4877,
      "volunt": 4878,
      "arizona": 4879,
      "annoyed": 4880,
      "progressive": 4881,
      "purp": 4882,
      "several": 4883,
      "nervous": 4884,
      "charlottesville": 4885,
      "fully": 4886,
      "conflict": 4887,
      "repeatedly": 4888,
      "portrait": 4889,
      "literally": 4890,
      "trolls": 4891,
      "traffic": 4892,
      "brutal": 4893,
      "behavior": 4894,
      "taco": 4895,
      "remembers": 4896,
      "conspiracy": 4897,
      "epidemic": 4898,
      "kylie": 4899,
      "loyal": 4900,
      "detroit": 4901,
      "beyoncé": 4902,
      "ale": 4903,
      "aims": 4904,
      "boun": 4905,
      "bans": 4906,
      "bang": 4907,
      "cous": 4908,
      "cens": 4909,
      "cyc": 4910,
      "code": 4911,
      "egypt": 4912,
      "fame": 4913,
      "ging": 4914,
      "gent": 4915,
      "gear": 4916,
      "gates": 4917,
      "hip": 4918,
      "kend": 4919,
      "lake": 4920,
      "lock": 4921,
      "lucky": 4922,
      "mut": 4923,
      "math": 4924,
      "nic": 4925,
      "nun": 4926,
      "nap": 4927,
      "pic": 4928,
      "pile": 4929,
      "punch": 4930,
      "rent": 4931,
      "rachel": 4932,
      "saves": 4933,
      "sending": 4934,
      "tenn": 4935,
      "wre": 4936,
      "wisc": 4937,
      "##iam": 4938,
      "##gar": 4939,
      "##yard": 4940,
      "##aver": 4941,
      "##eer": 4942,
      "##ever": 4943,
      "##ront": 4944,
      "##bles": 4945,
      "##body": 4946,
      "##wing": 4947,
      "##ware": 4948,
      "##fe": 4949,
      "##encing": 4950,
      "##atory": 4951,
      "##eda": 4952,
      "##itude": 4953,
      "rex": 4954,
      "##lets": 4955,
      "trag": 4956,
      "##uther": 4957,
      "whis": 4958,
      "##aded": 4959,
      "##umes": 4960,
      "shad": 4961,
      "shift": 4962,
      "anderson": 4963,
      "atl": 4964,
      "alert": 4965,
      "unre": 4966,
      "unemploy": 4967,
      "##abs": 4968,
      "##ability": 4969,
      "span": 4970,
      "comment": 4971,
      "##ustin": 4972,
      "##emy": 4973,
      "clock": 4974,
      "amount": 4975,
      "##rier": 4976,
      "upon": 4977,
      "plays": 4978,
      "weed": 4979,
      "##oved": 4980,
      "tea": 4981,
      "marine": 4982,
      "marvel": 4983,
      "emmy": 4984,
      "##iana": 4985,
      "##ashed": 4986,
      "##raid": 4987,
      "contact": 4988,
      "joins": 4989,
      "##onsin": 4990,
      "applic": 4991,
      "makeup": 4992,
      "remaining": 4993,
      "moments": 4994,
      "##nsylv": 4995,
      "interior": 4996,
      "lawn": 4997,
      "winner": 4998,
      "incident": 4999,
      "miller": 5000,
      "elections": 5001,
      "became": 5002,
      "misses": 5003,
      "##ological": 5004,
      "earl": 5005,
      "endanger": 5006,
      "shoots": 5007,
      "dads": 5008,
      "steven": 5009,
      "looked": 5010,
      "burst": 5011,
      "delicious": 5012,
      "detail": 5013,
      "expert": 5014,
      "started": 5015,
      "cheap": 5016,
      "friendly": 5017,
      "seth": 5018,
      "setting": 5019,
      "expand": 5020,
      "addiction": 5021,
      "popul": 5022,
      "##anny": 5023,
      "friendship": 5024,
      "humanity": 5025,
      "summit": 5026,
      "paying": 5027,
      "harder": 5028,
      "loser": 5029,
      "sleeping": 5030,
      "panicked": 5031,
      "younger": 5032,
      "heroin": 5033,
      "speaker": 5034,
      "protecting": 5035,
      "davis": 5036,
      "penis": 5037,
      "pennsylv": 5038,
      "successful": 5039,
      "bringing": 5040,
      "honored": 5041,
      "expected": 5042,
      "ridicul": 5043,
      "searching": 5044,
      "enjoys": 5045,
      "mistakes": 5046,
      "mistaken": 5047,
      "##weight": 5048,
      "british": 5049,
      "touching": 5050,
      "comedian": 5051,
      "soldier": 5052,
      "bottom": 5053,
      "trouble": 5054,
      "laden": 5055,
      "sources": 5056,
      "anthem": 5057,
      "practice": 5058,
      "pledges": 5059,
      "therapy": 5060,
      "original": 5061,
      "title": 5062,
      "roger": 5063,
      "basket": 5064,
      "cyber": 5065,
      "toilet": 5066,
      "frantically": 5067,
      "unexpect": 5068,
      "langu": 5069,
      "opportunity": 5070,
      "saturday": 5071,
      "dakota": 5072,
      "tattoo": 5073,
      "thomas": 5074,
      "available": 5075,
      "wisconsin": 5076,
      "ah": 5077,
      "aides": 5078,
      "aunt": 5079,
      "bot": 5080,
      "bald": 5081,
      "bold": 5082,
      "bible": 5083,
      "cin": 5084,
      "coo": 5085,
      "due": 5086,
      "fol": 5087,
      "founder": 5088,
      "gil": 5089,
      "hob": 5090,
      "hav": 5091,
      "hates": 5092,
      "jers": 5093,
      "jos": 5094,
      "jerry": 5095,
      "linds": 5096,
      "locked": 5097,
      "lena": 5098,
      "map": 5099,
      "mothers": 5100,
      "nor": 5101,
      "nur": 5102,
      "py": 5103,
      "ped": 5104,
      "pour": 5105,
      "pover": 5106,
      "quality": 5107,
      "rather": 5108,
      "rips": 5109,
      "sac": 5110,
      "sod": 5111,
      "tamp": 5112,
      "torn": 5113,
      "ug": 5114,
      "##nb": 5115,
      "##lad": 5116,
      "##yers": 5117,
      "##ok": 5118,
      "##ev": 5119,
      "##egr": 5120,
      "##rie": 5121,
      "##rup": 5122,
      "##bors": 5123,
      "##war": 5124,
      "##wear": 5125,
      "##wards": 5126,
      "##inting": 5127,
      "##order": 5128,
      "##armed": 5129,
      "inner": 5130,
      "##icit": 5131,
      "sty": 5132,
      "ster": 5133,
      "anonym": 5134,
      "##umn": 5135,
      "neil": 5136,
      "##eck": 5137,
      "cha": 5138,
      "chip": 5139,
      "shame": 5140,
      "shape": 5141,
      "newborn": 5142,
      "alive": 5143,
      "##istry": 5144,
      "unf": 5145,
      "##ables": 5146,
      "except": 5147,
      "outbreak": 5148,
      "ending": 5149,
      "plat": 5150,
      "plot": 5151,
      "plun": 5152,
      "##anted": 5153,
      "##antic": 5154,
      "bright": 5155,
      "brought": 5156,
      "##assador": 5157,
      "scen": 5158,
      "carter": 5159,
      "##iance": 5160,
      "acad": 5161,
      "##athy": 5162,
      "records": 5163,
      "guess": 5164,
      "jokes": 5165,
      "##oots": 5166,
      "knowing": 5167,
      "butt": 5168,
      "anyway": 5169,
      "written": 5170,
      "##ordan": 5171,
      "relief": 5172,
      "charge": 5173,
      "syn": 5174,
      "confed": 5175,
      "confidence": 5176,
      "buys": 5177,
      "barely": 5178,
      "##rene": 5179,
      "entrep": 5180,
      "shootings": 5181,
      "babies": 5182,
      "nightm": 5183,
      "burns": 5184,
      "passenger": 5185,
      "restr": 5186,
      "walker": 5187,
      "posts": 5188,
      "reduce": 5189,
      "patri": 5190,
      "patients": 5191,
      "goddam": 5192,
      "respond": 5193,
      "capable": 5194,
      "##enny": 5195,
      "directly": 5196,
      "heartbreaking": 5197,
      "wednes": 5198,
      "hunger": 5199,
      "returning": 5200,
      "victor": 5201,
      "streets": 5202,
      "valley": 5203,
      "cruise": 5204,
      "##ipped": 5205,
      "believes": 5206,
      "broke": 5207,
      "checks": 5208,
      "responsible": 5209,
      "wildlife": 5210,
      "traveling": 5211,
      "larry": 5212,
      "pleas": 5213,
      "survive": 5214,
      "mentally": 5215,
      "##ursday": 5216,
      "globes": 5217,
      "sentenced": 5218,
      "policies": 5219,
      "oppon": 5220,
      "oppos": 5221,
      "iraqi": 5222,
      "suggest": 5223,
      "sanct": 5224,
      "william": 5225,
      "britney": 5226,
      "##onna": 5227,
      "daniels": 5228,
      "entertain": 5229,
      "professor": 5230,
      "bottle": 5231,
      "empower": 5232,
      "pulling": 5233,
      "duty": 5234,
      "ambassador": 5235,
      "habit": 5236,
      "agrees": 5237,
      "overs": 5238,
      "japanese": 5239,
      "execution": 5240,
      "punish": 5241,
      "cosby": 5242,
      "outraged": 5243,
      "taste": 5244,
      "dolph": 5245,
      "routine": 5246,
      "ellen": 5247,
      "abandoned": 5248,
      "nursing": 5249,
      "perspective": 5250,
      "considering": 5251,
      "gorge": 5252,
      "ancient": 5253,
      "rudy": 5254,
      "puppy": 5255,
      "ukraine": 5256,
      "gaza": 5257,
      "pentagon": 5258,
      "amendment": 5259,
      "youtube": 5260,
      "pennsylvania": 5261,
      "jersey": 5262,
      "poverty": 5263,
      "entreprene": 5264,
      "entertainment": 5265,
      "27": 5266,
      "34": 5267,
      "32": 5268,
      "bust": 5269,
      "bound": 5270,
      "caf": 5271,
      "dor": 5272,
      "fer": 5273,
      "fuel": 5274,
      "gri": 5275,
      "gors": 5276,
      "ho": 5277,
      "jet": 5278,
      "jun": 5279,
      "jordan": 5280,
      "kir": 5281,
      "kaine": 5282,
      "kept": 5283,
      "lone": 5284,
      "lying": 5285,
      "lord": 5286,
      "mug": 5287,
      "mention": 5288,
      "nu": 5289,
      "nost": 5290,
      "pad": 5291,
      "pair": 5292,
      "qa": 5293,
      "rot": 5294,
      "sell": 5295,
      "taught": 5296,
      "tiger": 5297,
      "wonders": 5298,
      "##sar": 5299,
      "##iors": 5300,
      "##gic": 5301,
      "##hab": 5302,
      "##tr": 5303,
      "##lings": 5304,
      "##aig": 5305,
      "##uitt": 5306,
      "##oft": 5307,
      "##pers": 5308,
      "##ril": 5309,
      "##die": 5310,
      "##bucks": 5311,
      "##mart": 5312,
      "##fc": 5313,
      "##fish": 5314,
      "##erves": 5315,
      "##oral": 5316,
      "##arily": 5317,
      "##areness": 5318,
      "thursday": 5319,
      "tos": 5320,
      "tooth": 5321,
      "toll": 5322,
      "##icated": 5323,
      "##oms": 5324,
      "rein": 5325,
      "##elph": 5326,
      "stad": 5327,
      "trend": 5328,
      "##urbing": 5329,
      "##adelph": 5330,
      "necess": 5331,
      "pruitt": 5332,
      "##eces": 5333,
      "sher": 5334,
      "##opol": 5335,
      "fruit": 5336,
      "##eston": 5337,
      "conce": 5338,
      "manaf": 5339,
      "##apse": 5340,
      "abus": 5341,
      "spect": 5342,
      "comic": 5343,
      "crying": 5344,
      "craig": 5345,
      "grown": 5346,
      "bruce": 5347,
      "adj": 5348,
      "blows": 5349,
      "intended": 5350,
      "drama": 5351,
      "##pping": 5352,
      "tele": 5353,
      "meals": 5354,
      "meghan": 5355,
      "##ounded": 5356,
      "flash": 5357,
      "guit": 5358,
      "everywhere": 5359,
      "knife": 5360,
      "showing": 5361,
      "appears": 5362,
      "soft": 5363,
      "awareness": 5364,
      "##ictions": 5365,
      "starbucks": 5366,
      "knowledge": 5367,
      "##reek": 5368,
      "deserve": 5369,
      "maybe": 5370,
      "winners": 5371,
      "income": 5372,
      "mont": 5373,
      "monster": 5374,
      "impact": 5375,
      "deport": 5376,
      "moved": 5377,
      "individ": 5378,
      "elected": 5379,
      "buzz": 5380,
      "deaths": 5381,
      "letting": 5382,
      "played": 5383,
      "genius": 5384,
      "midter": 5385,
      "walks": 5386,
      "milk": 5387,
      "cheer": 5388,
      "teenage": 5389,
      "veget": 5390,
      "maher": 5391,
      "fallon": 5392,
      "##anne": 5393,
      "creates": 5394,
      "epic": 5395,
      "##heim": 5396,
      "coverage": 5397,
      "difficult": 5398,
      "198": 5399,
      "profit": 5400,
      "communities": 5401,
      "provides": 5402,
      "conditions": 5403,
      "daughters": 5404,
      "effect": 5405,
      "##comes": 5406,
      "pressure": 5407,
      "shopping": 5408,
      "engagement": 5409,
      "teaches": 5410,
      "painful": 5411,
      "illness": 5412,
      "receive": 5413,
      "neighbors": 5414,
      "collaps": 5415,
      "philadelph": 5416,
      "suspended": 5417,
      "production": 5418,
      "rebels": 5419,
      "status": 5420,
      "religion": 5421,
      "miracle": 5422,
      "fundra": 5423,
      "disturbing": 5424,
      "##estern": 5425,
      "glasses": 5426,
      "micros": 5427,
      "graduates": 5428,
      "haunt": 5429,
      "collection": 5430,
      "annoying": 5431,
      "source": 5432,
      "dollar": 5433,
      "innoc": 5434,
      "innov": 5435,
      "estate": 5436,
      "breath": 5437,
      "migrants": 5438,
      "wilson": 5439,
      "australia": 5440,
      "politicians": 5441,
      "upset": 5442,
      "reaction": 5443,
      "athlet": 5444,
      "iconic": 5445,
      "describ": 5446,
      "false": 5447,
      "exercise": 5448,
      "slightly": 5449,
      "dipl": 5450,
      "jessica": 5451,
      "anchor": 5452,
      "gaga": 5453,
      "tillerson": 5454,
      "thoughts": 5455,
      "transportation": 5456,
      "betsy": 5457,
      "surgery": 5458,
      "confederate": 5459,
      "wednesday": 5460,
      "nostal": 5461,
      "qaeda": 5462,
      "stadium": 5463,
      "manafort": 5464,
      "300": 5465,
      "aide": 5466,
      "buck": 5467,
      "bodies": 5468,
      "dre": 5469,
      "dall": 5470,
      "eu": 5471,
      "eve": 5472,
      "elev": 5473,
      "gov": 5474,
      "golf": 5475,
      "hook": 5476,
      "hiring": 5477,
      "jam": 5478,
      "jason": 5479,
      "kar": 5480,
      "nail": 5481,
      "oreg": 5482,
      "pill": 5483,
      "pak": 5484,
      "purs": 5485,
      "rates": 5486,
      "sustain": 5487,
      "ven": 5488,
      "vom": 5489,
      "vul": 5490,
      "wip": 5491,
      "ward": 5492,
      "wears": 5493,
      "##sel": 5494,
      "##eing": 5495,
      "##rams": 5496,
      "##do": 5497,
      "##worth": 5498,
      "##60": 5499,
      "##anes": 5500,
      "##anch": 5501,
      "##oner": 5502,
      "##ita": 5503,
      "##itol": 5504,
      "##iser": 5505,
      "##isions": 5506,
      "stol": 5507,
      "stance": 5508,
      "##acon": 5509,
      "##acts": 5510,
      "##olate": 5511,
      "##ids": 5512,
      "##idly": 5513,
      "##utions": 5514,
      "whose": 5515,
      "print": 5516,
      "chain": 5517,
      "##illa": 5518,
      "shake": 5519,
      "shocking": 5520,
      "shoes": 5521,
      "shitty": 5522,
      "##ching": 5523,
      "##usal": 5524,
      "beating": 5525,
      "froz": 5526,
      "##ther": 5527,
      "andrew": 5528,
      "##ateful": 5529,
      "manuf": 5530,
      "##ablish": 5531,
      "##enders": 5532,
      "spider": 5533,
      "exam": 5534,
      "##ctic": 5535,
      "seaw": 5536,
      "select": 5537,
      "##ounts": 5538,
      "clo": 5539,
      "sues": 5540,
      "plus": 5541,
      "lew": 5542,
      "league": 5543,
      "##agan": 5544,
      "grill": 5545,
      "graph": 5546,
      "##iper": 5547,
      "bride": 5548,
      "brook": 5549,
      "bloom": 5550,
      "arms": 5551,
      "armed": 5552,
      "allowing": 5553,
      "scram": 5554,
      "carl": 5555,
      "maria": 5556,
      "overweight": 5557,
      "##awn": 5558,
      "libr": 5559,
      "liby": 5560,
      "agents": 5561,
      "parody": 5562,
      "usa": 5563,
      "flip": 5564,
      "backl": 5565,
      "contem": 5566,
      "actors": 5567,
      "perm": 5568,
      "twist": 5569,
      "##angel": 5570,
      "thrown": 5571,
      "throwing": 5572,
      "approach": 5573,
      "evac": 5574,
      "evolution": 5575,
      "childhood": 5576,
      "strangers": 5577,
      "december": 5578,
      "cease": 5579,
      "ceiling": 5580,
      "smiling": 5581,
      "minnes": 5582,
      "minimum": 5583,
      "wrest": 5584,
      "improv": 5585,
      "glimp": 5586,
      "charles": 5587,
      "confident": 5588,
      "confused": 5589,
      "harm": 5590,
      "transition": 5591,
      "gunman": 5592,
      "loose": 5593,
      "##eryl": 5594,
      "candy": 5595,
      "reven": 5596,
      "beloved": 5597,
      "tower": 5598,
      "patrick": 5599,
      "capitol": 5600,
      "advent": 5601,
      "regrets": 5602,
      "robot": 5603,
      "threatening": 5604,
      "grey": 5605,
      "taxes": 5606,
      "solve": 5607,
      "central": 5608,
      "cruel": 5609,
      "testing": 5610,
      "panic": 5611,
      "panel": 5612,
      "condition": 5613,
      "affair": 5614,
      "hosts": 5615,
      "personality": 5616,
      "terrorist": 5617,
      "cait": 5618,
      "closet": 5619,
      "counsel": 5620,
      "hopeful": 5621,
      "archae": 5622,
      "hammer": 5623,
      "suspects": 5624,
      "cleaning": 5625,
      "importance": 5626,
      "waitress": 5627,
      "pictures": 5628,
      "riding": 5629,
      "enjoying": 5630,
      "forgot": 5631,
      "mirror": 5632,
      "updates": 5633,
      "nobel": 5634,
      "divorced": 5635,
      "impressed": 5636,
      "challenges": 5637,
      "survivor": 5638,
      "organization": 5639,
      "beef": 5640,
      "couch": 5641,
      "krist": 5642,
      "proposal": 5643,
      "hackers": 5644,
      "multip": 5645,
      "pathetic": 5646,
      "pledge": 5647,
      "feminist": 5648,
      "ethics": 5649,
      "identity": 5650,
      "determined": 5651,
      "habits": 5652,
      "hypocr": 5653,
      "environmental": 5654,
      "comfortable": 5655,
      "medicine": 5656,
      "prayers": 5657,
      "grammys": 5658,
      "memoir": 5659,
      "dunham": 5660,
      "shelter": 5661,
      "latinos": 5662,
      "defeat": 5663,
      "achieve": 5664,
      "prescription": 5665,
      "basketball": 5666,
      "cooking": 5667,
      "academy": 5668,
      "goddamn": 5669,
      "gorgeous": 5670,
      "gorsuch": 5671,
      "##heimer": 5672,
      "dallas": 5673,
      "oregon": 5674,
      "pakistan": 5675,
      "stolen": 5676,
      "frozen": 5677,
      "manufact": 5678,
      "minnesota": 5679,
      "37": 5680,
      "75": 5681,
      "98": 5682,
      "99": 5683,
      "91": 5684,
      "ax": 5685,
      "ads": 5686,
      "bast": 5687,
      "covers": 5688,
      "dv": 5689,
      "dangers": 5690,
      "eats": 5691,
      "fab": 5692,
      "fcc": 5693,
      "gum": 5694,
      "gore": 5695,
      "gang": 5696,
      "hatch": 5697,
      "haz": 5698,
      "hole": 5699,
      "kas": 5700,
      "lion": 5701,
      "lip": 5702,
      "mood": 5703,
      "mater": 5704,
      "miam": 5705,
      "na": 5706,
      "ram": 5707,
      "rough": 5708,
      "sib": 5709,
      "wakes": 5710,
      "zone": 5711,
      "zika": 5712,
      "##iating": 5713,
      "##gets": 5714,
      "##han": 5715,
      "##lah": 5716,
      "##rase": 5717,
      "##vent": 5718,
      "##kins": 5719,
      "##wal": 5720,
      "##zheimer": 5721,
      "##jo": 5722,
      "##antha": 5723,
      "##orld": 5724,
      "##arth": 5725,
      "##iters": 5726,
      "##itors": 5727,
      "##isy": 5728,
      "##isf": 5729,
      "##icing": 5730,
      "##omo": 5731,
      "##omatic": 5732,
      "##iled": 5733,
      "reilly": 5734,
      "##ela": 5735,
      "stall": 5736,
      "stays": 5737,
      "##acement": 5738,
      "##iders": 5739,
      "neut": 5740,
      "##irts": 5741,
      "##tery": 5742,
      "##imore": 5743,
      "sham": 5744,
      "fred": 5745,
      "##uls": 5746,
      "##osis": 5747,
      "alzheimer": 5748,
      "##aping": 5749,
      "unless": 5750,
      "ability": 5751,
      "spin": 5752,
      "spears": 5753,
      "sept": 5754,
      "seatt": 5755,
      "##emon": 5756,
      "clip": 5757,
      "afraid": 5758,
      "italy": 5759,
      "italian": 5760,
      "outl": 5761,
      "cracks": 5762,
      "grat": 5763,
      "grace": 5764,
      "grateful": 5765,
      "notice": 5766,
      "##ella": 5767,
      "##izer": 5768,
      "drum": 5769,
      "drake": 5770,
      "allen": 5771,
      "allies": 5772,
      "teeth": 5773,
      "disorder": 5774,
      "finale": 5775,
      "meyers": 5776,
      "overwh": 5777,
      "willing": 5778,
      "##away": 5779,
      "images": 5780,
      "2020": 5781,
      "colin": 5782,
      "backed": 5783,
      "feud": 5784,
      "##iban": 5785,
      "schol": 5786,
      "sexy": 5787,
      "stares": 5788,
      "insane": 5789,
      "assass": 5790,
      "worked": 5791,
      "workout": 5792,
      "workplace": 5793,
      "holy": 5794,
      "voted": 5795,
      "##bridge": 5796,
      "commission": 5797,
      "taliban": 5798,
      "button": 5799,
      "opio": 5800,
      "highly": 5801,
      "##ulture": 5802,
      "relax": 5803,
      "imposs": 5804,
      "funds": 5805,
      "goodby": 5806,
      "discl": 5807,
      "poet": 5808,
      "##elson": 5809,
      "sniper": 5810,
      "photographer": 5811,
      "files": 5812,
      "secretly": 5813,
      "passed": 5814,
      "singing": 5815,
      "colleges": 5816,
      "grandfather": 5817,
      "supporting": 5818,
      "correct": 5819,
      "corruption": 5820,
      "regular": 5821,
      "raising": 5822,
      "entirely": 5823,
      "feelings": 5824,
      "greece": 5825,
      "hunt": 5826,
      "completes": 5827,
      "moder": 5828,
      "effective": 5829,
      "situation": 5830,
      "palin": 5831,
      "difference": 5832,
      "##ification": 5833,
      "increases": 5834,
      "causing": 5835,
      "inspiring": 5836,
      "painting": 5837,
      "views": 5838,
      "horrifying": 5839,
      "satisf": 5840,
      "relationships": 5841,
      "pulled": 5842,
      "roller": 5843,
      "revealed": 5844,
      "damage": 5845,
      "constantly": 5846,
      "programs": 5847,
      "announcement": 5848,
      "deeply": 5849,
      "diagn": 5850,
      "staying": 5851,
      "rescued": 5852,
      "request": 5853,
      "oklah": 5854,
      "committed": 5855,
      "nato": 5856,
      "purchases": 5857,
      "fitness": 5858,
      "casual": 5859,
      "catches": 5860,
      "liberty": 5861,
      "approval": 5862,
      "circle": 5863,
      "reunion": 5864,
      "thankful": 5865,
      "embarrassing": 5866,
      "extremely": 5867,
      "samantha": 5868,
      "removes": 5869,
      "therapist": 5870,
      "establish": 5871,
      "##ropri": 5872,
      "bolton": 5873,
      "lawmaker": 5874,
      "oliver": 5875,
      "adviser": 5876,
      "australian": 5877,
      "freshman": 5878,
      "lesbian": 5879,
      "arabia": 5880,
      "version": 5881,
      "resistance": 5882,
      "cartoon": 5883,
      "carrying": 5884,
      "millennials": 5885,
      "navy": 5886,
      "pissed": 5887,
      "troops": 5888,
      "chemical": 5889,
      "method": 5890,
      "voices": 5891,
      "sharp": 5892,
      "construction": 5893,
      "bikini": 5894,
      "endangered": 5895,
      "unexpected": 5896,
      "baldwin": 5897,
      "nurse": 5898,
      "soda": 5899,
      "platform": 5900,
      "philadelphia": 5901,
      "microsoft": 5902,
      "seaworld": 5903,
      "glimpse": 5904,
      "miami": 5905,
      "seattle": 5906,
      "overwhel": 5907,
      "goodbye": 5908,
      "oklahoma": 5909,
      "87": 5910,
      "az": 5911,
      "bay": 5912,
      "billy": 5913,
      "bacon": 5914,
      "cyr": 5915,
      "dave": 5916,
      "duck": 5917,
      "fasc": 5918,
      "hud": 5919,
      "hires": 5920,
      "hints": 5921,
      "kent": 5922,
      "kfc": 5923,
      "luc": 5924,
      "loom": 5925,
      "lazy": 5926,
      "luther": 5927,
      "ml": 5928,
      "mas": 5929,
      "max": 5930,
      "maint": 5931,
      "nature": 5932,
      "nancy": 5933,
      "nsf": 5934,
      "od": 5935,
      "ox": 5936,
      "pel": 5937,
      "pant": 5938,
      "pard": 5939,
      "pure": 5940,
      "pock": 5941,
      "rant": 5942,
      "rice": 5943,
      "roof": 5944,
      "sel": 5945,
      "sab": 5946,
      "tests": 5947,
      "vet": 5948,
      "wet": 5949,
      "wide": 5950,
      "wave": 5951,
      "##gor": 5952,
      "##hs": 5953,
      "##house": 5954,
      "##timore": 5955,
      "##rom": 5956,
      "##rich": 5957,
      "##rison": 5958,
      "##ka": 5959,
      "##bie": 5960,
      "##fun": 5961,
      "##ji": 5962,
      "##erk": 5963,
      "##erie": 5964,
      "##iner": 5965,
      "##oric": 5966,
      "##orrow": 5967,
      "##inge": 5968,
      "##atar": 5969,
      "##aron": 5970,
      "##itos": 5971,
      "inmate": 5972,
      "##omy": 5973,
      "##ilton": 5974,
      "##aser": 5975,
      "##asion": 5976,
      "stands": 5977,
      "##etown": 5978,
      "traged": 5979,
      "cher": 5980,
      "cham": 5981,
      "choc": 5982,
      "##illance": 5983,
      "##imony": 5984,
      "shaped": 5985,
      "##thr": 5986,
      "##umpt": 5987,
      "newt": 5988,
      "concer": 5989,
      "heat": 5990,
      "unb": 5991,
      "uncom": 5992,
      "abc": 5993,
      "abrams": 5994,
      "spill": 5995,
      "exit": 5996,
      "sequ": 5997,
      "suc": 5998,
      "sue": 5999,
      "enfor": 6000,
      "##asty": 6001,
      "grass": 6002,
      "grands": 6003,
      "brag": 6004,
      "bridge": 6005,
      "canada": 6006,
      "adele": 6007,
      "##keep": 6008,
      "integr": 6009,
      "##kings": 6010,
      "dry": 6011,
      "drivers": 6012,
      "##asses": 6013,
      "howard": 6014,
      "scores": 6015,
      "marry": 6016,
      "##aws": 6017,
      "aged": 6018,
      "agend": 6019,
      "orange": 6020,
      "firm": 6021,
      "firing": 6022,
      "##athers": 6023,
      "flint": 6024,
      "backs": 6025,
      "febr": 6026,
      "##issipp": 6027,
      "particip": 6028,
      "quite": 6029,
      "strange": 6030,
      "awful": 6031,
      "assad": 6032,
      "##quake": 6033,
      "watched": 6034,
      "commence": 6035,
      "smooth": 6036,
      "##sequ": 6037,
      "musk": 6038,
      "defiant": 6039,
      "consumer": 6040,
      "##ernity": 6041,
      "##ahl": 6042,
      "mississipp": 6043,
      "muham": 6044,
      "seeks": 6045,
      "theme": 6046,
      "snap": 6047,
      "longtime": 6048,
      "april": 6049,
      "##ixon": 6050,
      "elon": 6051,
      "##nedy": 6052,
      "clevel": 6053,
      "burn": 6054,
      "revers": 6055,
      "markle": 6056,
      "moral": 6057,
      "startup": 6058,
      "documents": 6059,
      "hometown": 6060,
      "chef": 6061,
      "tops": 6062,
      "expos": 6063,
      "expensive": 6064,
      "##ontin": 6065,
      "calm": 6066,
      "dreamers": 6067,
      "supremac": 6068,
      "solid": 6069,
      "solution": 6070,
      "##road": 6071,
      "previous": 6072,
      "sweat": 6073,
      "testimony": 6074,
      "provide": 6075,
      "effects": 6076,
      "tomorrow": 6077,
      "iranian": 6078,
      "lots": 6079,
      "lottery": 6080,
      "heroes": 6081,
      "plea": 6082,
      "ruin": 6083,
      "treats": 6084,
      "caused": 6085,
      "ordered": 6086,
      "billionaire": 6087,
      "pushes": 6088,
      "captain": 6089,
      "hamilton": 6090,
      "damn": 6091,
      "remembering": 6092,
      "crashes": 6093,
      "radical": 6094,
      "rebel": 6095,
      "complain": 6096,
      "parkland": 6097,
      "bedroom": 6098,
      "forgotten": 6099,
      "miranda": 6100,
      "britain": 6101,
      "cashier": 6102,
      "squad": 6103,
      "daniel": 6104,
      "pieces": 6105,
      "sixth": 6106,
      "connection": 6107,
      "commercials": 6108,
      "angeles": 6109,
      "developing": 6110,
      "baltimore": 6111,
      "proposed": 6112,
      "endorsement": 6113,
      "veterans": 6114,
      "princip": 6115,
      "benefit": 6116,
      "delivery": 6117,
      "suffer": 6118,
      "kennedy": 6119,
      "gala": 6120,
      "galax": 6121,
      "furious": 6122,
      "options": 6123,
      "praise": 6124,
      "links": 6125,
      "attractive": 6126,
      "disabled": 6127,
      "affordable": 6128,
      "essay": 6129,
      "ticket": 6130,
      "narrow": 6131,
      "minority": 6132,
      "recovery": 6133,
      "surgeon": 6134,
      "##works": 6135,
      "independent": 6136,
      "independence": 6137,
      "regularly": 6138,
      "lamar": 6139,
      "pipeline": 6140,
      "assistant": 6141,
      "prosecutor": 6142,
      "cannot": 6143,
      "obsessed": 6144,
      "astronom": 6145,
      "discrimination": 6146,
      "alternative": 6147,
      "demonstr": 6148,
      "cuomo": 6149,
      "garden": 6150,
      "hannity": 6151,
      "surveillance": 6152,
      "gingrich": 6153,
      "shadow": 6154,
      "unemployed": 6155,
      "language": 6156,
      "gilmore": 6157,
      "anonymous": 6158,
      "nightmare": 6159,
      "necessary": 6160,
      "guitar": 6161,
      "haunted": 6162,
      "brooklyn": 6163,
      "evacu": 6164,
      "caitlyn": 6165,
      "hypocrisy": 6166,
      "dvd": 6167,
      "opioid": 6168,
      "impossible": 6169,
      "cyrus": 6170,
      "kentucky": 6171,
      "nsfw": 6172,
      "february": 6173,
      "mississippi": 6174,
      "cleveland": 6175,
      "26": 6176,
      "38": 6177,
      "600": 6178,
      "85": 6179,
      "bart": 6180,
      "bug": 6181,
      "bike": 6182,
      "cats": 6183,
      "cbs": 6184,
      "dorm": 6185,
      "fo": 6186,
      "fate": 6187,
      "fond": 6188,
      "felt": 6189,
      "gw": 6190,
      "gig": 6191,
      "hog": 6192,
      "hbo": 6193,
      "hidden": 6194,
      "jake": 6195,
      "junk": 6196,
      "jazz": 6197,
      "lun": 6198,
      "lane": 6199,
      "mate": 6200,
      "nose": 6201,
      "nyp": 6202,
      "option": 6203,
      "pist": 6204,
      "pink": 6205,
      "pills": 6206,
      "pomp": 6207,
      "rip": 6208,
      "rav": 6209,
      "rating": 6210,
      "ross": 6211,
      "range": 6212,
      "rises": 6213,
      "riot": 6214,
      "ta": 6215,
      "vag": 6216,
      "wing": 6217,
      "wit": 6218,
      "western": 6219,
      "##nic": 6220,
      "##sen": 6221,
      "##gi": 6222,
      "##tag": 6223,
      "##lights": 6224,
      "##uous": 6225,
      "##ci": 6226,
      "##can": 6227,
      "##cle": 6228,
      "##cut": 6229,
      "##oat": 6230,
      "##pe": 6231,
      "##pot": 6232,
      "##rence": 6233,
      "##mes": 6234,
      "##mers": 6235,
      "##mber": 6236,
      "##fires": 6237,
      "##inter": 6238,
      "##inct": 6239,
      "##ani": 6240,
      "##anz": 6241,
      "##ington": 6242,
      "toys": 6243,
      "##isa": 6244,
      "inject": 6245,
      "##reh": 6246,
      "##rey": 6247,
      "reagan": 6248,
      "##leton": 6249,
      "##leck": 6250,
      "stere": 6251,
      "stret": 6252,
      "stunt": 6253,
      "##eting": 6254,
      "##etnam": 6255,
      "##otyp": 6256,
      "fort": 6257,
      "##uters": 6258,
      "whale": 6259,
      "##vember": 6260,
      "chase": 6261,
      "##illion": 6262,
      "sharing": 6263,
      "##oped": 6264,
      "bears": 6265,
      "deploy": 6266,
      "frat": 6267,
      "alan": 6268,
      "ally": 6269,
      "alask": 6270,
      "##oca": 6271,
      "aside": 6272,
      "unw": 6273,
      "unins": 6274,
      "##endy": 6275,
      "spiel": 6276,
      "##eman": 6277,
      "repr": 6278,
      "outs": 6279,
      "crow": 6280,
      "grie": 6281,
      "canad": 6282,
      "##elled": 6283,
      "blas": 6284,
      "blank": 6285,
      "blocks": 6286,
      "arctic": 6287,
      "drown": 6288,
      "driven": 6289,
      "scot": 6290,
      "scout": 6291,
      "scri": 6292,
      "donors": 6293,
      "diss": 6294,
      "goal": 6295,
      "goals": 6296,
      "carbon": 6297,
      "polling": 6298,
      "overt": 6299,
      "reporters": 6300,
      "parks": 6301,
      "nationwide": 6302,
      "ord": 6303,
      "recently": 6304,
      "november": 6305,
      "presents": 6306,
      "background": 6307,
      "backyard": 6308,
      "twins": 6309,
      "compares": 6310,
      "worldwide": 6311,
      "##azed": 6312,
      "quotes": 6313,
      "quarter": 6314,
      "anne": 6315,
      "demographic": 6316,
      "billions": 6317,
      "slide": 6318,
      "watches": 6319,
      "decor": 6320,
      "commit": 6321,
      "somewhere": 6322,
      "lawrence": 6323,
      "refusing": 6324,
      "bigger": 6325,
      "kidn": 6326,
      "hearts": 6327,
      "impe": 6328,
      "coal": 6329,
      "mostly": 6330,
      "symp": 6331,
      "retired": 6332,
      "indicted": 6333,
      "discovers": 6334,
      "poison": 6335,
      "supporter": 6336,
      "##uctive": 6337,
      "seeking": 6338,
      "##attan": 6339,
      "photograph": 6340,
      "elimin": 6341,
      "daddy": 6342,
      "##phones": 6343,
      "johnny": 6344,
      "headed": 6345,
      "breakup": 6346,
      "celebrating": 6347,
      "evening": 6348,
      "vietnam": 6349,
      "grandpar": 6350,
      "detective": 6351,
      "superher": 6352,
      "exciting": 6353,
      "homeland": 6354,
      "curry": 6355,
      "register": 6356,
      "timber": 6357,
      "massac": 6358,
      "install": 6359,
      "devast": 6360,
      "lesson": 6361,
      "scientist": 6362,
      "solo": 6363,
      "services": 6364,
      "freaking": 6365,
      "sweats": 6366,
      "virus": 6367,
      "affleck": 6368,
      "earthquake": 6369,
      "sites": 6370,
      "shots": 6371,
      "struggles": 6372,
      "tourist": 6373,
      "ruined": 6374,
      "dropping": 6375,
      "hairst": 6376,
      "ballot": 6377,
      "county": 6378,
      "bomber": 6379,
      "francisco": 6380,
      "targets": 6381,
      "mindful": 6382,
      "executives": 6383,
      "doubt": 6384,
      "easier": 6385,
      "pushed": 6386,
      "prepare": 6387,
      "uncle": 6388,
      "collabor": 6389,
      "capture": 6390,
      "captures": 6391,
      "suspicious": 6392,
      "destruction": 6393,
      "expecting": 6394,
      "disappear": 6395,
      "motiv": 6396,
      "criticized": 6397,
      "escal": 6398,
      "drawer": 6399,
      "drawing": 6400,
      "bankrupt": 6401,
      "generations": 6402,
      "informs": 6403,
      "rapper": 6404,
      "desperately": 6405,
      "limit": 6406,
      "square": 6407,
      "airline": 6408,
      "briefly": 6409,
      "stuffed": 6410,
      "welcomes": 6411,
      "stormy": 6412,
      "crackdown": 6413,
      "liberal": 6414,
      "endorses": 6415,
      "professional": 6416,
      "producers": 6417,
      "products": 6418,
      "allowed": 6419,
      "disgusted": 6420,
      "july": 6421,
      "##loe": 6422,
      "drinks": 6423,
      "franken": 6424,
      "imagine": 6425,
      "growth": 6426,
      "acquires": 6427,
      "##burg": 6428,
      "determine": 6429,
      "influence": 6430,
      "molest": 6431,
      "encouraging": 6432,
      "traditional": 6433,
      "politician": 6434,
      "basic": 6435,
      "podcast": 6436,
      "dishes": 6437,
      "eggs": 6438,
      "district": 6439,
      "consumers": 6440,
      "smoking": 6441,
      "levels": 6442,
      "emerges": 6443,
      "explosion": 6444,
      "choose": 6445,
      "bullying": 6446,
      "accepts": 6447,
      "advocates": 6448,
      "pilot": 6449,
      "rolling": 6450,
      "built": 6451,
      "tools": 6452,
      "deputy": 6453,
      "exhibit": 6454,
      "cousin": 6455,
      "census": 6456,
      "##avery": 6457,
      "sterling": 6458,
      "fundraising": 6459,
      "nostalgic": 6460,
      "vulner": 6461,
      "graphic": 6462,
      "backlash": 6463,
      "archaeologists": 6464,
      "kasich": 6465,
      "neutral": 6466,
      "scholars": 6467,
      "tragedy": 6468,
      "chocolate": 6469,
      "grandson": 6470,
      "agenda": 6471,
      "commencement": 6472,
      "muhammad": 6473,
      "galaxy": 6474,
      "astronomers": 6475,
      "nypd": 6476,
      "witness": 6477,
      "83": 6478,
      "aqu": 6479,
      "bes": 6480,
      "bie": 6481,
      "bip": 6482,
      "bub": 6483,
      "bother": 6484,
      "bitch": 6485,
      "core": 6486,
      "dy": 6487,
      "eag": 6488,
      "fu": 6489,
      "fare": 6490,
      "fights": 6491,
      "fier": 6492,
      "foods": 6493,
      "hou": 6494,
      "hut": 6495,
      "hipp": 6496,
      "jill": 6497,
      "ka": 6498,
      "koch": 6499,
      "lapt": 6500,
      "mt": 6501,
      "mish": 6502,
      "mouse": 6503,
      "ner": 6504,
      "nails": 6505,
      "nazi": 6506,
      "oct": 6507,
      "pitt": 6508,
      "rit": 6509,
      "ramp": 6510,
      "rivers": 6511,
      "rocks": 6512,
      "sant": 6513,
      "sons": 6514,
      "sau": 6515,
      "tes": 6516,
      "tied": 6517,
      "var": 6518,
      "wi": 6519,
      "yo": 6520,
      "yellow": 6521,
      "##gre": 6522,
      "##gate": 6523,
      "##gage": 6524,
      "##gress": 6525,
      "##hl": 6526,
      "##ha": 6527,
      "##tt": 6528,
      "##ten": 6529,
      "##li": 6530,
      "##lake": 6531,
      "##ule": 6532,
      "##uable": 6533,
      "##case": 6534,
      "##po": 6535,
      "##point": 6536,
      "##xon": 6537,
      "##xit": 6538,
      "##kish": 6539,
      "##bly": 6540,
      "##bell": 6541,
      "##wom": 6542,
      "##water": 6543,
      "##fo": 6544,
      "##zy": 6545,
      "##once": 6546,
      "##enc": 6547,
      "##arch": 6548,
      "touts": 6549,
      "##ales": 6550,
      "##aled": 6551,
      "initi": 6552,
      "##lee": 6553,
      "##leep": 6554,
      "##lects": 6555,
      "stan": 6556,
      "stom": 6557,
      "stir": 6558,
      "##olves": 6559,
      "##amin": 6560,
      "##uted": 6561,
      "whit": 6562,
      "prost": 6563,
      "##tering": 6564,
      "##illiant": 6565,
      "##immer": 6566,
      "shell": 6567,
      "shred": 6568,
      "shuts": 6569,
      "shirts": 6570,
      "##cher": 6571,
      "##chair": 6572,
      "beats": 6573,
      "deals": 6574,
      "##estyle": 6575,
      "##ooks": 6576,
      "##andering": 6577,
      "newest": 6578,
      "concept": 6579,
      "consequ": 6580,
      "##ulf": 6581,
      "##osi": 6582,
      "##isters": 6583,
      "##ocal": 6584,
      "##ivia": 6585,
      "unarmed": 6586,
      "above": 6587,
      "spread": 6588,
      "comf": 6589,
      "##uster": 6590,
      "clerk": 6591,
      "wore": 6592,
      "##ria": 6593,
      "##rial": 6594,
      "ens": 6595,
      "leon": 6596,
      "lebr": 6597,
      "leaked": 6598,
      "crown": 6599,
      "dole": 6600,
      "gray": 6601,
      "groc": 6602,
      "grief": 6603,
      "brilliant": 6604,
      "dram": 6605,
      "drives": 6606,
      "draft": 6607,
      "##assy": 6608,
      "donation": 6609,
      "carly": 6610,
      "meant": 6611,
      "polar": 6612,
      "reported": 6613,
      "resolution": 6614,
      "agency": 6615,
      "##athan": 6616,
      "flat": 6617,
      "flames": 6618,
      "warner": 6619,
      "phrase": 6620,
      "everybody": 6621,
      "contains": 6622,
      "contrib": 6623,
      "feed": 6624,
      "joan": 6625,
      "##ibr": 6626,
      "twice": 6627,
      "complex": 6628,
      "##action": 6629,
      "string": 6630,
      "remark": 6631,
      "remote": 6632,
      "bread": 6633,
      "interf": 6634,
      "staring": 6635,
      "assure": 6636,
      "holoca": 6637,
      "##bro": 6638,
      "smell": 6639,
      "deserves": 6640,
      "mini": 6641,
      "monument": 6642,
      "writers": 6643,
      "highlights": 6644,
      "##orders": 6645,
      "coat": 6646,
      "glor": 6647,
      "turkish": 6648,
      "underwear": 6649,
      "debates": 6650,
      "banana": 6651,
      "courage": 6652,
      "bars": 6653,
      "lasting": 6654,
      "supposed": 6655,
      "videos": 6656,
      "selfie": 6657,
      "location": 6658,
      "skull": 6659,
      "visible": 6660,
      "stealing": 6661,
      "burned": 6662,
      "birds": 6663,
      "miley": 6664,
      "##pro": 6665,
      "delight": 6666,
      "grandpa": 6667,
      "patron": 6668,
      "superst": 6669,
      "openly": 6670,
      "curb": 6671,
      "chew": 6672,
      "veh": 6673,
      "registry": 6674,
      "robin": 6675,
      "roberts": 6676,
      "freez": 6677,
      "raised": 6678,
      "##umbles": 6679,
      "specif": 6680,
      "scientific": 6681,
      "salad": 6682,
      "streep": 6683,
      "unveil": 6684,
      "valuable": 6685,
      "surprises": 6686,
      "pete": 6687,
      "discovery": 6688,
      "silent": 6689,
      "conduct": 6690,
      "150": 6691,
      "wildfire": 6692,
      "repeat": 6693,
      "heroic": 6694,
      "prisoners": 6695,
      "##ettes": 6696,
      "ruins": 6697,
      "smaller": 6698,
      "apologize": 6699,
      "terrorists": 6700,
      "closed": 6701,
      "audio": 6702,
      "spray": 6703,
      "balloon": 6704,
      "murdered": 6705,
      "cambridge": 6706,
      "depressing": 6707,
      "uncover": 6708,
      "sadly": 6709,
      "philipp": 6710,
      "honoring": 6711,
      "melt": 6712,
      "simpson": 6713,
      "facing": 6714,
      "windows": 6715,
      "flynn": 6716,
      "bags": 6717,
      "erup": 6718,
      "injury": 6719,
      "suspected": 6720,
      "requires": 6721,
      "wasted": 6722,
      "civilians": 6723,
      "##fortable": 6724,
      "briefing": 6725,
      "destroyed": 6726,
      "casually": 6727,
      "islamophob": 6728,
      "ignore": 6729,
      "kris": 6730,
      "acceptance": 6731,
      "answers": 6732,
      "undoc": 6733,
      "wheels": 6734,
      "strateg": 6735,
      "jumps": 6736,
      "anthony": 6737,
      "shrimp": 6738,
      "negot": 6739,
      "negative": 6740,
      "alien": 6741,
      "multi": 6742,
      "temp": 6743,
      "tempor": 6744,
      "feminism": 6745,
      "january": 6746,
      "existence": 6747,
      "palestinians": 6748,
      "migrant": 6749,
      "optim": 6750,
      "praises": 6751,
      "agreement": 6752,
      "origin": 6753,
      "encourages": 6754,
      "mountain": 6755,
      "considered": 6756,
      "nervously": 6757,
      "outrage": 6758,
      "##writer": 6759,
      "nominations": 6760,
      "definitely": 6761,
      "masturbating": 6762,
      "clarifies": 6763,
      "brian": 6764,
      "certain": 6765,
      "housing": 6766,
      "laura": 6767,
      "obviously": 6768,
      "settlement": 6769,
      "prefer": 6770,
      "nutr": 6771,
      "gentr": 6772,
      "kendrick": 6773,
      "atlanta": 6774,
      "lindsey": 6775,
      "ugly": 6776,
      "chaos": 6777,
      "sheriff": 6778,
      "montana": 6779,
      "innocent": 6780,
      "##walk": 6781,
      "pelosi": 6782,
      "uncomfortable": 6783,
      "stereotyp": 6784,
      "spielberg": 6785,
      "grieving": 6786,
      "canadian": 6787,
      "grandparents": 6788,
      "timberlake": 6789,
      "massacre": 6790,
      "bieber": 6791,
      "houston": 6792,
      "laptop": 6793,
      "ritual": 6794,
      "tesla": 6795,
      "lebron": 6796,
      "holocaust": 6797,
      "31": 6798,
      "bump": 6799,
      "bash": 6800,
      "bacter": 6801,
      "coc": 6802,
      "cere": 6803,
      "dac": 6804,
      "dent": 6805,
      "dod": 6806,
      "dyn": 6807,
      "ec": 6808,
      "eight": 6809,
      "fior": 6810,
      "hay": 6811,
      "ic": 6812,
      "ip": 6813,
      "kit": 6814,
      "kur": 6815,
      "lap": 6816,
      "lift": 6817,
      "linc": 6818,
      "lived": 6819,
      "mile": 6820,
      "meryl": 6821,
      "nons": 6822,
      "native": 6823,
      "nsa": 6824,
      "nelson": 6825,
      "oath": 6826,
      "pace": 6827,
      "pets": 6828,
      "rup": 6829,
      "sque": 6830,
      "tum": 6831,
      "tens": 6832,
      "vp": 6833,
      "vene": 6834,
      "wis": 6835,
      "wings": 6836,
      "wik": 6837,
      "woods": 6838,
      "##nel": 6839,
      "##iber": 6840,
      "##hal": 6841,
      "##hum": 6842,
      "##ls": 6843,
      "##low": 6844,
      "##lies": 6845,
      "##lines": 6846,
      "##eon": 6847,
      "##eor": 6848,
      "##eal": 6849,
      "##rin": 6850,
      "##rum": 6851,
      "##rest": 6852,
      "##kel": 6853,
      "##ba": 6854,
      "##bac": 6855,
      "##bus": 6856,
      "##bage": 6857,
      "##min": 6858,
      "##zuel": 6859,
      "##erable": 6860,
      "##esc": 6861,
      "##anmar": 6862,
      "##ener": 6863,
      "##itating": 6864,
      "##itious": 6865,
      "##isan": 6866,
      "##icon": 6867,
      "##icts": 6868,
      "##icate": 6869,
      "##ician": 6870,
      "##ompl": 6871,
      "theor": 6872,
      "reid": 6873,
      "reop": 6874,
      "##leans": 6875,
      "##else": 6876,
      "stole": 6877,
      "##othing": 6878,
      "##oln": 6879,
      "##idel": 6880,
      "anal": 6881,
      "##igue": 6882,
      "tri": 6883,
      "tracks": 6884,
      "##ader": 6885,
      "##umed": 6886,
      "neur": 6887,
      "prank": 6888,
      "chart": 6889,
      "shout": 6890,
      "shared": 6891,
      "##opter": 6892,
      "##opher": 6893,
      "##opard": 6894,
      "delet": 6895,
      "##thew": 6896,
      "##ula": 6897,
      "##ulate": 6898,
      "##osaur": 6899,
      "##apes": 6900,
      "asleep": 6901,
      "hey": 6902,
      "unh": 6903,
      "unkn": 6904,
      "abd": 6905,
      "abused": 6906,
      "spre": 6907,
      "sport": 6908,
      "spain": 6909,
      "spice": 6910,
      "sparks": 6911,
      "exxon": 6912,
      "plate": 6913,
      "##odes": 6914,
      "cruc": 6915,
      "##agues": 6916,
      "doors": 6917,
      "##oster": 6918,
      "cannon": 6919,
      "##aved": 6920,
      "adding": 6921,
      "blake": 6922,
      "blown": 6923,
      "blowing": 6924,
      "intel": 6925,
      "score": 6926,
      "scary": 6927,
      "scouts": 6928,
      "carn": 6929,
      "marks": 6930,
      "marath": 6931,
      "emma": 6932,
      "obese": 6933,
      "object": 6934,
      "objects": 6935,
      "##plane": 6936,
      "hash": 6937,
      "resort": 6938,
      "resolut": 6939,
      "imper": 6940,
      "pean": 6941,
      "##bery": 6942,
      "orleans": 6943,
      "floods": 6944,
      "##ishing": 6945,
      "phase": 6946,
      "##ample": 6947,
      "##issions": 6948,
      "myanmar": 6949,
      "appoint": 6950,
      "quiz": 6951,
      "sexism": 6952,
      "evil": 6953,
      "events": 6954,
      "evangel": 6955,
      "strapped": 6956,
      "bills": 6957,
      "billboard": 6958,
      "makeover": 6959,
      "awak": 6960,
      "realized": 6961,
      "##mann": 6962,
      "slip": 6963,
      "sheer": 6964,
      "assem": 6965,
      "accuses": 6966,
      "accompl": 6967,
      "dece": 6968,
      "decade": 6969,
      "swims": 6970,
      "swears": 6971,
      "refr": 6972,
      "inclus": 6973,
      "monitor": 6974,
      "bigot": 6975,
      "wrote": 6976,
      "consecut": 6977,
      "##hingya": 6978,
      "invent": 6979,
      "letters": 6980,
      "earn": 6981,
      "happening": 6982,
      "snake": 6983,
      "stopped": 6984,
      "boyc": 6985,
      "sketch": 6986,
      "##phy": 6987,
      "steal": 6988,
      "steak": 6989,
      "##scri": 6990,
      "midnight": 6991,
      "infant": 6992,
      "restore": 6993,
      "exploring": 6994,
      "delay": 6995,
      "delays": 6996,
      "towards": 6997,
      "airplane": 6998,
      "detained": 6999,
      "menu": 7000,
      "rohingya": 7001,
      "excuse": 7002,
      "homophob": 7003,
      "iron": 7004,
      "irma": 7005,
      "classified": 7006,
      "classmate": 7007,
      "northern": 7008,
      "promised": 7009,
      "added": 7010,
      "urine": 7011,
      "urged": 7012,
      "values": 7013,
      "arrives": 7014,
      "sometimes": 7015,
      "concl": 7016,
      "meteor": 7017,
      "discovering": 7018,
      "##umented": 7019,
      "investigating": 7020,
      "efforts": 7021,
      "responsibility": 7022,
      "nonpro": 7023,
      "pleads": 7024,
      "tourists": 7025,
      "custody": 7026,
      "cauc": 7027,
      "keys": 7028,
      "teaching": 7029,
      "paint": 7030,
      "viewer": 7031,
      "satell": 7032,
      "##iveness": 7033,
      "spotlight": 7034,
      "collapse": 7035,
      "revealing": 7036,
      "castle": 7037,
      "##goer": 7038,
      "rebu": 7039,
      "compliment": 7040,
      "privacy": 7041,
      "autism": 7042,
      "bullet": 7043,
      "##holds": 7044,
      "draws": 7045,
      "garbage": 7046,
      "mistake": 7047,
      "emotion": 7048,
      "reviews": 7049,
      "proced": 7050,
      "attendant": 7051,
      "attendees": 7052,
      "fatal": 7053,
      "hilariously": 7054,
      "citizen": 7055,
      "horses": 7056,
      "stressed": 7057,
      "louisiana": 7058,
      "predict": 7059,
      "aids": 7060,
      "endorse": 7061,
      "graduation": 7062,
      "soldiers": 7063,
      "constitu": 7064,
      "troubling": 7065,
      "suffering": 7066,
      "farmers": 7067,
      "ladies": 7068,
      "empire": 7069,
      "smartphone": 7070,
      "90s": 7071,
      "tearful": 7072,
      "aliens": 7073,
      "interesting": 7074,
      "khloe": 7075,
      "includ": 7076,
      "include": 7077,
      "21st": 7078,
      "pacific": 7079,
      "tradition": 7080,
      "disabilities": 7081,
      "indiana": 7082,
      "european": 7083,
      "80s": 7084,
      "jailed": 7085,
      "tickets": 7086,
      "involved": 7087,
      "physical": 7088,
      "blasted": 7089,
      "germany": 7090,
      "eleph": 7091,
      "katy": 7092,
      "mourns": 7093,
      "canceled": 7094,
      "village": 7095,
      "display": 7096,
      "maryland": 7097,
      "widow": 7098,
      "appeal": 7099,
      "firefight": 7100,
      "firefighter": 7101,
      "cigarette": 7102,
      "cigarettes": 7103,
      "jerusal": 7104,
      "analyst": 7105,
      "vaccine": 7106,
      "patrons": 7107,
      "wheelchair": 7108,
      "association": 7109,
      "experiences": 7110,
      "homosexual": 7111,
      "tragic": 7112,
      "whispers": 7113,
      "spanish": 7114,
      "populace": 7115,
      "josh": 7116,
      "opposition": 7117,
      "toss": 7118,
      "individual": 7119,
      "scrambling": 7120,
      "library": 7121,
      "multiple": 7122,
      "bastard": 7123,
      "material": 7124,
      "siblings": 7125,
      "chamber": 7126,
      "concerns": 7127,
      "neutrality": 7128,
      "sauce": 7129,
      "initiative": 7130,
      "stomach": 7131,
      "leonard": 7132,
      "grocery": 7133,
      "undocumented": 7134,
      "fiorina": 7135,
      "lincoln": 7136,
      "venezuel": 7137,
      "##elsea": 7138,
      "resolutions": 7139,
      "consecutive": 7140,
      "jerusalem": 7141,
      "venezuela": 7142,
      "28": 7143,
      "43": 7144,
      "65": 7145,
      "72": 7146,
      "800": 7147,
      "aer": 7148,
      "ais": 7149,
      "aim": 7150,
      "aug": 7151,
      "austin": 7152,
      "bone": 7153,
      "bass": 7154,
      "bog": 7155,
      "bare": 7156,
      "bought": 7157,
      "bites": 7158,
      "cable": 7159,
      "cyn": 7160,
      "dil": 7161,
      "dial": 7162,
      "dame": 7163,
      "dough": 7164,
      "et": 7165,
      "erect": 7166,
      "fal": 7167,
      "fence": 7168,
      "fiction": 7169,
      "fellow": 7170,
      "gill": 7171,
      "gab": 7172,
      "gina": 7173,
      "greek": 7174,
      "hed": 7175,
      "hire": 7176,
      "hub": 7177,
      "hij": 7178,
      "hugh": 7179,
      "hiding": 7180,
      "heck": 7181,
      "june": 7182,
      "kinder": 7183,
      "lic": 7184,
      "lays": 7185,
      "lover": 7186,
      "mock": 7187,
      "mask": 7188,
      "mocking": 7189,
      "nar": 7190,
      "nest": 7191,
      "none": 7192,
      "npr": 7193,
      "nuts": 7194,
      "os": 7195,
      "ot": 7196,
      "oc": 7197,
      "pals": 7198,
      "pony": 7199,
      "panda": 7200,
      "pushing": 7201,
      "powers": 7202,
      "qual": 7203,
      "rall": 7204,
      "rage": 7205,
      "rings": 7206,
      "rover": 7207,
      "rih": 7208,
      "roots": 7209,
      "sigh": 7210,
      "sail": 7211,
      "sach": 7212,
      "sits": 7213,
      "soup": 7214,
      "selves": 7215,
      "sells": 7216,
      "va": 7217,
      "vow": 7218,
      "vent": 7219,
      "wise": 7220,
      "wendy": 7221,
      "##nament": 7222,
      "##iat": 7223,
      "##iqu": 7224,
      "##tz": 7225,
      "##tail": 7226,
      "##uk": 7227,
      "##okes": 7228,
      "##eas": 7229,
      "##py": 7230,
      "##pire": 7231,
      "##rast": 7232,
      "##rob": 7233,
      "##rog": 7234,
      "##rowing": 7235,
      "##vers": 7236,
      "##bc": 7237,
      "##bow": 7238,
      "##wi": 7239,
      "##fly": 7240,
      "##fits": 7241,
      "##za": 7242,
      "##jud": 7243,
      "##inced": 7244,
      "##esa": 7245,
      "##esity": 7246,
      "##ora": 7247,
      "##orous": 7248,
      "thor": 7249,
      "thumb": 7250,
      "thomp": 7251,
      "##alan": 7252,
      "##ouri": 7253,
      "##itable": 7254,
      "##iced": 7255,
      "##icopter": 7256,
      "##rees": 7257,
      "rejects": 7258,
      "rehab": 7259,
      "sting": 7260,
      "##etically": 7261,
      "##acting": 7262,
      "##stri": 7263,
      "##stream": 7264,
      "##steen": 7265,
      "anton": 7266,
      "##lying": 7267,
      "tra": 7268,
      "trillion": 7269,
      "##uries": 7270,
      "prices": 7271,
      "chant": 7272,
      "chelsea": 7273,
      "shy": 7274,
      "shoe": 7275,
      "##usi": 7276,
      "##aky": 7277,
      "bean": 7278,
      "beard": 7279,
      "deem": 7280,
      "withdr": 7281,
      "manuel": 7282,
      "alarm": 7283,
      "##iform": 7284,
      "##acked": 7285,
      "healing": 7286,
      "uniform": 7287,
      "abroad": 7288,
      "spy": 7289,
      "spouse": 7290,
      "spons": 7291,
      "##iev": 7292,
      "seg": 7293,
      "seats": 7294,
      "##rive": 7295,
      "##uds": 7296,
      "ench": 7297,
      "plug": 7298,
      "placed": 7299,
      "leather": 7300,
      "##agger": 7301,
      "##astr": 7302,
      "doj": 7303,
      "grab": 7304,
      "grant": 7305,
      "brady": 7306,
      "##ucts": 7307,
      "ark": 7308,
      "scan": 7309,
      "scared": 7310,
      "##ector": 7311,
      "##epern": 7312,
      "carey": 7313,
      "marsh": 7314,
      "emo": 7315,
      "obesity": 7316,
      "hispan": 7317,
      "##pless": 7318,
      "##ressed": 7319,
      "resident": 7320,
      "aggress": 7321,
      "##ooked": 7322,
      "parts": 7323,
      "parli": 7324,
      "ackn": 7325,
      "colom": 7326,
      "column": 7327,
      "reck": 7328,
      "##raft": 7329,
      "guant": 7330,
      "##issa": 7331,
      "sched": 7332,
      "partners": 7333,
      "throat": 7334,
      "##itted": 7335,
      "quits": 7336,
      "evol": 7337,
      "dems": 7338,
      "strang": 7339,
      "remake": 7340,
      "##onda": 7341,
      "brexit": 7342,
      "starving": 7343,
      "slain": 7344,
      "swing": 7345,
      "##anced": 7346,
      "owns": 7347,
      "helm": 7348,
      "helicopter": 7349,
      "2012": 7350,
      "camps": 7351,
      "serena": 7352,
      "incom": 7353,
      "wrapped": 7354,
      "seniors": 7355,
      "depot": 7356,
      "debut": 7357,
      "barr": 7358,
      "weekly": 7359,
      "transl": 7360,
      "##ahm": 7361,
      "missouri": 7362,
      "christopher": 7363,
      "snack": 7364,
      "entry": 7365,
      "elabor": 7366,
      "carefully": 7367,
      "cleans": 7368,
      "skip": 7369,
      "attacking": 7370,
      "memories": 7371,
      "democrat": 7372,
      "steam": 7373,
      "genoc": 7374,
      "headline": 7375,
      "powered": 7376,
      "infrast": 7377,
      "breakthr": 7378,
      "colleagues": 7379,
      "revival": 7380,
      "reduc": 7381,
      "opened": 7382,
      "convinced": 7383,
      "russians": 7384,
      "excell": 7385,
      "irish": 7386,
      "curious": 7387,
      "greater": 7388,
      "signing": 7389,
      "businessman": 7390,
      "expans": 7391,
      "##lessly": 7392,
      "reads": 7393,
      "readers": 7394,
      "subc": 7395,
      "subject": 7396,
      "subscri": 7397,
      "filming": 7398,
      "##erved": 7399,
      "arrests": 7400,
      "standard": 7401,
      "models": 7402,
      "critical": 7403,
      "costumes": 7404,
      "##ikh": 7405,
      "sweep": 7406,
      "communic": 7407,
      "virt": 7408,
      "affected": 7409,
      "wildly": 7410,
      "##ception": 7411,
      "deny": 7412,
      "southern": 7413,
      "treated": 7414,
      "##shot": 7415,
      "cutting": 7416,
      "dinosaur": 7417,
      "closing": 7418,
      "mentions": 7419,
      "halfway": 7420,
      "sungl": 7421,
      "engaged": 7422,
      "penal": 7423,
      "successfully": 7424,
      "horrific": 7425,
      "loan": 7426,
      "staffer": 7427,
      "spots": 7428,
      "conversations": 7429,
      "preparing": 7430,
      "triple": 7431,
      "unclear": 7432,
      "designed": 7433,
      "turnout": 7434,
      "damon": 7435,
      "constant": 7436,
      "screw": 7437,
      "drunken": 7438,
      "risks": 7439,
      "expectations": 7440,
      "##going": 7441,
      "##ophy": 7442,
      "budd": 7443,
      "complicated": 7444,
      "cooler": 7445,
      "2008": 7446,
      "charlie": 7447,
      "charleston": 7448,
      "diam": 7449,
      "garage": 7450,
      "garner": 7451,
      "eaten": 7452,
      "lobster": 7453,
      "merger": 7454,
      "merkel": 7455,
      "require": 7456,
      "stunned": 7457,
      "absence": 7458,
      "replacement": 7459,
      "updated": 7460,
      "conservation": 7461,
      "rapidly": 7462,
      "beyonce": 7463,
      "beneath": 7464,
      "kellyanne": 7465,
      "crossing": 7466,
      "limits": 7467,
      "impressive": 7468,
      "cups": 7469,
      "development": 7470,
      "salesman": 7471,
      "jews": 7472,
      "ignores": 7473,
      "heavy": 7474,
      "obsession": 7475,
      "incredibly": 7476,
      "graduate": 7477,
      "corporation": 7478,
      "mixed": 7479,
      "weapon": 7480,
      "flags": 7481,
      "extreme": 7482,
      "confirmation": 7483,
      "ultra": 7484,
      "temper": 7485,
      "##rupted": 7486,
      "compete": 7487,
      "breathing": 7488,
      "gymn": 7489,
      "##ructure": 7490,
      "awkwardly": 7491,
      "includes": 7492,
      "sandwiches": 7493,
      "oval": 7494,
      "hanging": 7495,
      "laser": 7496,
      "transforms": 7497,
      "cosm": 7498,
      "mosqu": 7499,
      "surface": 7500,
      "involves": 7501,
      "charlotte": 7502,
      "accusations": 7503,
      "nominated": 7504,
      "mortgage": 7505,
      "motorcy": 7506,
      "certific": 7507,
      "houses": 7508,
      "utter": 7509,
      "champion": 7510,
      "weighs": 7511,
      "bachelorette": 7512,
      "spokes": 7513,
      "appeals": 7514,
      "symbol": 7515,
      "instructor": 7516,
      "accepting": 7517,
      "pumpkin": 7518,
      "separate": 7519,
      "lonely": 7520,
      "lynch": 7521,
      "patrol": 7522,
      "cdc": 7523,
      "swimming": 7524,
      "treasury": 7525,
      "tennis": 7526,
      "ridiculous": 7527,
      "folks": 7528,
      "hobby": 7529,
      "haven": 7530,
      "sacr": 7531,
      "restrictions": 7532,
      "entrepreneur": 7533,
      "café": 7534,
      "abusive": 7535,
      "deportation": 7536,
      "midterms": 7537,
      "dreading": 7538,
      "clooney": 7539,
      "revenge": 7540,
      "kristen": 7541,
      "911": 7542,
      "pocket": 7543,
      "enforce": 7544,
      "alaska": 7545,
      "script": 7546,
      "overtur": 7547,
      "vulnerable": 7548,
      "kaepern": 7549,
      "##woman": 7550,
      "specifically": 7551,
      "bacteria": 7552,
      "daca": 7553,
      "nonsense": 7554,
      "rupaul": 7555,
      "aisle": 7556,
      "rallies": 7557,
      "rihanna": 7558,
      "thompson": 7559,
      "parliament": 7560,
      "acknow": 7561,
      "infrastructure": 7562,
      "breakthrough": 7563,
      "sunglasses": 7564,
      "kaepernick": 7565,
      "89": 7566,
      "93": 7567,
      "96": 7568,
      "bum": 7569,
      "bun": 7570,
      "bite": 7571,
      "bail": 7572,
      "binge": 7573,
      "cz": 7574,
      "cate": 7575,
      "cant": 7576,
      "cob": 7577,
      "cave": 7578,
      "cage": 7579,
      "cure": 7580,
      "cory": 7581,
      "dw": 7582,
      "dj": 7583,
      "ded": 7584,
      "dub": 7585,
      "dates": 7586,
      "dude": 7587,
      "danny": 7588,
      "fell": 7589,
      "faster": 7590,
      "fills": 7591,
      "gut": 7592,
      "gain": 7593,
      "gary": 7594,
      "gains": 7595,
      "hott": 7596,
      "honey": 7597,
      "icy": 7598,
      "jane": 7599,
      "jedi": 7600,
      "kits": 7601,
      "kicks": 7602,
      "ling": 7603,
      "liv": 7604,
      "lame": 7605,
      "lago": 7606,
      "lyr": 7607,
      "lisa": 7608,
      "ms": 7609,
      "mit": 7610,
      "merc": 7611,
      "maps": 7612,
      "nate": 7613,
      "nasty": 7614,
      "nixon": 7615,
      "odd": 7616,
      "pie": 7617,
      "pud": 7618,
      "pine": 7619,
      "pep": 7620,
      "panc": 7621,
      "pier": 7622,
      "qatar": 7623,
      "rou": 7624,
      "rio": 7625,
      "rural": 7626,
      "rabb": 7627,
      "sir": 7628,
      "tu": 7629,
      "tam": 7630,
      "tie": 7631,
      "tant": 7632,
      "tub": 7633,
      "tail": 7634,
      "um": 7635,
      "vin": 7636,
      "vandal": 7637,
      "vlad": 7638,
      "wack": 7639,
      "wiz": 7640,
      "welf": 7641,
      "waving": 7642,
      "wwi": 7643,
      "yel": 7644,
      "##nd": 7645,
      "##noon": 7646,
      "##iary": 7647,
      "##ga": 7648,
      "##gart": 7649,
      "##hand": 7650,
      "##lie": 7651,
      "##cover": 7652,
      "##eo": 7653,
      "##pack": 7654,
      "##pse": 7655,
      "##rent": 7656,
      "##vs": 7657,
      "##vy": 7658,
      "##vada": 7659,
      "##dog": 7660,
      "##dling": 7661,
      "##bed": 7662,
      "##bia": 7663,
      "##mob": 7664,
      "##marks": 7665,
      "##word": 7666,
      "##face": 7667,
      "##0s": 7668,
      "##zos": 7669,
      "##inity": 7670,
      "##initely": 7671,
      "##anic": 7672,
      "##onic": 7673,
      "##arant": 7674,
      "topp": 7675,
      "##ala": 7676,
      "##alo": 7677,
      "##alous": 7678,
      "##itan": 7679,
      "##itute": 7680,
      "##itarian": 7681,
      "##isk": 7682,
      "inch": 7683,
      "inher": 7684,
      "##icap": 7685,
      "reass": 7686,
      "stal": 7687,
      "stab": 7688,
      "styl": 7689,
      "##otle": 7690,
      "forec": 7691,
      "##oles": 7692,
      "##idal": 7693,
      "anist": 7694,
      "trig": 7695,
      "trends": 7696,
      "whist": 7697,
      "whites": 7698,
      "nevada": 7699,
      "prie": 7700,
      "chan": 7701,
      "chat": 7702,
      "chop": 7703,
      "chimp": 7704,
      "chili": 7705,
      "##imir": 7706,
      "shov": 7707,
      "shelf": 7708,
      "##chat": 7709,
      "##child": 7710,
      "##chool": 7711,
      "bezos": 7712,
      "##ithm": 7713,
      "##estone": 7714,
      "##think": 7715,
      "##unting": 7716,
      "conway": 7717,
      "##ulated": 7718,
      "management": 7719,
      "algor": 7720,
      "##ivals": 7721,
      "unus": 7722,
      "##abis": 7723,
      "spark": 7724,
      "spills": 7725,
      "comics": 7726,
      "##allow": 7727,
      "sem": 7728,
      "seasons": 7729,
      "seven": 7730,
      "semit": 7731,
      "##emor": 7732,
      "##emption": 7733,
      "clown": 7734,
      "clue": 7735,
      "clothing": 7736,
      "wors": 7737,
      "sud": 7738,
      "sued": 7739,
      "suck": 7740,
      "##rio": 7741,
      "enth": 7742,
      "leak": 7743,
      "crushing": 7744,
      "##agers": 7745,
      "grav": 7746,
      "graff": 7747,
      "grotes": 7748,
      "afternoon": 7749,
      "notes": 7750,
      "notre": 7751,
      "##ghazi": 7752,
      "##izon": 7753,
      "intim": 7754,
      "##oven": 7755,
      "allerg": 7756,
      "scul": 7757,
      "##ogy": 7758,
      "donates": 7759,
      "donated": 7760,
      "donuts": 7761,
      "teases": 7762,
      "caring": 7763,
      "mario": 7764,
      "margar": 7765,
      "overl": 7766,
      "overd": 7767,
      "overcome": 7768,
      "obit": 7769,
      "lib": 7770,
      "liqu": 7771,
      "libert": 7772,
      "##play": 7773,
      "##iano": 7774,
      "agric": 7775,
      "parad": 7776,
      "acts": 7777,
      "pee": 7778,
      "pepper": 7779,
      "prejud": 7780,
      "nations": 7781,
      "202": 7782,
      "flights": 7783,
      "##ishop": 7784,
      "recru": 7785,
      "recording": 7786,
      "obamas": 7787,
      "presidents": 7788,
      "everyday": 7789,
      "olds": 7790,
      "oldest": 7791,
      "feeding": 7792,
      "active": 7793,
      "joint": 7794,
      "pervert": 7795,
      "compared": 7796,
      "##onscious": 7797,
      "##actor": 7798,
      "apps": 7799,
      "soap": 7800,
      "brett": 7801,
      "interests": 7802,
      "slavery": 7803,
      "inspect": 7804,
      "inspire": 7805,
      "accur": 7806,
      "accounts": 7807,
      "decre": 7808,
      "commemor": 7809,
      "smile": 7810,
      "##auer": 7811,
      "blacks": 7812,
      "anywhere": 7813,
      "writes": 7814,
      "highest": 7815,
      "imperson": 7816,
      "statements": 7817,
      "depend": 7818,
      "depart": 7819,
      "medica": 7820,
      "confront": 7821,
      "##rete": 7822,
      "harsh": 7823,
      "barrel": 7824,
      "10th": 7825,
      "discontin": 7826,
      "transpar": 7827,
      "supports": 7828,
      "edwards": 7829,
      "##atti": 7830,
      "##ertain": 7831,
      "legit": 7832,
      "burr": 7833,
      "buried": 7834,
      "passion": 7835,
      "gene": 7836,
      "genetic": 7837,
      "walmart": 7838,
      "walgre": 7839,
      "postp": 7840,
      "explaining": 7841,
      "belief": 7842,
      "redef": 7843,
      "delta": 7844,
      "detain": 7845,
      "jealous": 7846,
      "convince": 7847,
      "roast": 7848,
      "russell": 7849,
      "caps": 7850,
      "hotels": 7851,
      "cheaper": 7852,
      "corpse": 7853,
      "region": 7854,
      "signature": 7855,
      "directors": 7856,
      "exposes": 7857,
      "rais": 7858,
      "promote": 7859,
      "supremacy": 7860,
      "pretend": 7861,
      "reader": 7862,
      "subst": 7863,
      "creators": 7864,
      "device": 7865,
      "publicist": 7866,
      "booker": 7867,
      "sums": 7868,
      "salt": 7869,
      "salv": 7870,
      "salmon": 7871,
      "slept": 7872,
      "murray": 7873,
      "murphy": 7874,
      "judges": 7875,
      "standards": 7876,
      "protesting": 7877,
      "rocket": 7878,
      "preview": 7879,
      "silicon": 7880,
      "sweating": 7881,
      "tested": 7882,
      "##rooms": 7883,
      "panicking": 7884,
      "investigate": 7885,
      "checking": 7886,
      "sitcom": 7887,
      "feds": 7888,
      "goldman": 7889,
      "larger": 7890,
      "prisoner": 7891,
      "divided": 7892,
      "proper": 7893,
      "ruining": 7894,
      "increased": 7895,
      "balls": 7896,
      "bombs": 7897,
      "fucked": 7898,
      "historians": 7899,
      "systems": 7900,
      "illustr": 7901,
      "label": 7902,
      "easily": 7903,
      "##attered": 7904,
      "visitors": 7905,
      "uncertain": 7906,
      "poses": 7907,
      "philip": 7908,
      "benghazi": 7909,
      "bowie": 7910,
      "produce": 7911,
      "madness": 7912,
      "disappo": 7913,
      "picked": 7914,
      "feared": 7915,
      "motion": 7916,
      "reboot": 7917,
      "autop": 7918,
      "battles": 7919,
      "addresses": 7920,
      "lifestyle": 7921,
      "forgive": 7922,
      "requests": 7923,
      "resignation": 7924,
      "package": 7925,
      "distance": 7926,
      "purchasing": 7927,
      "entering": 7928,
      "floating": 7929,
      "springsteen": 7930,
      "casino": 7931,
      "shirtless": 7932,
      "bias": 7933,
      "microw": 7934,
      "##resp": 7935,
      "balance": 7936,
      "predator": 7937,
      "jewel": 7938,
      "cancels": 7939,
      "liberals": 7940,
      "strongly": 7941,
      "cookie": 7942,
      "producer": 7943,
      "##offs": 7944,
      "finished": 7945,
      "##load": 7946,
      "troubled": 7947,
      "citizenship": 7948,
      "kicked": 7949,
      "##laim": 7950,
      "reunited": 7951,
      "scratch": 7952,
      "pulitzer": 7953,
      "woody": 7954,
      "removed": 7955,
      "competition": 7956,
      "##burger": 7957,
      "iii": 7958,
      "attraction": 7959,
      "leslie": 7960,
      "nickn": 7961,
      "rushes": 7962,
      "opinions": 7963,
      "ratings": 7964,
      "legendary": 7965,
      "recovering": 7966,
      "barbara": 7967,
      "fulf": 7968,
      "measure": 7969,
      "accusers": 7970,
      "athe": 7971,
      "embrace": 7972,
      "editorial": 7973,
      "element": 7974,
      "matthew": 7975,
      "combat": 7976,
      "displays": 7977,
      "emerge": 7978,
      "occup": 7979,
      "flooding": 7980,
      "sympt": 7981,
      "luke": 7982,
      "astronaut": 7983,
      "unpop": 7984,
      "wealthy": 7985,
      "streaming": 7986,
      "humiliating": 7987,
      "promotion": 7988,
      "espn": 7989,
      "bleeding": 7990,
      "skeleton": 7991,
      "associ": 7992,
      "cameron": 7993,
      "mainstream": 7994,
      "ingred": 7995,
      "enroll": 7996,
      "crawling": 7997,
      "myths": 7998,
      "volunteer": 7999,
      "purpose": 8000,
      "wreck": 8001,
      "chipotle": 8002,
      "opponent": 8003,
      "punishment": 8004,
      "dolphins": 8005,
      "collapses": 8006,
      "athletes": 8007,
      "bucket": 8008,
      "libya": 8009,
      "permission": 8010,
      "gratitude": 8011,
      "mlb": 8012,
      "pardon": 8013,
      "selena": 8014,
      "sequel": 8015,
      "narrowly": 8016,
      "fortune": 8017,
      "impeach": 8018,
      "superhero": 8019,
      "scholarship": 8020,
      "farewell": 8021,
      "erupts": 8022,
      "wisdom": 8023,
      "unknown": 8024,
      "hashtag": 8025,
      "accomplish": 8026,
      "deceased": 8027,
      "swimsuit": 8028,
      "concludes": 8029,
      "nonprofit": 8030,
      "procedure": 8031,
      "kindergart": 8032,
      "deemed": 8033,
      "genocide": 8034,
      "lyrics": 8035,
      "vladimir": 8036,
      "welfare": 8037,
      "aniston": 8038,
      "whistle": 8039,
      "priebus": 8040,
      "algorithm": 8041,
      "agriculture": 8042,
      "medicaid": 8043,
      "29": 8044,
      "95": 8045,
      "92": 8046,
      "aaron": 8047,
      "ba": 8048,
      "bure": 8049,
      "bitter": 8050,
      "booth": 8051,
      "cul": 8052,
      "cort": 8053,
      "cri": 8054,
      "cites": 8055,
      "dign": 8056,
      "dys": 8057,
      "duch": 8058,
      "dirt": 8059,
      "daring": 8060,
      "dustin": 8061,
      "denny": 8062,
      "dhs": 8063,
      "dicap": 8064,
      "ecl": 8065,
      "file": 8066,
      "foss": 8067,
      "fault": 8068,
      "foster": 8069,
      "gm": 8070,
      "gest": 8071,
      "gif": 8072,
      "gob": 8073,
      "gav": 8074,
      "gian": 8075,
      "gently": 8076,
      "hul": 8077,
      "hart": 8078,
      "hint": 8079,
      "hitch": 8080,
      "hired": 8081,
      "hacks": 8082,
      "hanks": 8083,
      "jar": 8084,
      "jul": 8085,
      "julian": 8086,
      "kob": 8087,
      "kour": 8088,
      "kong": 8089,
      "kara": 8090,
      "ly": 8091,
      "mun": 8092,
      "mine": 8093,
      "mama": 8094,
      "maine": 8095,
      "mocks": 8096,
      "maker": 8097,
      "masc": 8098,
      "nin": 8099,
      "nash": 8100,
      "naz": 8101,
      "nik": 8102,
      "oun": 8103,
      "pf": 8104,
      "por": 8105,
      "pir": 8106,
      "puss": 8107,
      "rig": 8108,
      "roo": 8109,
      "rail": 8110,
      "rib": 8111,
      "ruth": 8112,
      "sx": 8113,
      "sams": 8114,
      "sony": 8115,
      "sears": 8116,
      "sides": 8117,
      "sisters": 8118,
      "sikh": 8119,
      "tight": 8120,
      "tina": 8121,
      "taps": 8122,
      "tai": 8123,
      "tension": 8124,
      "tsar": 8125,
      "vig": 8126,
      "vest": 8127,
      "voy": 8128,
      "wer": 8129,
      "wash": 8130,
      "witch": 8131,
      "wiel": 8132,
      "washed": 8133,
      "wounded": 8134,
      "xbox": 8135,
      "yard": 8136,
      "zin": 8137,
      "##sing": 8138,
      "##sid": 8139,
      "##iator": 8140,
      "##got": 8141,
      "##hd": 8142,
      "##hear": 8143,
      "##hem": 8144,
      "##yer": 8145,
      "##cr": 8146,
      "##col": 8147,
      "##oked": 8148,
      "##page": 8149,
      "##pool": 8150,
      "##poon": 8151,
      "##rd": 8152,
      "##roll": 8153,
      "##ruit": 8154,
      "##bal": 8155,
      "##bit": 8156,
      "##mn": 8157,
      "##math": 8158,
      "##mons": 8159,
      "##west": 8160,
      "##wise": 8161,
      "##front": 8162,
      "##ée": 8163,
      "##inating": 8164,
      "##aning": 8165,
      "##eno": 8166,
      "##atable": 8167,
      "##arity": 8168,
      "##arium": 8169,
      "threw": 8170,
      "toe": 8171,
      "toast": 8172,
      "##edd": 8173,
      "##itage": 8174,
      "often": 8175,
      "##omic": 8176,
      "##reet": 8177,
      "##asp": 8178,
      "ree": 8179,
      "##etr": 8180,
      "##etts": 8181,
      "##etoric": 8182,
      "##acc": 8183,
      "##acp": 8184,
      "##enty": 8185,
      "forb": 8186,
      "forcing": 8187,
      "##storm": 8188,
      "##aman": 8189,
      "##amation": 8190,
      "ansar": 8191,
      "trap": 8192,
      "trips": 8193,
      "tricks": 8194,
      "##utation": 8195,
      "neo": 8196,
      "neph": 8197,
      "prior": 8198,
      "chanc": 8199,
      "chilling": 8200,
      "shakes": 8201,
      "shaken": 8202,
      "shelves": 8203,
      "shifts": 8204,
      "##usetts": 8205,
      "beings": 8206,
      "dean": 8207,
      "dept": 8208,
      "frog": 8209,
      "##essee": 8210,
      "##unts": 8211,
      "##under": 8212,
      "andy": 8213,
      "conan": 8214,
      "manh": 8215,
      "alton": 8216,
      "alph": 8217,
      "alike": 8218,
      "##ocates": 8219,
      "##ockey": 8220,
      "hems": 8221,
      "unn": 8222,
      "unic": 8223,
      "unle": 8224,
      "unear": 8225,
      "unite": 8226,
      "unions": 8227,
      "unhing": 8228,
      "unhe": 8229,
      "##abet": 8230,
      "sevent": 8231,
      "##ounter": 8232,
      "reputation": 8233,
      "item": 8234,
      "outdo": 8235,
      "plumm": 8236,
      "crunch": 8237,
      "crude": 8238,
      "grim": 8239,
      "groping": 8240,
      "aftermath": 8241,
      "bron": 8242,
      "bros": 8243,
      "brace": 8244,
      "brows": 8245,
      "brush": 8246,
      "braces": 8247,
      "offended": 8248,
      "offered": 8249,
      "##ellor": 8250,
      "adults": 8251,
      "blues": 8252,
      "blinds": 8253,
      "blocking": 8254,
      "arpa": 8255,
      "##izers": 8256,
      "##ardino": 8257,
      "drilling": 8258,
      "##assion": 8259,
      "##ppo": 8260,
      "scare": 8261,
      "justify": 8262,
      "donut": 8263,
      "##oyd": 8264,
      "teaser": 8265,
      "finance": 8266,
      "whatso": 8267,
      "carc": 8268,
      "eman": 8269,
      "##enses": 8270,
      "##enspan": 8271,
      "obl": 8272,
      "liver": 8273,
      "reporting": 8274,
      "resur": 8275,
      "resour": 8276,
      "ages": 8277,
      "paraly": 8278,
      "usher": 8279,
      "usda": 8280,
      "aclu": 8281,
      "peers": 8282,
      "pepp": 8283,
      "precious": 8284,
      "##achusetts": 8285,
      "hern": 8286,
      "heritage": 8287,
      "##asha": 8288,
      "studies": 8289,
      "recap": 8290,
      "wareh": 8291,
      "attending": 8292,
      "attached": 8293,
      "preserve": 8294,
      "backpack": 8295,
      "knock": 8296,
      "knee": 8297,
      "##inda": 8298,
      "##appropri": 8299,
      "showed": 8300,
      "compreh": 8301,
      "myself": 8302,
      "##actic": 8303,
      "annually": 8304,
      "strict": 8305,
      "breach": 8306,
      "interp": 8307,
      "interested": 8308,
      "##quin": 8309,
      "decline": 8310,
      "decided": 8311,
      "decisions": 8312,
      "swed": 8313,
      "holder": 8314,
      "hollow": 8315,
      "##brush": 8316,
      "##ancing": 8317,
      "smoke": 8318,
      "descri": 8319,
      "talent": 8320,
      "minds": 8321,
      "monolog": 8322,
      "monopol": 8323,
      "highlight": 8324,
      "glam": 8325,
      "deficit": 8326,
      "retreat": 8327,
      "consult": 8328,
      "betray": 8329,
      "turtle": 8330,
      "indef": 8331,
      "underst": 8332,
      "undergo": 8333,
      "banning": 8334,
      "courts": 8335,
      "harris": 8336,
      "harrowing": 8337,
      "protester": 8338,
      "barrier": 8339,
      "invited": 8340,
      "terms": 8341,
      "beck": 8342,
      "transm": 8343,
      "transf": 8344,
      "eddie": 8345,
      "##rency": 8346,
      "##olded": 8347,
      "ended": 8348,
      "##inson": 8349,
      "clever": 8350,
      "filib": 8351,
      "controll": 8352,
      "visual": 8353,
      "stev": 8354,
      "passage": 8355,
      "powerball": 8356,
      "sandy": 8357,
      "otherwise": 8358,
      "wallet": 8359,
      "explore": 8360,
      "revel": 8361,
      "redd": 8362,
      "redemption": 8363,
      "anticip": 8364,
      "morgan": 8365,
      "morris": 8366,
      "grande": 8367,
      "airstri": 8368,
      "fireworks": 8369,
      "jeopard": 8370,
      "conven": 8371,
      "badass": 8372,
      "laund": 8373,
      "curtain": 8374,
      "waits": 8375,
      "classmates": 8376,
      "corresp": 8377,
      "advance": 8378,
      "maid": 8379,
      "copy": 8380,
      "behold": 8381,
      "listing": 8382,
      "introd": 8383,
      "sett": 8384,
      "learns": 8385,
      "direction": 8386,
      "massachusetts": 8387,
      "##utional": 8388,
      "rae": 8389,
      "pollution": 8390,
      "yorkers": 8391,
      "addict": 8392,
      "roommates": 8393,
      "extr": 8394,
      "extended": 8395,
      "heartwar": 8396,
      "fema": 8397,
      "##aneously": 8398,
      "suburb": 8399,
      "subsid": 8400,
      "fallen": 8401,
      "##umbling": 8402,
      "greenspan": 8403,
      "returned": 8404,
      "investment": 8405,
      "solutions": 8406,
      "races": 8407,
      "serving": 8408,
      "creation": 8409,
      "concrete": 8410,
      "metoo": 8411,
      "rocky": 8412,
      "sweater": 8413,
      "testify": 8414,
      "pastor": 8415,
      "bernardino": 8416,
      "romantic": 8417,
      "panther": 8418,
      "##ields": 8419,
      "affect": 8420,
      "checked": 8421,
      "wildfires": 8422,
      "huffington": 8423,
      "kingdom": 8424,
      "diesel": 8425,
      "pleased": 8426,
      "tournament": 8427,
      "treating": 8428,
      "##shit": 8429,
      "survival": 8430,
      "closes": 8431,
      "militants": 8432,
      "restaurants": 8433,
      "protection": 8434,
      "safely": 8435,
      "globe": 8436,
      "performing": 8437,
      "dresses": 8438,
      "fewer": 8439,
      "activity": 8440,
      "illusion": 8441,
      "trees": 8442,
      "receiving": 8443,
      "jacket": 8444,
      "loans": 8445,
      "satan": 8446,
      "interviews": 8447,
      "puzz": 8448,
      "possibly": 8449,
      "archit": 8450,
      "martial": 8451,
      "cardi": 8452,
      "cardboard": 8453,
      "hamas": 8454,
      "excitedly": 8455,
      "madonna": 8456,
      "sugar": 8457,
      "castro": 8458,
      "melissa": 8459,
      "landing": 8460,
      "faced": 8461,
      "privile": 8462,
      "auto": 8463,
      "automatic": 8464,
      "mattress": 8465,
      "lifts": 8466,
      "sidewalk": 8467,
      "injuries": 8468,
      "##ribly": 8469,
      "garland": 8470,
      "stuns": 8471,
      "reforms": 8472,
      "packed": 8473,
      "wasting": 8474,
      "theresa": 8475,
      "encounter": 8476,
      "cuban": 8477,
      "distant": 8478,
      "limb": 8479,
      "squir": 8480,
      "proudly": 8481,
      "machines": 8482,
      "savings": 8483,
      "toddlers": 8484,
      "250": 8485,
      "angela": 8486,
      "develops": 8487,
      "saudis": 8488,
      "bobby": 8489,
      "types": 8490,
      "focused": 8491,
      "ignoring": 8492,
      "accepted": 8493,
      "approved": 8494,
      "faa": 8495,
      "corporations": 8496,
      "targeting": 8497,
      "productive": 8498,
      "ariana": 8499,
      "operator": 8500,
      "kenya": 8501,
      "##laims": 8502,
      "souls": 8503,
      "wooden": 8504,
      "removing": 8505,
      "acquaint": 8506,
      "nominees": 8507,
      "fishing": 8508,
      "rowling": 8509,
      "anxious": 8510,
      "##naev": 8511,
      "criminals": 8512,
      "hyd": 8513,
      "essent": 8514,
      "essential": 8515,
      "rhino": 8516,
      "rhetoric": 8517,
      "rainbow": 8518,
      "mosque": 8519,
      "podium": 8520,
      "batman": 8521,
      "omin": 8522,
      "prayer": 8523,
      "crypt": 8524,
      "measles": 8525,
      "accuser": 8526,
      "millennial": 8527,
      "gallery": 8528,
      "rumors": 8529,
      "rumsf": 8530,
      "embracing": 8531,
      "definition": 8532,
      "portraits": 8533,
      "kissing": 8534,
      "presentation": 8535,
      "equally": 8536,
      "logo": 8537,
      "pipe": 8538,
      "##guard": 8539,
      "stamps": 8540,
      "solemn": 8541,
      "referred": 8542,
      "considers": 8543,
      "alcoholic": 8544,
      "container": 8545,
      "boomers": 8546,
      "rodr": 8547,
      "obvious": 8548,
      "builds": 8549,
      "advertis": 8550,
      "degree": 8551,
      "dismiss": 8552,
      "sneaks": 8553,
      "homosexuality": 8554,
      "loyalty": 8555,
      "aleppo": 8556,
      "nunes": 8557,
      "tennessee": 8558,
      "emmys": 8559,
      "earlier": 8560,
      "bursts": 8561,
      "scenes": 8562,
      "victoria": 8563,
      "opponents": 8564,
      "sanctions": 8565,
      "sanctuary": 8566,
      "dolphin": 8567,
      "doritos": 8568,
      "paddle": 8569,
      "diplom": 8570,
      "sustainable": 8571,
      "selection": 8572,
      "lewis": 8573,
      "bloomberg": 8574,
      "mariah": 8575,
      "ceasefire": 8576,
      "wrestling": 8577,
      "manufactur": 8578,
      "naacp": 8579,
      "disclose": 8580,
      "moderator": 8581,
      "establishment": 8582,
      "overwhelming": 8583,
      "aziz": 8584,
      "hudson": 8585,
      "sabot": 8586,
      "##umption": 8587,
      "##keeper": 8588,
      "supremacist": 8589,
      "solidarity": 8590,
      "bartender": 8591,
      "pompeo": 8592,
      "vagina": 8593,
      "hairstyle": 8594,
      "mindfulness": 8595,
      "bipart": 8596,
      "bubble": 8597,
      "mtv": 8598,
      "##archy": 8599,
      "consequences": 8600,
      "dramatic": 8601,
      "nutrition": 8602,
      "gentrification": 8603,
      "dynam": 8604,
      "tensions": 8605,
      "marathon": 8606,
      "evangelical": 8607,
      "caucus": 8608,
      "satellite": 8609,
      "firefighters": 8610,
      "august": 8611,
      "hedge": 8612,
      "sachs": 8613,
      "arkansas": 8614,
      "elaborate": 8615,
      "gymnast": 8616,
      "motorcycle": 8617,
      "enforcement": 8618,
      "enthusi": 8619,
      "graffiti": 8620,
      "grotesque": 8621,
      "obituary": 8622,
      "walgreens": 8623,
      "unpopular": 8624,
      "dicaprio": 8625,
      "karaoke": 8626,
      "pfizer": 8627,
      "sxsw": 8628,
      "tsarnaev": 8629,
      "wielding": 8630,
      "ansari": 8631,
      "nephew": 8632,
      "chancellor": 8633,
      "hemsworth": 8634,
      "unhinged": 8635,
      "seventh": 8636,
      "arpaio": 8637,
      "whatsoever": 8638,
      "jeopardy": 8639,
      "correspond": 8640,
      "heartwarming": 8641,
      "rumsfeld": 8642,
      "33": 8643,
      "36": 8644,
      "47": 8645,
      "4th": 8646,
      "ai": 8647,
      "ay": 8648,
      "aol": 8649,
      "auction": 8650,
      "ailes": 8651,
      "bats": 8652,
      "batter": 8653,
      "bund": 8654,
      "bucks": 8655,
      "cel": 8656,
      "cot": 8657,
      "citing": 8658,
      "caut": 8659,
      "coul": 8660,
      "cvs": 8661,
      "da": 8662,
      "dal": 8663,
      "dust": 8664,
      "dare": 8665,
      "dips": 8666,
      "dunk": 8667,
      "dna": 8668,
      "eb": 8669,
      "ease": 8670,
      "eco": 8671,
      "este": 8672,
      "fog": 8673,
      "gate": 8674,
      "gays": 8675,
      "gome": 8676,
      "gown": 8677,
      "gord": 8678,
      "hen": 8679,
      "hood": 8680,
      "hail": 8681,
      "hong": 8682,
      "horn": 8683,
      "hicks": 8684,
      "ire": 8685,
      "jur": 8686,
      "jugg": 8687,
      "jih": 8688,
      "kl": 8689,
      "ko": 8690,
      "kam": 8691,
      "ketch": 8692,
      "lit": 8693,
      "lope": 8694,
      "lung": 8695,
      "lemon": 8696,
      "lauer": 8697,
      "mocked": 8698,
      "mta": 8699,
      "ni": 8700,
      "nod": 8701,
      "nass": 8702,
      "nine": 8703,
      "nca": 8704,
      "pow": 8705,
      "pear": 8706,
      "patch": 8707,
      "pug": 8708,
      "pix": 8709,
      "pbs": 8710,
      "peps": 8711,
      "rab": 8712,
      "ripping": 8713,
      "sed": 8714,
      "sake": 8715,
      "sink": 8716,
      "session": 8717,
      "ts": 8718,
      "tel": 8719,
      "tong": 8720,
      "taped": 8721,
      "vit": 8722,
      "vast": 8723,
      "wist": 8724,
      "waters": 8725,
      "yos": 8726,
      "yach": 8727,
      "yelling": 8728,
      "zimmer": 8729,
      "##nest": 8730,
      "##sons": 8731,
      "##iy": 8732,
      "##iate": 8733,
      "##gal": 8734,
      "##tney": 8735,
      "##tica": 8736,
      "##trow": 8737,
      "##lord": 8738,
      "##lift": 8739,
      "##uers": 8740,
      "##uits": 8741,
      "##car": 8742,
      "##corn": 8743,
      "##cony": 8744,
      "##pay": 8745,
      "##pass": 8746,
      "##press": 8747,
      "##rat": 8748,
      "##rot": 8749,
      "##run": 8750,
      "##bull": 8751,
      "##mine": 8752,
      "##master": 8753,
      "##fk": 8754,
      "##field": 8755,
      "##felt": 8756,
      "##ja": 8757,
      "##inent": 8758,
      "##inction": 8759,
      "##oned": 8760,
      "##orum": 8761,
      "##orius": 8762,
      "##encer": 8763,
      "##arn": 8764,
      "##aration": 8765,
      "##arms": 8766,
      "thai": 8767,
      "toler": 8768,
      "##ede": 8769,
      "##itates": 8770,
      "##itals": 8771,
      "##itement": 8772,
      "##isible": 8773,
      "inches": 8774,
      "##icut": 8775,
      "##icial": 8776,
      "##icals": 8777,
      "##icles": 8778,
      "##ilia": 8779,
      "reese": 8780,
      "reince": 8781,
      "reward": 8782,
      "reception": 8783,
      "##lem": 8784,
      "##leading": 8785,
      "##eling": 8786,
      "stor": 8787,
      "stap": 8788,
      "stem": 8789,
      "stumbles": 8790,
      "##eton": 8791,
      "forms": 8792,
      "##stop": 8793,
      "##store": 8794,
      "##olds": 8795,
      "##amo": 8796,
      "ank": 8797,
      "trading": 8798,
      "traced": 8799,
      "whales": 8800,
      "##urally": 8801,
      "##umin": 8802,
      "neither": 8803,
      "##irth": 8804,
      "praying": 8805,
      "##ecue": 8806,
      "##ecided": 8807,
      "chess": 8808,
      "chest": 8809,
      "##illusion": 8810,
      "##iments": 8811,
      "shave": 8812,
      "shock": 8813,
      "shades": 8814,
      "shouts": 8815,
      "beij": 8816,
      "deer": 8817,
      "deleg": 8818,
      "fright": 8819,
      "frag": 8820,
      "fries": 8821,
      "frost": 8822,
      "frame": 8823,
      "andre": 8824,
      "ate": 8825,
      "##ighth": 8826,
      "##osy": 8827,
      "trumpcare": 8828,
      "manning": 8829,
      "##ifice": 8830,
      "##ifting": 8831,
      "asia": 8832,
      "aspir": 8833,
      "asyl": 8834,
      "heal": 8835,
      "height": 8836,
      "unin": 8837,
      "unity": 8838,
      "unique": 8839,
      "##usters": 8840,
      "##ieg": 8841,
      "seed": 8842,
      "seize": 8843,
      "##ounces": 8844,
      "clad": 8845,
      "clap": 8846,
      "cliff": 8847,
      "repair": 8848,
      "amber": 8849,
      "##udge": 8850,
      "areas": 8851,
      "outfit": 8852,
      "outfits": 8853,
      "upgr": 8854,
      "upside": 8855,
      "##oductive": 8856,
      "##anto": 8857,
      "crap": 8858,
      "craf": 8859,
      "grants": 8860,
      "griff": 8861,
      "bra": 8862,
      "bryan": 8863,
      "brooks": 8864,
      "bless": 8865,
      "bliss": 8866,
      "blaming": 8867,
      "arby": 8868,
      "intens": 8869,
      "intact": 8870,
      "intimate": 8871,
      "##pped": 8872,
      "alliance": 8873,
      "sci": 8874,
      "scor": 8875,
      "scale": 8876,
      "##ogen": 8877,
      "justices": 8878,
      "##oodle": 8879,
      "teams": 8880,
      "disastr": 8881,
      "disillusion": 8882,
      "cares": 8883,
      "carrie": 8884,
      "marc": 8885,
      "overnight": 8886,
      "obsc": 8887,
      "obstr": 8888,
      "liar": 8889,
      "everest": 8890,
      "result": 8891,
      "##ookie": 8892,
      "2000": 8893,
      "##ache": 8894,
      "colon": 8895,
      "columb": 8896,
      "flop": 8897,
      "flaw": 8898,
      "recyc": 8899,
      "reconc": 8900,
      "recruit": 8901,
      "##raham": 8902,
      "phar": 8903,
      "preschool": 8904,
      "backing": 8905,
      "backst": 8906,
      "knight": 8907,
      "knocked": 8908,
      "knocking": 8909,
      "joining": 8910,
      "perman": 8911,
      "comprom": 8912,
      "##anged": 8913,
      "household": 8914,
      "appo": 8915,
      "apply": 8916,
      "approve": 8917,
      "##ormon": 8918,
      "demol": 8919,
      "awa": 8920,
      "downpl": 8921,
      "interrog": 8922,
      "interrupted": 8923,
      "##lected": 8924,
      "realistic": 8925,
      "slur": 8926,
      "slave": 8927,
      "slope": 8928,
      "slaugh": 8929,
      "plants": 8930,
      "planner": 8931,
      "assange": 8932,
      "assured": 8933,
      "assume": 8934,
      "##quir": 8935,
      "accomm": 8936,
      "swiss": 8937,
      "holmes": 8938,
      "desire": 8939,
      "killings": 8940,
      "owned": 8941,
      "helpless": 8942,
      "refers": 8943,
      "reference": 8944,
      "reflects": 8945,
      "winds": 8946,
      "wayne": 8947,
      "reluct": 8948,
      "cole": 8949,
      "coaster": 8950,
      "glowing": 8951,
      "charter": 8952,
      "function": 8953,
      "medal": 8954,
      "retires": 8955,
      "consumption": 8956,
      "confron": 8957,
      "confusing": 8958,
      "electoral": 8959,
      "undercover": 8960,
      "deadl": 8961,
      "invites": 8962,
      "invitation": 8963,
      "pole": 8964,
      "poem": 8965,
      "runway": 8966,
      "lethal": 8967,
      "##ahoo": 8968,
      "humor": 8969,
      "supply": 8970,
      "christine": 8971,
      "christians": 8972,
      "editors": 8973,
      "happiest": 8974,
      "snaps": 8975,
      "campaigns": 8976,
      "clears": 8977,
      "locks": 8978,
      "locations": 8979,
      "filth": 8980,
      "skate": 8981,
      "##erte": 8982,
      "celebs": 8983,
      "##cedes": 8984,
      "steel": 8985,
      "nightcl": 8986,
      "burden": 8987,
      "genu": 8988,
      "releasing": 8989,
      "headphones": 8990,
      "infl": 8991,
      "info": 8992,
      "breakdown": 8993,
      "posting": 8994,
      "celebration": 8995,
      "explor": 8996,
      "explores": 8997,
      "explained": 8998,
      "milo": 8999,
      "revis": 9000,
      "babys": 9001,
      "antib": 9002,
      "moron": 9003,
      "towns": 9004,
      "detention": 9005,
      "jean": 9006,
      "jeans": 9007,
      "meetings": 9008,
      "homicide": 9009,
      "hotline": 9010,
      "curt": 9011,
      "curios": 9012,
      "waff": 9013,
      "chees": 9014,
      "cheering": 9015,
      "corps": 9016,
      "advant": 9017,
      "##inky": 9018,
      "directions": 9019,
      "violations": 9020,
      "instant": 9021,
      "calc": 9022,
      "yorker": 9023,
      "additional": 9024,
      "sexuality": 9025,
      "susan": 9026,
      "extends": 9027,
      "heartfelt": 9028,
      "entirety": 9029,
      "threaten": 9030,
      "filmed": 9031,
      "devin": 9032,
      "devil": 9033,
      "devot": 9034,
      "motherhood": 9035,
      "paula": 9036,
      "hunter": 9037,
      "dealing": 9038,
      "payment": 9039,
      "magn": 9040,
      "taxpay": 9041,
      "halt": 9042,
      "haley": 9043,
      "##maid": 9044,
      "covering": 9045,
      "arriving": 9046,
      "lovers": 9047,
      "moh": 9048,
      "194": 9049,
      "191": 9050,
      "petition": 9051,
      "coward": 9052,
      "##ysis": 9053,
      "hostage": 9054,
      "palm": 9055,
      "paltrow": 9056,
      "graders": 9057,
      "traveler": 9058,
      "differences": 9059,
      "divide": 9060,
      "denying": 9061,
      "##etta": 9062,
      "properly": 9063,
      "misleading": 9064,
      "surviving": 9065,
      "borrow": 9066,
      "cutest": 9067,
      "dining": 9068,
      "closest": 9069,
      "haircut": 9070,
      "##yneth": 9071,
      "safer": 9072,
      "tara": 9073,
      "potato": 9074,
      "wells": 9075,
      "inspiration": 9076,
      "dressing": 9077,
      "activism": 9078,
      "trek": 9079,
      "minded": 9080,
      "executed": 9081,
      "marching": 9082,
      "jackpot": 9083,
      "embassy": 9084,
      "dougl": 9085,
      "oppose": 9086,
      "conversion": 9087,
      "prepared": 9088,
      "abortions": 9089,
      "captured": 9090,
      "philly": 9091,
      "journalism": 9092,
      "bench": 9093,
      "casting": 9094,
      "simply": 9095,
      "bloody": 9096,
      "##owdy": 9097,
      "worthy": 9098,
      "addressing": 9099,
      "wonderful": 9100,
      "criticizes": 9101,
      "lifting": 9102,
      "drawn": 9103,
      "forgets": 9104,
      "informed": 9105,
      "touched": 9106,
      "fatally": 9107,
      "argent": 9108,
      "argues": 9109,
      "jefferson": 9110,
      "fastest": 9111,
      "##ronic": 9112,
      "##iliar": 9113,
      "destroys": 9114,
      "destroying": 9115,
      "psychic": 9116,
      "catching": 9117,
      "balcony": 9118,
      "recipe": 9119,
      "ivory": 9120,
      "ignored": 9121,
      "chairman": 9122,
      "observ": 9123,
      "proposes": 9124,
      "claiming": 9125,
      "professors": 9126,
      "cookies": 9127,
      "##beat": 9128,
      "undecided": 9129,
      "juice": 9130,
      "arianna": 9131,
      "dollars": 9132,
      "tearfully": 9133,
      "franklin": 9134,
      "extremists": 9135,
      "spirits": 9136,
      "breathe": 9137,
      "verizon": 9138,
      "fingers": 9139,
      "alexand": 9140,
      "loudly": 9141,
      "rainfor": 9142,
      "ashley": 9143,
      "condemn": 9144,
      "narrative": 9145,
      "surfer": 9146,
      "involve": 9147,
      "barbecue": 9148,
      "connected": 9149,
      "connecticut": 9150,
      "berlin": 9151,
      "distract": 9152,
      "haters": 9153,
      "gallup": 9154,
      "navig": 9155,
      "katie": 9156,
      "regulations": 9157,
      "spiritual": 9158,
      "stampede": 9159,
      "chapter": 9160,
      "fetus": 9161,
      "fetish": 9162,
      "utah": 9163,
      "rejected": 9164,
      "weighing": 9165,
      "constitutional": 9166,
      "mandatory": 9167,
      "mandela": 9168,
      "pitbull": 9169,
      "chooses": 9170,
      "unlik": 9171,
      "spoil": 9172,
      "megyn": 9173,
      "surprisingly": 9174,
      "lux": 9175,
      "adopt": 9176,
      "surround": 9177,
      "hungry": 9178,
      "tackling": 9179,
      "analytica": 9180,
      "tunnel": 9181,
      "bradley": 9182,
      "advertising": 9183,
      "rankings": 9184,
      "##boys": 9185,
      "degrees": 9186,
      "cameras": 9187,
      "choices": 9188,
      "alec": 9189,
      "cycle": 9190,
      "egyptian": 9191,
      "locker": 9192,
      "tragically": 9193,
      "earliest": 9194,
      "bursting": 9195,
      "expanding": 9196,
      "cinem": 9197,
      "pyram": 9198,
      "pedoph": 9199,
      "##nbc": 9200,
      "styles": 9201,
      "guesses": 9202,
      "pleasure": 9203,
      "entrepreneurs": 9204,
      "kirk": 9205,
      "kirst": 9206,
      "vegetarian": 9207,
      "innovation": 9208,
      "innovative": 9209,
      "elevator": 9210,
      "vomit": 9211,
      "contempt": 9212,
      "hazing": 9213,
      "shameless": 9214,
      "##ulsive": 9215,
      "september": 9216,
      "paintings": 9217,
      "satisfying": 9218,
      "diagnosis": 9219,
      "unbel": 9220,
      "exposure": 9221,
      "gwyneth": 9222,
      "pistorius": 9223,
      "injection": 9224,
      "uninsured": 9225,
      "scotland": 9226,
      "ordinary": 9227,
      "devastating": 9228,
      "sweatsh": 9229,
      "molestation": 9230,
      "santorum": 9231,
      "comforts": 9232,
      "glorious": 9233,
      "islamophobia": 9234,
      "stereotypes": 9235,
      "dental": 9236,
      "tumor": 9237,
      "analysis": 9238,
      "triump": 9239,
      "awakens": 9240,
      "emotionally": 9241,
      "leonardo": 9242,
      "dialogue": 9243,
      "gabri": 9244,
      "hispanic": 9245,
      "incompet": 9246,
[...]
